<unk>	0
<s>	0
</s>	0
s	-3.29284
.	-3.30617
▁the	-3.36823
,	-3.3873
▁of	-3.83685
▁and	-4.1227
▁to	-4.13244
▁in	-4.2422
▁a	-4.34895
▁	-4.72323
'	-4.77803
▁is	-4.99167
ed	-5.14482
-	-5.16728
ing	-5.17202
▁that	-5.20078
▁for	-5.21968
▁was	-5.28621
▁"	-5.34652
t	-5.42652
▁The	-5.43091
d	-5.43135
▁I	-5.46509
▁on	-5.49248
▁(	-5.51461
:	-5.58052
▁with	-5.60163
?	-5.64433
▁be	-5.64867
▁as	-5.67592
▁you	-5.69035
▁by	-5.71094
)	-5.73431
▁it	-5.785
▁are	-5.79015
▁his	-5.84242
▁from	-5.86067
ly	-5.88789
▁not	-5.89798
y	-5.97981
▁he	-5.98615
▁have	-6.03543
▁or	-6.04057
▁at	-6.04988
a	-6.07068
▁-	-6.08414
er	-6.11352
▁this	-6.12157
▁an	-6.14239
"	-6.18676
▁we	-6.19493
m	-6.20117
▁In	-6.22642
n	-6.22897
e	-6.25808
▁A	-6.26119
al	-6.31212
▁will	-6.32579
i	-6.35547
▁has	-6.37888
▁were	-6.39587
▁their	-6.41484
re	-6.45817
▁who	-6.47037
▁can	-6.47052
r	-6.4861
▁He	-6.48621
▁one	-6.50953
▁all	-6.53191
!	-6.54019
▁Jehovah	-6.56596
▁had	-6.57358
es	-6.57999
▁they	-6.58574
▁God	-6.59865
;	-6.6202
."	-6.62145
in	-6.6261
th	-6.64506
▁which	-6.66632
▁It	-6.67452
▁do	-6.69716
▁me	-6.71385
▁about	-6.75496
▁also	-6.76795
▁but	-6.77279
▁our	-6.79236
▁people	-6.79956
▁your	-6.81681
o	-6.82585
b	-6.82645
▁been	-6.83975
c	-6.87923
▁time	-6.88781
▁him	-6.89534
▁out	-6.89695
▁what	-6.90855
k	-6.91566
▁up	-6.92013
▁us	-6.92599
▁her	-6.9267
S	-6.9438
▁re	-6.9463
▁them	-6.9566
▁my	-6.96971
▁other	-6.97176
▁so	-6.97528
or	-6.98448
▁when	-6.99612
le	-7.02053
h	-7.03955
g	-7.042
▁would	-7.04404
▁first	-7.05101
▁more	-7.05904
▁What	-7.08504
ll	-7.0883
▁no	-7.09042
▁You	-7.10028
▁there	-7.10915
an	-7.11324
ur	-7.12042
ri	-7.12407
▁S	-7.12537
▁de	-7.12855
▁some	-7.13665
li	-7.15405
▁may	-7.15787
l	-7.1668
▁Bangladesh	-7.17658
la	-7.1792
I	-7.1898
▁such	-7.19384
▁This	-7.2047
▁under	-7.21189
▁We	-7.2161
ar	-7.21678
▁Jesus	-7.22224
]	-7.22432
▁[	-7.22684
na	-7.23491
▁over	-7.23731
▁life	-7.24096
▁1	-7.24431
▁Bible	-7.24719
▁into	-7.25102
il	-7.26183
A	-7.26414
▁any	-7.26782
▁than	-7.26985
ation	-7.27759
▁she	-7.28786
▁two	-7.30328
▁like	-7.30437
▁un	-7.30539
▁'	-7.31367
),	-7.32082
▁its	-7.32113
▁C	-7.3213
u	-7.32879
▁if	-7.33544
%	-7.33546
▁after	-7.33688
▁many	-7.35433
el	-7.35982
on	-7.36381
▁only	-7.37192
ra	-7.37262
▁years	-7.37359
ma	-7.37456
ul	-7.37697
w	-7.39561
▁did	-7.39848
able	-7.40006
▁know	-7.40519
▁work	-7.41473
ve	-7.4185
P	-7.41869
p	-7.42062
ers	-7.42436
ic	-7.44129
E	-7.44253
ta	-7.44635
C	-7.4464
▁18	-7.45255
▁made	-7.46106
...	-7.4649
▁world	-7.47512
▁those	-7.47901
ment	-7.48353
▁B	-7.49184
at	-7.49552
▁But	-7.49647
▁man	-7.49649
te	-7.50291
ity	-7.50531
/	-7.50539
▁good	-7.50686
ti	-7.51088
st	-7.51308
▁And	-7.51821
▁these	-7.5207
ion	-7.52122
▁2	-7.52178
z	-7.52225
▁should	-7.52599
▁said	-7.52724
en	-7.52877
▁India	-7.52967
ro	-7.53376
▁new	-7.53542
se	-7.54128
▁could	-7.55181
▁government	-7.55544
▁how	-7.55615
ne	-7.55938
it	-7.56453
man	-7.56514
▁No	-7.56951
▁E	-7.57676
▁make	-7.58521
M	-7.58816
D	-7.59082
▁now	-7.59155
us	-7.59252
de	-7.5971
▁How	-7.60282
▁They	-7.60426
▁way	-7.60709
▁where	-7.61539
f	-7.61958
▁For	-7.62263
▁help	-7.6231
▁most	-7.62526
▁Re	-7.63146
ent	-7.63184
B	-7.64246
▁day	-7.6534
▁part	-7.65591
et	-7.65649
▁She	-7.66558
▁being	-7.66575
▁(19	-7.67093
lo	-7.6746
ck	-7.67813
▁just	-7.68086
ir	-7.68115
▁As	-7.68327
ce	-7.68964
to	-7.69435
▁F	-7.6945
▁19	-7.70055
pur	-7.70473
▁go	-7.70512
ate	-7.70635
T	-7.70937
▁through	-7.70945
▁So	-7.71881
▁against	-7.7207
▁see	-7.72386
id	-7.72456
▁well	-7.72551
the	-7.72822
▁10	-7.72829
▁used	-7.72979
▁get	-7.73159
▁even	-7.73656
ter	-7.74068
▁name	-7.74943
▁country	-7.75595
▁If	-7.75869
▁use	-7.76725
▁right	-7.76803
,"	-7.77625
▁then	-7.78192
▁Na	-7.78346
▁back	-7.79582
▁between	-7.79872
▁because	-7.80094
▁take	-7.8035
O	-7.80393
▁need	-7.80593
▁love	-7.80937
▁during	-7.81224
▁3	-7.81255
▁family	-7.81492
▁before	-7.81843
▁To	-7.82169
ist	-7.82204
ry	-7.82715
▁con	-7.83133
▁very	-7.8351
est	-7.83721
ia	-7.84304
▁P	-7.84325
▁K	-7.84744
▁On	-7.85254
vi	-7.85376
▁year	-7.85516
▁O	-7.85719
▁6	-7.86477
ness	-7.86713
▁here	-7.86734
▁M	-7.88865
as	-7.89293
▁number	-7.89361
um	-7.89571
▁come	-7.89721
▁There	-7.8977
▁15	-7.90262
▁When	-7.90342
▁G	-7.90758
▁want	-7.91428
▁three	-7.91506
▁own	-7.91912
▁does	-7.92278
The	-7.92291
sh	-7.92536
▁Bengal	-7.93072
▁down	-7.93203
me	-7.93242
1	-7.93315
ting	-7.93749
▁D	-7.94121
am	-7.94756
▁Indian	-7.94945
).	-7.9518
is	-7.95522
im	-7.95538
▁Ha	-7.95543
ba	-7.95689
ru	-7.95941
▁12	-7.96367
mi	-7.96446
▁Ma	-7.96672
▁p	-7.97044
▁don	-7.97048
▁Ba	-7.97173
di	-7.97391
▁7	-7.978
un	-7.97862
▁T	-7.98032
▁dis	-7.98069
▁Do	-7.98087
▁children	-7.98449
▁De	-7.98461
▁home	-7.99286
ad	-7.99304
▁must	-8.00215
ha	-8.00258
ge	-8.00291
▁st	-8.00637
age	-8.00837
va	-8.00918
▁system	-8.01185
ive	-8.01585
▁place	-8.01814
▁At	-8.02233
▁b	-8.0254
▁end	-8.0264
ol	-8.0267
▁New	-8.02951
ated	-8.03514
▁W	-8.03873
▁same	-8.04151
▁state	-8.04252
▁17	-8.04269
▁8	-8.04576
▁14	-8.0461
F	-8.04973
ism	-8.0499
▁co	-8.05035
▁5	-8.05142
ni	-8.05152
▁long	-8.05282
▁things	-8.0554
▁person	-8.05631
6	-8.0573
ian	-8.05843
▁11	-8.05912
▁found	-8.06012
▁That	-8.06412
▁U	-8.06523
▁film	-8.06539
▁An	-8.06857
▁20	-8.07024
▁others	-8.07298
▁4	-8.07361
7	-8.07807
ty	-8.07875
▁much	-8.07917
go	-8.08027
▁water	-8.0825
ci	-8.08384
▁shall	-8.08607
▁Ra	-8.08667
▁known	-8.0911
▁called	-8.09355
ot	-8.09744
▁Be	-8.09777
▁16	-8.09949
ance	-8.09953
▁death	-8.10305
▁After	-8.10409
ant	-8.1047
▁became	-8.1057
▁become	-8.10618
▁human	-8.10719
ary	-8.10845
▁Al	-8.11256
▁order	-8.11491
▁power	-8.11623
▁e	-8.11709
▁example	-8.12015
mo	-8.12081
ke	-8.12105
less	-8.12621
ya	-8.12763
ga	-8.12768
▁while	-8.1309
5	-8.13242
▁another	-8.13431
fi	-8.13838
▁13	-8.14235
G	-8.14704
▁La	-8.14813
▁city	-8.14921
ish	-8.15083
N	-8.15415
ful	-8.15431
▁women	-8.15822
0	-8.15957
▁both	-8.16129
▁Ja	-8.16505
H	-8.16559
▁war	-8.16668
▁Ka	-8.17296
▁Pakistan	-8.17613
em	-8.17664
▁9	-8.18104
▁find	-8.18114
▁district	-8.18169
▁last	-8.18239
▁different	-8.18304
▁Dhaka	-8.18319
ted	-8.18927
▁say	-8.18983
ine	-8.19119
▁Sa	-8.19141
▁think	-8.19205
▁University	-8.19357
▁Why	-8.19437
K	-8.19591
3	-8.19687
▁each	-8.20195
▁page	-8.20365
▁men	-8.2046
▁later	-8.20531
ous	-8.2058
▁c	-8.20612
▁His	-8.21083
▁still	-8.2117
ch	-8.21195
ak	-8.2124
▁give	-8.21351
▁Paul	-8.21975
lu	-8.22255
min	-8.22256
▁land	-8.22573
4	-8.22822
▁came	-8.22913
da	-8.23594
co	-8.24004
R	-8.24075
▁World	-8.2446
▁Christian	-8.24748
▁book	-8.25006
▁took	-8.25548
x	-8.25628
▁Kingdom	-8.2571
ling	-8.25717
▁hand	-8.25926
pa	-8.26131
▁including	-8.26644
▁set	-8.26741
▁heart	-8.27091
▁All	-8.27401
▁public	-8.27417
ka	-8.27466
be	-8.27575
▁population	-8.2773
9	-8.27771
hi	-8.27771
▁service	-8.28038
▁school	-8.28447
▁got	-8.28472
▁One	-8.28859
tra	-8.29035
▁School	-8.29406
▁house	-8.29499
▁important	-8.29514
▁John	-8.2953
▁never	-8.29647
▁pre	-8.29963
▁Ro	-8.30479
▁However	-8.30584
j	-8.3079
▁great	-8.30821
▁century	-8.31537
▁father	-8.31826
▁since	-8.31864
.-	-8.31917
ut	-8.31982
▁am	-8.32181
▁head	-8.32332
per	-8.32848
▁show	-8.33161
▁every	-8.33174
▁around	-8.33204
▁national	-8.33531
▁view	-8.34311
tion	-8.34945
L	-8.34978
▁among	-8.35029
▁local	-8.35173
ating	-8.35194
▁area	-8.35589
▁second	-8.35903
no	-8.36011
▁too	-8.36134
▁million	-8.36329
▁says	-8.36508
▁without	-8.36803
▁off	-8.36941
▁sub	-8.37119
ah	-8.37184
▁pro	-8.37484
▁Khan	-8.37548
▁Go	-8.37651
▁days	-8.37746
▁post	-8.38179
har	-8.38366
tic	-8.38556
▁en	-8.38633
▁support	-8.38665
he	-8.38771
▁per	-8.39177
▁Some	-8.39202
▁Man	-8.39205
▁United	-8.39533
ence	-8.39593
wa	-8.39962
▁law	-8.39989
▁might	-8.40017
▁Bo	-8.40332
▁N	-8.40412
▁Christ	-8.40459
▁going	-8.40554
▁earth	-8.40585
▁congregation	-8.40709
up	-8.40755
▁spirit	-8.40763
▁period	-8.40879
ja	-8.41161
do	-8.41186
▁political	-8.41269
▁National	-8.41596
ca	-8.41841
▁following	-8.42064
W	-8.42301
▁few	-8.42411
▁means	-8.42452
ies	-8.42496
▁group	-8.42878
U	-8.43642
▁four	-8.4375
▁young	-8.44072
rs	-8.44085
▁St	-8.44182
son	-8.44329
▁g	-8.44416
▁ma	-8.44557
▁di	-8.4468
."-	-8.45084
▁again	-8.4533
▁Con	-8.45389
pe	-8.45459
▁Ta	-8.4586
▁Witnesses	-8.45945
▁Act	-8.46134
▁Mo	-8.46185
▁car	-8.46295
bi	-8.46324
▁age	-8.46331
▁Da	-8.46542
▁why	-8.46649
▁left	-8.4665
▁study	-8.47309
ton	-8.47359
▁keep	-8.47809
▁social	-8.48059
▁today	-8.48111
▁away	-8.4826
ten	-8.48278
▁Po	-8.48549
▁Fa	-8.48595
op	-8.48709
▁put	-8.48836
▁started	-8.48998
ud	-8.4901
▁War	-8.49055
▁look	-8.49161
▁(1	-8.49265
▁won	-8.49314
▁ex	-8.49434
▁course	-8.49493
▁news	-8.49832
▁May	-8.49896
▁began	-8.50225
▁read	-8.50226
▁team	-8.50301
▁live	-8.5034
▁Pro	-8.51023
▁language	-8.51023
▁case	-8.51251
▁Pa	-8.51535
mon	-8.51816
▁information	-8.51845
▁high	-8.51879
ho	-8.52059
▁wrote	-8.52482
▁old	-8.52632
gu	-8.52825
▁given	-8.5301
▁faith	-8.53033
▁H	-8.53086
▁spiritual	-8.5331
▁education	-8.53324
▁free	-8.53451
▁words	-8.53707
000	-8.54157
▁Lo	-8.54472
▁son	-8.54544
land	-8.54688
▁mother	-8.55101
▁until	-8.5513
ial	-8.55233
nd	-8.55635
▁mo	-8.55643
▁truth	-8.55694
2	-8.55804
▁English	-8.55879
▁true	-8.56035
▁25	-8.56094
▁Su	-8.56164
▁Me	-8.56196
▁let	-8.56203
▁early	-8.56249
▁present	-8.56387
po	-8.5645
▁R	-8.56619
▁times	-8.56667
▁little	-8.56889
▁...	-8.57064
▁something	-8.57113
▁video	-8.57248
▁members	-8.57349
▁born	-8.57604
gi	-8.57618
▁Christians	-8.57622
▁J	-8.57703
V	-8.5775
bo	-8.58054
ities	-8.58091
▁feel	-8.5839
▁College	-8.58412
?"	-8.58674
",	-8.5898
▁food	-8.59463
ab	-8.5948
▁often	-8.59611
▁village	-8.59684
▁Mi	-8.59701
▁tell	-8.59908
▁Government	-8.59919
▁small	-8.60383
▁March	-8.60441
▁himself	-8.60458
▁several	-8.60477
▁member	-8.60662
▁With	-8.61261
▁Mar	-8.61278
▁24	-8.61459
▁Muslim	-8.61493
der	-8.61704
▁High	-8.61745
▁side	-8.61952
▁km	-8.61966
ise	-8.62041
ie	-8.62077
▁role	-8.62237
▁My	-8.62313
▁mind	-8.62451
▁held	-8.6282
▁British	-8.63034
▁Co	-8.63046
Y	-8.63051
om	-8.63135
▁special	-8.63227
▁ra	-8.63323
▁min	-8.63441
▁Le	-8.63466
v	-8.63895
led	-8.64092
nt	-8.64544
▁fact	-8.64567
▁la	-8.6476
▁Peter	-8.64859
▁30	-8.6502
hu	-8.65062
▁non	-8.65123
▁South	-8.65127
▁development	-8.65184
▁child	-8.65319
way	-8.65437
▁form	-8.65453
▁open	-8.65478
▁These	-8.65525
ap	-8.65562
▁21	-8.65666
▁full	-8.65809
▁best	-8.65832
mp	-8.66098
▁line	-8.66129
▁money	-8.6614
ized	-8.66378
ki	-8.66495
▁hope	-8.66546
▁far	-8.66547
▁making	-8.66625
ship	-8.66662
one	-8.67066
▁real	-8.67138
▁Vi	-8.67191
▁result	-8.67282
▁media	-8.67467
▁t	-8.67519
▁five	-8.67541
▁large	-8.67617
▁within	-8.67644
za	-8.67705
▁face	-8.6776
▁religious	-8.67913
".	-8.68163
▁next	-8.68166
▁parents	-8.68202
ction	-8.68229
▁along	-8.68282
▁rate	-8.68346
▁King	-8.68768
▁countries	-8.68769
▁23	-8.68812
▁kind	-8.68918
os	-8.68945
ner	-8.6896
tan	-8.69002
▁East	-8.69043
▁went	-8.69175
ure	-8.69608
▁West	-8.69806
ng	-8.69888
▁word	-8.69902
▁report	-8.69902
▁December	-8.70017
ward	-8.70111
men	-8.70115
▁building	-8.70275
▁told	-8.7039
▁history	-8.70484
▁act	-8.70853
▁pa	-8.70997
▁thought	-8.71042
▁message	-8.71275
▁upon	-8.71375
▁believe	-8.71528
▁Sha	-8.71533
▁January	-8.71714
▁By	-8.71948
▁received	-8.72292
▁though	-8.72332
▁project	-8.72367
▁police	-8.72374
ally	-8.7274
-19	-8.72921
▁hard	-8.73031
▁International	-8.73131
▁able	-8.73131
▁always	-8.73288
▁published	-8.73417
▁having	-8.73536
▁doing	-8.73727
▁established	-8.73847
▁comp	-8.73979
▁Bar	-8.74005
▁taken	-8.74077
▁April	-8.74156
tor	-8.74352
▁Ga	-8.74526
▁Ho	-8.74633
▁talk	-8.74922
▁Ca	-8.75182
ang	-8.75471
ite	-8.75506
ee	-8.75633
▁brother	-8.75701
:1	-8.75753
▁really	-8.76109
▁L	-8.76111
▁Ar	-8.76171
▁light	-8.7629
▁health	-8.76338
▁region	-8.76342
▁Li	-8.76409
gra	-8.76492
bu	-8.76723
ran	-8.76859
we	-8.76935
▁body	-8.77085
time	-8.77202
▁less	-8.77258
▁night	-8.77324
▁ha	-8.77379
▁students	-8.77394
ji	-8.77421
▁Di	-8.77431
tro	-8.77488
▁field	-8.77553
▁Ne	-8.77741
▁bring	-8.77755
▁According	-8.78009
▁wife	-8.78147
▁August	-8.78151
▁account	-8.7827
▁point	-8.78622
▁ten	-8.78702
▁however	-8.78738
▁woman	-8.78768
pp	-8.78808
ip	-8.78936
▁Ali	-8.78984
▁share	-8.79067
han	-8.79096
▁short	-8.79124
▁From	-8.79129
▁international	-8.79171
▁main	-8.7934
▁learn	-8.79407
▁2011	-8.79409
▁Shah	-8.79444
und	-8.79452
▁ever	-8.79504
▁reason	-8.79586
▁six	-8.79779
▁turn	-8.79925
▁office	-8.80003
8	-8.80242
▁business	-8.80317
▁control	-8.80338
▁together	-8.80387
▁call	-8.80416
▁living	-8.80455
▁American	-8.80489
tri	-8.80781
▁Ni	-8.80886
▁Cha	-8.80912
00	-8.80943
▁gave	-8.80961
▁change	-8.80982
▁died	-8.81277
▁vi	-8.81427
▁Now	-8.81515
▁inter	-8.81618
▁various	-8.81646
line	-8.81703
▁done	-8.81889
ver	-8.82252
▁During	-8.82313
ize	-8.82346
ig	-8.82385
20	-8.82395
▁w	-8.8252
▁President	-8.8255
▁22	-8.82637
▁better	-8.82658
con	-8.82685
ex	-8.82821
▁ca	-8.82892
▁Bi	-8.83015
born	-8.83092
ber	-8.8313
▁June	-8.83141
▁Yes	-8.83167
▁Israel	-8.83245
▁level	-8.83318
ster	-8.83411
▁Gu	-8.83462
nk	-8.83552
qui	-8.83566
▁question	-8.83702
▁Mu	-8.83704
sha	-8.83836
Picture	-8.83923
▁Not	-8.84029
▁Dr	-8.84048
▁whole	-8.84142
▁worship	-8.8417
com	-8.84223
▁respect	-8.84468
▁named	-8.84638
▁Se	-8.84735
ub	-8.84736
▁list	-8.84845
▁cannot	-8.84919
▁mean	-8.84954
▁care	-8.84989
ard	-8.85031
▁leave	-8.85126
▁bank	-8.8533
▁consider	-8.85504
▁situation	-8.85613
▁October	-8.85629
▁Then	-8.85677
▁Islam	-8.85742
▁ba	-8.85776
and	-8.85827
▁based	-8.8586
our	-8.85869
▁Many	-8.85916
les	-8.86024
▁al	-8.86295
ning	-8.86374
▁Can	-8.86675
du	-8.86757
▁process	-8.86837
▁former	-8.86839
▁due	-8.86847
▁start	-8.8696
▁July	-8.87046
▁close	-8.87262
▁February	-8.87301
▁play	-8.8731
▁mis	-8.87374
ach	-8.87413
▁Who	-8.87415
▁cause	-8.87425
▁movement	-8.8759
cu	-8.87605
▁town	-8.87735
▁killed	-8.88078
▁strong	-8.88333
▁Let	-8.88341
▁court	-8.88471
▁near	-8.88484
▁include	-8.88525
▁sure	-8.88566
▁played	-8.8858
▁bo	-8.88626
▁using	-8.88782
▁file	-8.88895
▁Award	-8.89259
che	-8.89323
▁November	-8.89374
▁Minister	-8.89406
ical	-8.89413
▁subject	-8.89473
▁States	-8.89525
que	-8.89815
▁experience	-8.89884
▁general	-8.89947
▁cl	-8.8999
ow	-8.9009
▁bad	-8.90091
▁League	-8.90239
▁li	-8.90253
▁apostle	-8.90318
▁Hindu	-8.90426
▁value	-8.90428
fa	-8.90431
ai	-8.90458
▁material	-8.90706
ving	-8.90713
▁asked	-8.90722
▁brothers	-8.9094
red	-8.90968
▁Your	-8.91189
ring	-8.91218
▁Ri	-8.91233
▁located	-8.91301
▁road	-8.91335
▁sin	-8.91504
▁September	-8.91598
gg	-8.91629
▁attack	-8.91785
▁total	-8.91864
dy	-8.91888
▁seen	-8.91924
▁class	-8.9208
shi	-8.921
kh	-8.92138
▁k	-8.92151
▁Word	-8.922
ik	-8.92292
▁knowledge	-8.92373
▁marriage	-8.92405
ac	-8.9251
▁themselves	-8.92532
▁2014	-8.92548
▁community	-8.92548
▁David	-8.92621
▁ask	-8.92635
▁serve	-8.92675
▁personal	-8.92675
▁activities	-8.92787
▁north	-8.92834
▁imp	-8.92952
▁station	-8.92952
tar	-8.93033
vo	-8.93142
chi	-8.93264
▁possible	-8.93265
ag	-8.9327
▁Our	-8.93289
▁capital	-8.93554
▁already	-8.93698
▁visit	-8.93797
▁company	-8.93859
▁blog	-8.94132
▁thing	-8.94179
▁peace	-8.94195
▁return	-8.943
▁im	-8.94342
▁ministry	-8.94392
ions	-8.94454
▁king	-8.94534
▁Ex	-8.94535
▁Ju	-8.9474
▁major	-8.94888
▁matter	-8.95096
▁common	-8.95425
▁Un	-8.95465
▁sp	-8.95491
▁art	-8.95617
wi	-8.95747
▁understand	-8.95761
gar	-8.95799
▁Wa	-8.95829
▁saw	-8.9586
ft	-8.95939
▁rights	-8.96108
▁army	-8.9612
▁dead	-8.96143
▁provide	-8.9624
▁follow	-8.96251
fe	-8.96453
▁Ki	-8.96524
▁China	-8.96621
▁San	-8.9663
▁Am	-8.96698
▁f	-8.96824
ph	-8.96874
tch	-8.96875
▁upazila	-8.96899
▁research	-8.96916
tu	-8.97044
▁record	-8.9709
▁female	-8.97219
▁average	-8.97248
tal	-8.97335
▁gr	-8.97335
dar	-8.9735
15	-8.97505
▁Even	-8.97573
▁future	-8.97769
od	-8.97797
▁Shi	-8.98013
▁26	-8.98065
au	-8.9807
▁fear	-8.98136
▁text	-8.98192
▁program	-8.98209
ble	-8.98507
▁sent	-8.98602
▁economic	-8.98633
▁Si	-8.98695
▁District	-8.98741
lin	-8.98781
ell	-8.9895
▁blood	-8.99063
▁2013	-8.99066
▁self	-8.99113
ron	-8.99193
lic	-8.99307
mer	-8.99361
▁past	-8.99448
▁fine	-8.99503
▁areas	-8.99528
▁purpose	-8.99535
▁Mr	-8.99551
▁position	-8.99847
▁Hu	-8.99857
▁lead	-9.00068
▁market	-9.00092
▁yet	-9.00164
▁once	-9.00505
▁Ko	-9.00649
▁written	-9.00667
▁religion	-9.00687
ani	-9.00752
▁General	-9.00804
▁allow	-9.00947
side	-9.00987
mit	-9.01051
▁freedom	-9.01164
▁Sam	-9.01325
▁series	-9.01337
ration	-9.01508
▁temple	-9.01527
▁military	-9.01656
▁Ministry	-9.01796
▁created	-9.02034
▁hold	-9.02085
ious	-9.02108
▁Are	-9.0238
▁male	-9.02533
▁site	-9.02536
nu	-9.02568
▁practice	-9.02653
▁modern	-9.02814
▁2012	-9.02887
▁ho	-9.03047
ture	-9.03144
ven	-9.03225
▁led	-9.03244
ep	-9.03356
▁anything	-9.03416
▁US	-9.03517
▁brought	-9.0366
king	-9.03708
day	-9.03761
▁na	-9.03963
▁river	-9.04175
q	-9.04203
ganj	-9.04326
▁Asia	-9.04386
pt	-9.04451
▁bar	-9.04583
▁soon	-9.04606
ec	-9.049
▁society	-9.04965
▁taking	-9.05014
ual	-9.05035
ore	-9.05037
ice	-9.05058
▁months	-9.05316
▁husband	-9.05343
▁Her	-9.05362
▁south	-9.05371
▁friend	-9.05608
war	-9.05781
▁rule	-9.05832
▁28	-9.05876
▁Cor	-9.05936
kar	-9.05962
▁working	-9.06005
▁lost	-9.06083
▁Car	-9.06163
ology	-9.06253
▁Cup	-9.06306
▁popular	-9.06324
▁27	-9.06391
row	-9.065
▁se	-9.06561
▁Pi	-9.06686
▁benefit	-9.06688
▁similar	-9.06835
▁(2	-9.0685
▁Bengali	-9.06971
▁nothing	-9.07035
▁Don	-9.07239
▁meeting	-9.07246
▁da	-9.07584
▁2010	-9.07635
5)	-9.07692
▁1,	-9.07723
▁speak	-9.07738
▁lo	-9.07765
▁interest	-9.07906
▁etc	-9.0791
ever	-9.08055
▁air	-9.08212
▁fire	-9.08243
▁Where	-9.0837
▁culture	-9.08459
▁cr	-9.08466
▁Day	-9.0855
ana	-9.08621
tain	-9.08628
ight	-9.08741
▁run	-9.08755
ey	-9.08789
▁party	-9.08831
▁considered	-9.08833
▁move	-9.08836
▁demand	-9.08894
▁ground	-9.08916
▁date	-9.08972
▁built	-9.08983
▁faithful	-9.09103
▁Jo	-9.09216
ler	-9.09219
ations	-9.09253
▁pi	-9.0932
▁pay	-9.09347
rit	-9.09485
▁story	-9.09621
▁month	-9.09861
▁command	-9.09926
▁stay	-9.10188
▁boy	-9.10202
▁literacy	-9.10227
▁plan	-9.10272
▁someone	-9.10328
ding	-9.10403
▁eyes	-9.10439
▁daughter	-9.10512
▁wrong	-9.10569
▁room	-9.1059
▁ones	-9.10614
▁2015	-9.10661
▁ancient	-9.10723
▁Father	-9.10775
pro	-9.10804
▁foreign	-9.10894
tter	-9.10908
▁Langdon	-9.10912
▁bi	-9.10967
▁especially	-9.11065
▁served	-9.11093
ay	-9.1114
▁article	-9.11201
▁music	-9.11223
▁State	-9.11226
mar	-9.11229
▁access	-9.1142
▁Satan	-9.11429
▁2016	-9.1166
▁effect	-9.11664
▁lives	-9.11679
▁o	-9.11778
▁whom	-9.11845
▁teaching	-9.11913
▁While	-9.11987
▁season	-9.12007
▁problem	-9.12042
▁El	-9.12054
▁single	-9.12089
▁(18	-9.12376
▁didn	-9.12382
▁saying	-9.12394
act	-9.12454
▁half	-9.12498
▁Africa	-9.12548
▁stop	-9.12589
▁reading	-9.12617
▁po	-9.12672
▁according	-9.12694
▁Of	-9.12703
▁Since	-9.12733
▁29	-9.12872
▁Best	-9.1301
▁seven	-9.1302
▁Well	-9.13026
▁rest	-9.13039
▁continue	-9.13128
▁coming	-9.13303
▁door	-9.13342
ped	-9.13484
▁Corinthians	-9.13543
▁clear	-9.1357
ries	-9.13572
▁Je	-9.13642
▁America	-9.13655
▁letter	-9.13655
▁North	-9.13658
sion	-9.1366
▁Oh	-9.13705
▁protect	-9.1375
ko	-9.13829
▁test	-9.1385
for	-9.13887
▁least	-9.13975
ative	-9.14088
ny	-9.14156
▁term	-9.14201
▁week	-9.14418
▁Lord	-9.14878
out	-9.14883
▁V	-9.14971
ible	-9.15126
uddin	-9.1513
▁ch	-9.15144
▁appointed	-9.1523
tin	-9.15256
her	-9.15323
▁available	-9.15362
▁certain	-9.15465
▁du	-9.15514
▁further	-9.15522
▁le	-9.15591
▁lot	-9.15617
▁List	-9.15683
▁released	-9.15722
▁Or	-9.15745
▁issue	-9.15807
▁sense	-9.1594
▁Law	-9.16079
▁stand	-9.16086
ham	-9.16115
ified	-9.16128
▁nation	-9.16256
▁moved	-9.1645
bb	-9.16461
az	-9.16486
▁problems	-9.1649
▁2018	-9.16543
▁met	-9.16546
▁desire	-9.16611
▁please	-9.16648
▁sign	-9.1671
ram	-9.16875
lan	-9.17146
ze	-9.17216
▁ago	-9.17376
by	-9.17499
if	-9.17611
▁address	-9.1779
▁2009	-9.17834
ile	-9.17967
ld	-9.1798
▁felt	-9.18121
▁key	-9.18156
▁Although	-9.18381
▁Son	-9.18631
▁event	-9.18646
pi	-9.18647
▁People	-9.18669
ns	-9.18776
▁relationship	-9.18797
▁host	-9.18916
▁ti	-9.19226
val	-9.19232
▁image	-9.19242
▁section	-9.19278
nce	-9.19346
▁va	-9.19371
▁sh	-9.19401
▁institutions	-9.19444
▁mu	-9.1948
▁final	-9.19498
use	-9.19528
▁college	-9.19539
▁minister	-9.19587
▁whether	-9.19643
▁Bangla	-9.19675
▁offer	-9.19735
▁needed	-9.19747
▁conduct	-9.19906
▁Because	-9.19948
ator	-9.20063
▁married	-9.20208
▁almost	-9.20216
▁ta	-9.20459
▁writing	-9.20691
▁Matthew	-9.20747
▁cur	-9.2075
▁questions	-9.20758
▁east	-9.208
▁outside	-9.20904
▁trust	-9.20966
▁career	-9.20972
▁0	-9.21008
▁2017	-9.21176
lar	-9.21265
▁Pre	-9.21395
▁official	-9.21407
ple	-9.2147
▁enough	-9.21524
▁friends	-9.21578
▁late	-9.21632
▁election	-9.21652
bar	-9.21735
tha	-9.21833
▁character	-9.21953
▁enjoy	-9.22003
▁3:1	-9.22086
▁Har	-9.22124
▁Bha	-9.22127
ved	-9.22155
▁private	-9.22196
▁remember	-9.22233
▁formed	-9.22277
▁force	-9.22285
▁Union	-9.22361
ide	-9.22375
▁fellow	-9.22416
▁joined	-9.22575
▁2008	-9.22662
▁Mon	-9.22675
▁Most	-9.22784
▁31	-9.22814
rate	-9.22833
▁Council	-9.22904
▁50	-9.23102
▁40	-9.23107
▁training	-9.23167
iv	-9.23218
▁books	-9.23241
ised	-9.23258
▁trade	-9.23268
▁pe	-9.2334
▁Per	-9.23408
▁current	-9.23574
4)	-9.23658
ff	-9.23826
▁security	-9.23899
vers	-9.2397
▁sound	-9.24009
▁centre	-9.24072
▁third	-9.24073
▁Bank	-9.24123
cha	-9.24141
▁type	-9.24171
av	-9.24203
▁black	-9.24248
cent	-9.2425
▁Court	-9.24446
▁En	-9.24542
▁job	-9.24623
▁difficult	-9.24639
▁City	-9.24668
▁sa	-9.24775
▁organization	-9.24786
▁writer	-9.24873
▁die	-9.2489
▁natural	-9.2496
▁continued	-9.24996
▁attention	-9.25102
ming	-9.25182
!"	-9.25222
mal	-9.25257
▁Please	-9.25322
ization	-9.25329
▁receive	-9.25329
▁works	-9.25349
▁fall	-9.25363
▁front	-9.25367
▁Upazila	-9.25499
▁document	-9.25535
▁wanted	-9.25599
ok	-9.25732
▁star	-9.25778
sta	-9.25807
Ma	-9.25807
▁Mal	-9.25971
▁poor	-9.26069
tta	-9.26234
▁Ti	-9.26256
J	-9.2628
▁provided	-9.2628
▁Twitter	-9.26341
▁president	-9.26366
▁trans	-9.264
▁charge	-9.26449
den	-9.26544
▁pain	-9.26568
▁author	-9.26609
▁cricket	-9.26676
▁Qu	-9.26734
7)	-9.26748
▁fish	-9.26785
▁concern	-9.26796
▁reach	-9.26981
ari	-9.2716
You	-9.27255
▁across	-9.27281
▁deep	-9.27316
▁Pra	-9.27372
let	-9.27849
ef	-9.27854
▁involved	-9.27883
lt	-9.27883
gram	-9.27915
▁Come	-9.28009
▁accept	-9.28204
dic	-9.28211
▁2007	-9.28383
mor	-9.2843
▁Col	-9.28493
▁Commission	-9.28513
▁low	-9.28687
su	-9.28785
▁everything	-9.28847
▁answer	-9.28851
▁heaven	-9.2889
▁behind	-9.28983
ctor	-9.28991
▁exist	-9.29063
▁decision	-9.29149
▁holy	-9.29208
▁Europe	-9.29224
▁action	-9.29254
▁Bangladeshi	-9.29437
6)	-9.29543
▁prayer	-9.29589
▁try	-9.29642
ib	-9.29644
▁Du	-9.29658
old	-9.29696
▁York	-9.29741
▁display	-9.29773
ral	-9.29781
▁heard	-9.29935
gan	-9.30006
10	-9.30048
▁higher	-9.30152
▁picture	-9.30433
tive	-9.30485
▁tra	-9.30558
▁included	-9.30582
▁Timothy	-9.30596
▁Congress	-9.30875
▁Psalm	-9.30896
▁England	-9.30898
▁Bu	-9.30931
▁reported	-9.3098
▁sea	-9.3098
▁giving	-9.30985
▁hear	-9.31033
▁knew	-9.31067
fu	-9.31174
▁block	-9.31175
ition	-9.31215
▁match	-9.31299
▁rather	-9.31359
30	-9.31386
ju	-9.31415
▁Facebook	-9.3146
ery	-9.31468
▁top	-9.31496
▁See	-9.31774
▁magazine	-9.31812
▁ge	-9.31865
▁wall	-9.31936
▁cha	-9.31968
▁Chinese	-9.32024
▁French	-9.32047
ists	-9.32251
tle	-9.3252
▁campaign	-9.32591
▁degree	-9.32591
van	-9.326
▁above	-9.32617
▁hours	-9.32698
▁percent	-9.32712
▁pioneer	-9.32805
▁Chittagong	-9.32852
▁fa	-9.32929
▁deal	-9.33006
▁break	-9.33072
▁travel	-9.33106
▁m	-9.33113
qu	-9.33158
▁student	-9.3316
▁Just	-9.332
▁Department	-9.3321
▁authority	-9.33269
▁Sen	-9.33272
▁happy	-9.33281
br	-9.33386
▁operation	-9.33515
▁(1)	-9.33576
▁girl	-9.33593
▁turned	-9.33597
▁voice	-9.33664
▁thus	-9.33817
eg	-9.33902
▁director	-9.33927
▁disc	-9.33959
▁protest	-9.34083
▁necessary	-9.34096
▁physical	-9.34096
▁ways	-9.34103
▁contact	-9.34241
▁2:1	-9.34301
istic	-9.34321
ou	-9.34383
ability	-9.34413
▁literature	-9.34531
nch	-9.34645
▁meet	-9.34666
▁success	-9.34695
▁idea	-9.34701
▁spread	-9.34949
▁Egypt	-9.35056
▁developed	-9.35141
▁Z	-9.35152
12	-9.35183
▁Calcutta	-9.35185
▁avoid	-9.35235
▁stage	-9.35251
hal	-9.35299
▁remain	-9.35337
iya	-9.35399
▁source	-9.35469
ura	-9.35598
▁groups	-9.35677
▁events	-9.35786
▁either	-9.3582
▁First	-9.3582
jo	-9.35841
ash	-9.35844
▁tax	-9.35936
▁create	-9.36022
▁central	-9.36093
50	-9.36183
We	-9.3619
nder	-9.36246
▁anti	-9.3626
▁Ru	-9.36264
▁Japan	-9.36394
▁European	-9.364
▁cost	-9.36403
2)	-9.36518
▁Main	-9.36554
▁Ch	-9.36557
▁needs	-9.36633
form	-9.36798
▁elected	-9.36815
▁big	-9.36941
▁states	-9.37076
▁happened	-9.37081
▁Rahman	-9.37176
▁Party	-9.37269
▁science	-9.3735
▁workers	-9.37685
▁inside	-9.37696
▁fruit	-9.37699
▁Education	-9.37724
▁listen	-9.37806
▁civil	-9.37817
▁Read	-9.37822
▁Ad	-9.37896
▁fight	-9.37958
ev	-9.37989
lam	-9.38173
ue	-9.38208
▁production	-9.38242
med	-9.38248
▁Test	-9.38305
▁Yeah	-9.38357
pri	-9.38372
▁1.	-9.38405
▁disease	-9.38416
ably	-9.38457
▁Gra	-9.3848
ong	-9.38601
right	-9.38696
part	-9.388
▁online	-9.38804
▁meetings	-9.38809
▁forces	-9.38902
▁History	-9.38918
▁pray	-9.38931
▁2.	-9.39101
▁represent	-9.39102
▁Islamic	-9.39192
▁title	-9.39192
ned	-9.39232
▁disciples	-9.39235
▁worked	-9.39274
▁helped	-9.39341
25	-9.39361
▁app	-9.39402
▁legal	-9.39489
amp	-9.39533
cing	-9.39536
ged	-9.39563
▁preaching	-9.39596
▁clean	-9.39615
▁hundred	-9.3969
▁Pan	-9.39816
▁witness	-9.3987
▁Pat	-9.3988
▁toward	-9.40023
▁addition	-9.40026
sign	-9.40118
▁Academy	-9.40175
▁reflect	-9.402
▁Time	-9.40281
▁increase	-9.40305
▁ship	-9.40414
▁films	-9.40479
▁eight	-9.40555
▁seat	-9.40623
▁sister	-9.40645
▁joy	-9.40678
▁meaning	-9.40679
▁lack	-9.40744
▁selected	-9.40752
ea	-9.4077
nda	-9.40792
9)	-9.40853
▁Kar	-9.40961
▁morning	-9.41023
8)	-9.41097
▁hands	-9.41174
▁hi	-9.41188
hat	-9.41274
▁enter	-9.41397
▁Director	-9.41463
▁mentioned	-9.41517
▁largest	-9.41527
▁Sal	-9.41532
▁evidence	-9.41617
▁kill	-9.41623
▁happen	-9.41625
▁beginning	-9.41708
▁Board	-9.41736
▁Lu	-9.41759
▁honor	-9.41779
▁sun	-9.41786
▁hospital	-9.41799
▁walk	-9.41812
▁university	-9.41851
▁followed	-9.41852
▁policy	-9.41955
▁Jerusalem	-9.42033
▁Mark	-9.42199
▁learned	-9.42201
▁Song	-9.42268
▁services	-9.42371
▁Ahmed	-9.42373
ging	-9.42656
▁whose	-9.42697
▁construction	-9.42752
▁River	-9.4276
▁network	-9.42769
Matthew	-9.42774
year	-9.42783
▁maintain	-9.42788
dra	-9.42805
▁content	-9.42821
ina	-9.42826
▁Kolkata	-9.42897
▁shows	-9.42914
▁100	-9.42931
▁Th	-9.42961
▁Institute	-9.42964
▁moment	-9.43006
ek	-9.43102
11	-9.43116
▁entire	-9.43121
ama	-9.43397
▁officer	-9.43455
▁claim	-9.43497
▁attempt	-9.43503
hara	-9.43556
▁passed	-9.43629
▁su	-9.43673
ku	-9.43736
▁website	-9.43769
nes	-9.4383
▁Te	-9.43899
hy	-9.43904
▁usually	-9.43928
ger	-9.43941
port	-9.43972
▁influence	-9.43999
13	-9.44233
▁data	-9.44234
▁design	-9.44308
▁add	-9.44319
▁plant	-9.44323
ric	-9.44345
▁Arab	-9.44399
▁Service	-9.44433
▁vote	-9.44456
-2	-9.44503
▁Hi	-9.44582
▁ro	-9.44616
▁watch	-9.44735
▁humans	-9.44822
▁union	-9.44861
oc	-9.44946
▁search	-9.44948
end	-9.44997
cle	-9.45082
▁getting	-9.45183
▁television	-9.45184
▁gonna	-9.45185
▁Good	-9.45189
fin	-9.45205
ear	-9.4523
▁Greek	-9.45402
▁sexual	-9.45458
24	-9.45477
▁2006	-9.45527
▁par	-9.45544
▁Could	-9.45588
light	-9.45612
▁parts	-9.45624
▁traditional	-9.45734
vel	-9.45773
▁Division	-9.45783
▁loving	-9.45799
▁Committee	-9.45804
▁object	-9.45828
work	-9.45848
ung	-9.45858
▁amount	-9.45889
▁prison	-9.45899
▁challenge	-9.45912
pose	-9.45928
▁journalist	-9.4593
▁London	-9.46021
▁bear	-9.46054
▁user	-9.46146
ification	-9.46187
▁yourself	-9.4628
▁sacrifice	-9.46291
▁active	-9.46313
▁approach	-9.46347
ther	-9.4637
▁nu	-9.46445
▁separate	-9.46483
▁original	-9.46618
▁Australia	-9.46734
▁throughout	-9.46737
23	-9.46839
set	-9.46901
ens	-9.4693
ffi	-9.46948
uk	-9.46954
▁port	-9.46988
▁Ya	-9.4703
▁5:1	-9.4711
▁decided	-9.47127
▁leaders	-9.4718
▁pen	-9.47192
ban	-9.47208
▁Ph	-9.4723
▁Sir	-9.47262
izing	-9.47265
ath	-9.473
▁Film	-9.4736
▁Great	-9.47441
▁trying	-9.4746
▁send	-9.47477
sol	-9.47484
▁languages	-9.47493
▁Za	-9.47507
low	-9.47557
ps	-9.47575
▁Year	-9.47579
▁comment	-9.47618
▁Did	-9.47717
▁recent	-9.4784
zi	-9.47847
▁Ku	-9.47875
io	-9.47876
(	-9.47908
▁Sp	-9.47913
▁sha	-9.47925
▁phone	-9.48059
-3	-9.48177
▁computer	-9.48187
▁fi	-9.48289
car	-9.48471
▁link	-9.48553
No	-9.48642
▁Like	-9.48753
▁Russian	-9.48832
iti	-9.48868
rat	-9.48916
yan	-9.49021
▁counsel	-9.49049
▁debut	-9.49176
▁teach	-9.49213
▁request	-9.49273
▁Those	-9.4928
▁perfect	-9.49292
▁Other	-9.49309
▁Sri	-9.49344
▁changed	-9.4935
▁train	-9.49409
▁individual	-9.49418
ker	-9.4947
▁rural	-9.49509
▁related	-9.4951
▁Star	-9.49523
▁nor	-9.49598
▁Prime	-9.49609
▁couple	-9.49668
dha	-9.49721
In	-9.49777
▁tried	-9.49813
▁comes	-9.49835
▁ju	-9.49886
▁Yet	-9.49889
▁conditions	-9.49923
▁Get	-9.49964
▁cover	-9.4997
▁basis	-9.50008
▁Ab	-9.50019
▁servants	-9.50026
▁anyone	-9.5005
▁kept	-9.50089
▁violence	-9.50173
▁game	-9.5018
▁mosque	-9.50203
▁Muhammad	-9.50312
bor	-9.50378
ren	-9.50422
▁James	-9.50435
▁price	-9.50459
▁itself	-9.50465
▁fe	-9.50505
▁super	-9.50513
▁thinking	-9.50715
▁gold	-9.5074
ug	-9.50775
▁Under	-9.50782
▁Women	-9.50826
night	-9.50878
▁ja	-9.50988
▁space	-9.51023
AR	-9.51049
▁3.	-9.51058
40	-9.51087
▁direct	-9.51119
▁Abdul	-9.51146
▁trial	-9.51255
▁Bas	-9.51256
▁leader	-9.51262
▁slave	-9.5134
▁famous	-9.51368
He	-9.51369
▁folder	-9.51399
▁method	-9.51426
▁window	-9.51435
▁newspaper	-9.51454
of	-9.51554
▁Dis	-9.51634
▁Cricket	-9.51712
▁fair	-9.51792
▁else	-9.51829
▁THE	-9.5183
▁secret	-9.52142
▁4:1	-9.52156
ates	-9.52182
▁prevent	-9.52226
▁Internet	-9.5223
▁Thus	-9.52289
wan	-9.52295
▁industry	-9.52461
ium	-9.52475
▁opened	-9.52479
▁build	-9.52501
▁chief	-9.5267
gh	-9.52713
▁Thank	-9.52716
▁application	-9.5278
▁prophet	-9.5281
▁Art	-9.52828
▁cut	-9.53067
▁longer	-9.53141
ded	-9.53163
▁consist	-9.53224
▁Raj	-9.53226
▁wish	-9.53279
▁Here	-9.53293
▁Republic	-9.53303
▁(2)	-9.53341
▁Photo	-9.53394
▁Today	-9.53428
▁depend	-9.53457
▁origin	-9.53576
ier	-9.53582
par	-9.53594
▁west	-9.53665
▁alone	-9.537
▁1:1	-9.53782
▁occasion	-9.53813
▁produced	-9.53813
▁center	-9.53818
cep	-9.53834
ley	-9.53866
▁species	-9.53869
▁Society	-9.53888
▁looking	-9.5403
▁award	-9.54332
▁ruler	-9.54384
▁financial	-9.54418
▁likely	-9.54476
af	-9.54504
▁leading	-9.54506
▁serving	-9.54579
▁paper	-9.54594
▁response	-9.54654
▁version	-9.5473
▁Will	-9.54738
▁write	-9.54812
▁v	-9.54832
-20	-9.54859
▁Science	-9.5498
▁allowed	-9.54992
▁described	-9.55034
▁speech	-9.55128
▁appeared	-9.55174
▁families	-9.55336
▁earlier	-9.55396
▁direction	-9.55485
▁check	-9.55546
cy	-9.55575
▁serious	-9.55627
▁daily	-9.55665
▁eat	-9.5572
▁ill	-9.55722
▁god	-9.5575
▁fast	-9.55802
▁doubt	-9.55846
▁unit	-9.55865
zz	-9.55871
ita	-9.55895
4,	-9.55897
▁caused	-9.55924
▁nations	-9.56001
▁independent	-9.56083
▁complete	-9.56098
my	-9.56163
ES	-9.56181
0)	-9.56256
▁Later	-9.56262
des	-9.56351
▁census	-9.56414
▁Luke	-9.56452
▁Wi	-9.56458
▁primary	-9.5654
▁ver	-9.5654
▁discussion	-9.56573
gue	-9.56574
▁develop	-9.56662
▁island	-9.56703
▁em	-9.56758
▁4.	-9.56772
▁Work	-9.56839
▁Roman	-9.56921
▁begin	-9.5694
▁1971	-9.56962
▁i	-9.56987
▁birth	-9.57006
aries	-9.57062
▁ban	-9.57075
▁everyone	-9.57075
▁judge	-9.57079
▁j	-9.57125
▁German	-9.57163
▁lu	-9.57206
▁medical	-9.57234
▁comfort	-9.5726
ify	-9.57353
▁church	-9.57383
▁announced	-9.57449
mark	-9.57491
▁opportunity	-9.57625
nagar	-9.57809
17	-9.57826
▁Scriptures	-9.57835
▁mankind	-9.57838
▁border	-9.5793
▁taught	-9.57936
▁mid	-9.57955
▁regular	-9.58112
▁returned	-9.58133
▁32	-9.58253
▁thank	-9.58261
▁youth	-9.58319
▁towards	-9.58329
▁makes	-9.58357
▁mass	-9.58493
▁II	-9.58518
16	-9.58597
▁convention	-9.58604
▁33	-9.58619
▁changes	-9.5865
▁apply	-9.58797
John	-9.58798
▁step	-9.58841
mate	-9.58881
tric	-9.58994
▁stone	-9.59041
▁custom	-9.59097
▁Hall	-9.591
▁pressure	-9.5912
▁press	-9.59125
▁nature	-9.59181
▁Kha	-9.59184
▁gift	-9.59222
▁oil	-9.5923
▁figure	-9.59237
thi	-9.59242
▁Human	-9.59255
▁rep	-9.5926
▁pass	-9.5926
▁constitute	-9.59262
▁actually	-9.59278
▁organ	-9.59325
▁cases	-9.59342
▁win	-9.59372
▁required	-9.59419
▁cross	-9.59439
len	-9.59483
lish	-9.59494
▁model	-9.59536
▁sir	-9.59566
▁Fe	-9.59587
▁equal	-9.59646
tur	-9.59716
▁opposition	-9.59717
▁Iran	-9.59721
ese	-9.59764
▁rules	-9.59789
▁Global	-9.59842
▁respond	-9.59842
▁sometimes	-9.5988
fl	-9.59882
▁matters	-9.5996
▁Another	-9.5998
▁forest	-9.60105
▁wicked	-9.60155
▁song	-9.60187
▁statement	-9.60203
▁wide	-9.60207
▁authorities	-9.60242
▁structure	-9.603
ree	-9.60338
▁studies	-9.60404
▁Ram	-9.60423
▁60	-9.60486
▁Central	-9.60498
▁Look	-9.60541
▁attitude	-9.60546
▁Watchtower	-9.60717
▁draw	-9.60843
▁refer	-9.61009
▁AD	-9.61084
▁reports	-9.61222
lia	-9.61271
▁fund	-9.61303
abad	-9.61378
▁nearly	-9.61384
lit	-9.61421
▁Fi	-9.61501
▁elders	-9.61517
hood	-9.61559
wo	-9.61578
▁wise	-9.61622
▁efforts	-9.61663
▁save	-9.61677
▁Saudi	-9.61774
▁feet	-9.61797
▁Isaiah	-9.61811
▁murder	-9.61823
▁province	-9.61855
gen	-9.61873
ign	-9.61962
▁instead	-9.61974
▁Char	-9.62009
▁Army	-9.62064
▁blogger	-9.62251
▁raised	-9.62308
▁artist	-9.62344
60	-9.62391
▁urban	-9.62392
ye	-9.62393
▁Mosque	-9.62398
▁wonder	-9.62493
kin	-9.62578
ara	-9.62596
▁Such	-9.62619
▁ourselves	-9.62684
▁communication	-9.62716
uch	-9.62723
▁Their	-9.62739
▁issues	-9.62744
22	-9.62808
▁kingdom	-9.6289
▁Two	-9.62913
AN	-9.6294
▁lived	-9.62947
▁Muslims	-9.63036
▁TV	-9.63095
▁Bal	-9.6313
▁added	-9.63161
▁kid	-9.63186
▁cor	-9.63258
1)	-9.63271
▁expression	-9.63279
rd	-9.63297
▁mi	-9.63367
▁football	-9.63459
▁rich	-9.63469
▁division	-9.63564
dia	-9.63612
▁seems	-9.63646
▁express	-9.63756
▁sy	-9.63789
26	-9.63798
▁failed	-9.63807
▁Afghanistan	-9.63846
▁perform	-9.63852
▁simply	-9.63877
▁greater	-9.63901
▁wisdom	-9.63941
▁Association	-9.64006
▁cultural	-9.64024
14	-9.64036
mu	-9.64081
▁France	-9.64104
▁effort	-9.6417
▁significant	-9.64234
▁although	-9.64429
▁cap	-9.64445
▁color	-9.64506
▁crime	-9.64529
vent	-9.6457
ose	-9.64595
▁discuss	-9.6463
▁gain	-9.64672
ches	-9.64685
▁join	-9.64792
tation	-9.64972
▁si	-9.6516
▁cell	-9.65244
▁worth	-9.65271
▁soul	-9.65307
▁powerful	-9.65358
27	-9.65399
▁Ge	-9.65473
▁constituency	-9.65511
▁Proverbs	-9.65544
▁club	-9.65607
▁sector	-9.65617
iz	-9.65656
▁Population	-9.65742
▁indicate	-9.6586
uck	-9.65866
▁false	-9.65874
▁code	-9.65912
ria	-9.65939
▁count	-9.65949
▁wait	-9.66057
▁facilities	-9.66073
teen	-9.66152
▁Min	-9.66166
pir	-9.66236
▁35	-9.66316
▁ready	-9.66338
vid	-9.66416
▁commercial	-9.66438
log	-9.66486
aj	-9.66489
▁release	-9.66537
▁Delhi	-9.66538
fo	-9.66684
▁poet	-9.66706
▁box	-9.66715
▁Show	-9.66753
▁symbol	-9.66804
dom	-9.66805
▁regarding	-9.66859
▁Have	-9.66873
▁Asian	-9.66995
▁songs	-9.67014
▁declared	-9.67061
▁laws	-9.67073
so	-9.6711
illa	-9.67162
▁commission	-9.67172
kha	-9.6723
▁Life	-9.67305
▁Assembly	-9.6734
▁doctor	-9.67349
atory	-9.67366
▁politician	-9.67374
point	-9.67383
ua	-9.67427
▁arrested	-9.67459
▁para	-9.67492
▁Far	-9.6753
▁tradition	-9.67663
▁grow	-9.67666
▁effective	-9.67668
▁correct	-9.67674
▁card	-9.67695
▁Sc	-9.67698
▁player	-9.6778
▁white	-9.67874
▁location	-9.67912
▁responsibility	-9.6798
▁foot	-9.68006
▁cities	-9.68065
ov	-9.68075
▁individuals	-9.6821
▁guard	-9.68229
33	-9.6823
▁regard	-9.68231
▁places	-9.68271
▁educational	-9.68358
▁battle	-9.68461
▁soil	-9.68486
▁annual	-9.68495
▁red	-9.68636
▁2005	-9.68715
▁ne	-9.68755
▁2000	-9.68819
▁professional	-9.68824
▁Tri	-9.68863
▁sex	-9.68944
▁Adam	-9.68973
cr	-9.6901
▁Bra	-9.69074
▁terms	-9.69124
▁quite	-9.69278
▁opinion	-9.69306
ants	-9.69321
▁mountain	-9.6934
▁stories	-9.69396
▁privilege	-9.69443
▁task	-9.69554
ney	-9.69556
▁guy	-9.69686
▁gives	-9.69717
▁perhaps	-9.69786
▁6:1	-9.69806
▁moral	-9.69939
▁adult	-9.69995
▁Ke	-9.70009
▁2,	-9.70055
▁ve	-9.70058
▁flood	-9.70071
like	-9.70125
▁Ser	-9.70137
ute	-9.70163
▁round	-9.70186
▁Olympic	-9.70243
room	-9.70275
▁transport	-9.70315
▁reached	-9.70436
▁lower	-9.70458
▁preach	-9.70479
▁quality	-9.70509
▁cre	-9.70524
▁Open	-9.70726
▁introduced	-9.70752
▁conflict	-9.70754
▁Acts	-9.70819
tern	-9.70823
▁Moses	-9.7085
▁growth	-9.70853
▁sq	-9.70941
▁completed	-9.70979
▁goal	-9.71016
▁Tom	-9.71119
▁occur	-9.71191
▁beautiful	-9.71206
▁principles	-9.7125
tract	-9.71283
▁produce	-9.71305
bra	-9.71346
▁Hat	-9.71368
ook	-9.7139
ological	-9.71397
▁attend	-9.71405
▁Pe	-9.71455
▁condition	-9.71521
▁style	-9.71577
70	-9.71591
▁hit	-9.71802
▁Russia	-9.71934
cor	-9.71947
vol	-9.71948
▁Public	-9.71977
▁Sur	-9.72
ER	-9.72004
▁Sub	-9.72045
▁firm	-9.72049
put	-9.72114
-18	-9.72197
▁strength	-9.72199
uc	-9.72215
▁management	-9.72313
▁belong	-9.72325
▁relations	-9.72427
▁belief	-9.72435
▁priest	-9.72436
▁rain	-9.72437
▁simple	-9.7247
bha	-9.72507
▁status	-9.72542
▁pu	-9.72607
▁Chief	-9.72691
▁Hey	-9.72765
▁camp	-9.72818
▁crowd	-9.72825
80	-9.72837
▁table	-9.72849
uri	-9.72921
▁remained	-9.72953
It	-9.72982
▁Voices	-9.73002
▁minutes	-9.73013
▁Use	-9.73053
▁particular	-9.7308
59	-9.73091
▁basic	-9.73171
▁showed	-9.73232
▁programme	-9.73235
lor	-9.7325
▁buy	-9.73257
▁Egyptian	-9.73368
▁import	-9.73464
vin	-9.73521
▁ob	-9.73531
▁therefore	-9.73536
gal	-9.73541
yo	-9.73575
Do	-9.737
▁exp	-9.73728
▁Pakistani	-9.7375
▁writes	-9.73753
▁railway	-9.73792
▁rank	-9.73826
▁Jews	-9.73826
AT	-9.73846
ullah	-9.7385
▁increased	-9.73891
▁Kan	-9.73911
▁Mah	-9.73947
86	-9.73986
19	-9.74034
▁Fo	-9.74083
▁manner	-9.74098
var	-9.74123
▁den	-9.74157
▁performance	-9.74214
▁focus	-9.74255
▁energy	-9.74288
▁fla	-9.74312
3)	-9.74417
bul	-9.74418
▁inform	-9.74442
▁Mas	-9.74464
cho	-9.74507
▁Gi	-9.74526
▁fully	-9.74549
▁App	-9.74608
85	-9.74628
▁piece	-9.74657
▁Revelation	-9.74676
▁mark	-9.74691
▁Parliament	-9.74793
▁strengthen	-9.74818
▁Inter	-9.74867
▁branch	-9.74907
based	-9.7494
▁Mary	-9.74951
▁recorded	-9.74957
▁carry	-9.75024
▁loss	-9.75047
▁forward	-9.75054
hold	-9.75209
99	-9.75237
▁justice	-9.75289
▁Dar	-9.75304
lf	-9.75318
73	-9.7533
▁stated	-9.75331
▁seem	-9.7534
▁gas	-9.75367
▁activity	-9.75386
▁safe	-9.75418
▁thousands	-9.75422
▁Mor	-9.75445
▁chapter	-9.75483
lect	-9.75507
▁elections	-9.75587
▁tri	-9.75597
▁agricultural	-9.756
rist	-9.7561
▁praise	-9.75671
ome	-9.75699
rr	-9.75714
▁export	-9.75731
ila	-9.75809
▁responsible	-9.75957
▁thousand	-9.76019
▁below	-9.76027
▁Tra	-9.76055
▁dance	-9.76076
▁spoke	-9.76096
▁territory	-9.76104
▁size	-9.76129
▁global	-9.7614
▁results	-9.76184
gon	-9.7624
▁administration	-9.76324
ties	-9.76334
▁novel	-9.76373
rk	-9.76584
▁believed	-9.76642
▁independence	-9.76655
▁Over	-9.76668
▁Would	-9.76692
now	-9.76711
▁damage	-9.76719
▁note	-9.76755
▁sat	-9.76794
▁mar	-9.76838
▁risk	-9.7684
▁rise	-9.76867
▁directed	-9.76887
▁Sun	-9.76951
wn	-9.76975
▁particularly	-9.76979
▁dream	-9.77061
▁spent	-9.77062
▁sleep	-9.77135
bal	-9.77153
▁establish	-9.77168
Psalm	-9.77176
wal	-9.7719
89	-9.77218
▁appear	-9.77247
▁highest	-9.77274
▁master	-9.7731
▁suggest	-9.77358
▁complex	-9.77431
▁committee	-9.77432
▁Okay	-9.77432
▁Does	-9.77488
▁Pri	-9.77494
76	-9.77693
▁Sultan	-9.77729
▁easy	-9.7773
ray	-9.77766
▁base	-9.7777
▁suffering	-9.77789
▁Name	-9.778
▁tree	-9.77854
▁2004	-9.77883
▁teacher	-9.77884
ency	-9.77907
▁store	-9.77927
8.	-9.77935
▁expect	-9.7795
▁politics	-9.77952
▁centuries	-9.78027
ising	-9.78103
char	-9.78153
93	-9.78172
▁followers	-9.78172
▁bound	-9.78183
pet	-9.78214
section	-9.78243
▁environment	-9.78262
▁carried	-9.78291
▁progress	-9.78293
▁touch	-9.78346
▁animals	-9.78416
og	-9.78549
▁channel	-9.78551
bit	-9.78623
▁flow	-9.78654
▁finally	-9.78714
▁trouble	-9.78777
▁supply	-9.78815
▁middle	-9.78818
▁wood	-9.78828
▁leg	-9.78888
▁users	-9.78953
▁doesn	-9.78977
shed	-9.78983
▁heavenly	-9.79044
92	-9.79044
ement	-9.79068
▁Job	-9.79113
can	-9.79308
over	-9.79346
▁rock	-9.7935
ugh	-9.79418
▁editor	-9.79437
▁limited	-9.79482
ators	-9.79496
▁radio	-9.79513
fr	-9.7955
▁Che	-9.79571
▁offered	-9.79578
34	-9.79582
▁Nepal	-9.79699
▁prove	-9.79703
▁feelings	-9.79813
▁difference	-9.79844
▁Air	-9.79865
05	-9.799
uring	-9.79985
▁circumstances	-9.80027
▁Though	-9.80032
▁path	-9.80044
▁fo	-9.80077
▁choice	-9.8015
▁favor	-9.80158
▁inspired	-9.80218
▁Development	-9.80225
▁37	-9.80287
pre	-9.80337
84	-9.80415
01	-9.8044
06	-9.80441
▁Buddhist	-9.80447
▁More	-9.80458
▁normal	-9.80542
18	-9.80583
▁reasons	-9.80593
fect	-9.80596
▁patient	-9.80638
hra	-9.80663
▁Up	-9.80713
▁showing	-9.80718
▁ball	-9.80725
71	-9.80757
▁Em	-9.80764
▁eye	-9.80806
ade	-9.80897
▁includes	-9.80907
▁House	-9.80939
▁2019	-9.80941
▁Professor	-9.80984
tical	-9.80992
▁increasing	-9.81061
94	-9.8112
▁positive	-9.81138
▁citizens	-9.81203
long	-9.81228
▁concerned	-9.81278
▁Israelites	-9.81386
▁34	-9.81405
▁beyond	-9.81408
▁refuge	-9.81408
▁Germany	-9.81454
hen	-9.81455
▁property	-9.81517
▁angel	-9.81518
▁movie	-9.81565
▁Sea	-9.81586
ix	-9.81595
▁households	-9.81611
▁shown	-9.81636
▁comments	-9.81668
▁arrangement	-9.81734
74	-9.81742
▁ru	-9.81774
Acts	-9.81815
83	-9.81832
▁70	-9.81833
▁happiness	-9.81834
▁probably	-9.81834
▁improve	-9.81898
98	-9.81903
▁looked	-9.81911
▁anointed	-9.8195
rap	-9.81972
08	-9.81977
91	-9.81987
cid	-9.82074
▁board	-9.82099
▁tournament	-9.82106
▁Va	-9.82122
lock	-9.82135
Q	-9.82166
bil	-9.82194
▁gone	-9.82261
▁spend	-9.82264
What	-9.82345
▁Gha	-9.82415
▁1990	-9.82424
▁proper	-9.82439
58	-9.82458
▁Early	-9.82536
▁association	-9.82573
▁deliver	-9.82583
▁bit	-9.82645
▁founded	-9.82656
-17	-9.8268
▁playing	-9.82702
▁Pur	-9.82707
▁generation	-9.8273
anda	-9.82731
Z	-9.82747
▁server	-9.82776
▁immediately	-9.82795
▁Sheikh	-9.82842
▁importance	-9.82959
▁ran	-9.82963
▁African	-9.82965
5,	-9.83021
▁Jewish	-9.83044
▁Ban	-9.83084
▁creation	-9.83152
▁provides	-9.83153
90	-9.83185
cal	-9.83297
28	-9.83306
▁bloggers	-9.83322
▁Solomon	-9.83358
▁choose	-9.83364
69	-9.83429
▁constitution	-9.83437
▁quickly	-9.83446
▁range	-9.8345
well	-9.83511
cate	-9.83561
▁successful	-9.83602
▁collection	-9.83699
▁session	-9.83704
▁exercise	-9.83713
▁department	-9.83713
dal	-9.8377
para	-9.83841
she	-9.83935
▁Park	-9.83937
▁skill	-9.83951
▁pan	-9.83965
▁northern	-9.84111
▁accepted	-9.84127
▁explain	-9.84155
some	-9.84183
▁sell	-9.84187
▁myself	-9.84201
▁Church	-9.8427
▁mainly	-9.84345
acy	-9.84358
mun	-9.84438
▁teachers	-9.84464
▁majority	-9.84483
▁parties	-9.84487
▁specific	-9.84503
▁Before	-9.84547
07	-9.84618
ING	-9.84618
▁credit	-9.84635
▁band	-9.84667
▁wa	-9.84676
anga	-9.84697
▁shared	-9.84709
ulation	-9.84738
▁error	-9.84872
▁seek	-9.84913
▁western	-9.84926
▁officers	-9.84978
▁reform	-9.85066
mber	-9.85113
je	-9.85141
88	-9.85202
▁talking	-9.85204
▁era	-9.85256
77	-9.85278
▁technology	-9.85388
67	-9.85413
▁col	-9.85418
▁Any	-9.85432
▁tu	-9.8544
▁Tim	-9.8548
▁schools	-9.85505
▁Iranian	-9.85509
▁Mughal	-9.85549
▁Club	-9.85549
▁strike	-9.8555
▁understanding	-9.85607
eous	-9.85637
▁females	-9.85698
▁recently	-9.85711
▁sur	-9.85734
▁Every	-9.85858
▁billion	-9.8592
8,	-9.85954
▁mail	-9.86062
hin	-9.86064
▁instance	-9.8608
▁function	-9.86099
87	-9.86102
ngle	-9.86115
hor	-9.86136
ON	-9.86143
hand	-9.86191
app	-9.86197
▁determined	-9.86211
▁Par	-9.86384
▁older	-9.86387
▁bus	-9.8641
▁Literacy	-9.86438
2.	-9.86463
▁points	-9.86489
▁%	-9.86572
off	-9.86591
▁multi	-9.86675
▁currently	-9.86714
▁2001	-9.86724
▁burn	-9.86726
▁screen	-9.86756
▁Image	-9.86772
09	-9.8681
▁establishment	-9.86826
▁bin	-9.86852
▁connection	-9.86876
nic	-9.86932
▁Chi	-9.86939
▁sum	-9.87
body	-9.87028
▁permission	-9.87064
all	-9.87094
hir	-9.87143
ock	-9.87178
78	-9.87192
▁Pu	-9.873
▁Cho	-9.87455
dis	-9.87549
▁wind	-9.87628
▁ability	-9.87646
▁photograph	-9.87649
ping	-9.87723
fer	-9.87728
ire	-9.87795
▁Empire	-9.87871
▁setting	-9.87899
jan	-9.87922
hel	-9.87944
lum	-9.87971
not	-9.88008
▁Nations	-9.88024
▁Khal	-9.88039
▁Japanese	-9.88089
▁messages	-9.88125
lip	-9.88128
▁miles	-9.88155
▁treatment	-9.88173
▁becoming	-9.88178
hil	-9.88198
▁supported	-9.882
▁killing	-9.88233
▁lesson	-9.88233
▁Road	-9.88241
▁presence	-9.88246
akh	-9.8832
▁soldiers	-9.88361
▁demonstrate	-9.88366
▁worldwide	-9.8839
▁nine	-9.88398
▁Company	-9.88408
▁appeal	-9.88408
fully	-9.88438
▁Consider	-9.8845
▁promise	-9.88455
ically	-9.88457
82	-9.88538
cc	-9.88544
ress	-9.88683
CC	-9.88723
dri	-9.8874
▁institution	-9.88806
2,	-9.88815
31	-9.88879
▁opening	-9.88888
▁Tu	-9.8889
▁provisions	-9.88902
gro	-9.88963
▁running	-9.89024
▁appropriate	-9.8906
ox	-9.89094
▁sources	-9.89094
▁review	-9.89101
▁drug	-9.89115
▁goes	-9.89118
▁Abraham	-9.89198
▁divided	-9.89239
▁income	-9.8924
▁actor	-9.89271
▁Syria	-9.89281
▁affect	-9.89369
▁log	-9.89476
lie	-9.89494
▁Brother	-9.89496
"?	-9.89561
21	-9.89563
▁Western	-9.89622
▁referred	-9.89636
▁companies	-9.89659
▁hill	-9.89672
▁Water	-9.89684
Luke	-9.8974
04	-9.89788
▁agreement	-9.89834
▁associated	-9.89916
pon	-9.89986
▁appreciate	-9.89995
▁About	-9.90012
▁incident	-9.90206
▁Earth	-9.90206
▁accounts	-9.90251
▁Among	-9.90356
▁Joseph	-9.90374
▁candidate	-9.90459
▁limit	-9.90495
▁sort	-9.90495
▁eventually	-9.90501
scription	-9.90511
▁learning	-9.90523
cious	-9.90594
▁1996	-9.90628
▁generally	-9.90665
▁matches	-9.90679
ular	-9.90719
ography	-9.9079
68	-9.90791
▁festival	-9.90798
▁bodies	-9.90891
▁UN	-9.90946
▁Lanka	-9.90979
head	-9.90996
▁Ve	-9.91017
▁machine	-9.91053
▁Health	-9.9106
▁bomb	-9.91075
▁heavy	-9.91097
▁standard	-9.91116
rn	-9.9113
")	-9.91151
▁measure	-9.91174
▁Romans	-9.91175
▁launched	-9.91185
▁Mohammad	-9.91223
▁girls	-9.91265
▁hour	-9.9127
▁gun	-9.91284
▁struggle	-9.91351
▁5.	-9.91382
▁sal	-9.91397
▁Only	-9.91433
97	-9.91472
aging	-9.91486
▁90	-9.91526
▁sons	-9.91555
▁placed	-9.9158
▁Chandra	-9.91587
Ha	-9.91627
▁Daniel	-9.9163
▁treat	-9.91659
5%	-9.91673
▁paid	-9.91755
▁Book	-9.91761
45	-9.91769
Ba	-9.91774
uff	-9.91786
esh	-9.9179
▁char	-9.91797
AL	-9.91819
▁Soviet	-9.91822
▁Out	-9.91851
▁36	-9.91855
▁45	-9.91859
▁Com	-9.91859
ew	-9.91942
▁habit	-9.92014
cri	-9.92033
▁runs	-9.9205
▁conversation	-9.92079
▁Force	-9.92118
81	-9.92159
▁sorry	-9.92167
▁feeling	-9.92171
ites	-9.92386
▁historical	-9.92469
▁protection	-9.92487
▁Awards	-9.92523
IS	-9.92607
pha	-9.92641
poli	-9.92651
pl	-9.92656
eh	-9.92689
▁Select	-9.92691
▁track	-9.92711
ole	-9.92773
pic	-9.92794
ient	-9.92803
air	-9.92864
▁Source	-9.92986
▁alive	-9.92986
oo	-9.93006
▁accomplish	-9.93029
▁sit	-9.93077
law	-9.93086
▁lay	-9.93097
pec	-9.93101
▁resources	-9.93118
▁hall	-9.93156
class	-9.93196
▁contain	-9.93201
▁encourage	-9.93278
▁Ben	-9.93333
▁Samuel	-9.93334
▁grand	-9.9339
▁Bur	-9.93427
press	-9.93435
▁directly	-9.93539
▁2003	-9.93597
▁1991	-9.93601
▁48	-9.93667
▁previous	-9.93678
▁Persian	-9.93685
matic	-9.93826
▁till	-9.93883
▁race	-9.93917
qua	-9.93925
▁Take	-9.93939
▁eastern	-9.93948
nar	-9.94101
▁certainly	-9.94113
nal	-9.94164
29	-9.94186
▁officials	-9.94198
▁weeks	-9.94222
▁drama	-9.943
▁Bazar	-9.94369
▁mention	-9.94624
▁factor	-9.94648
pan	-9.9465
kan	-9.94697
▁Research	-9.94736
▁mill	-9.94745
▁completely	-9.94746
sco	-9.9476
▁interested	-9.94784
▁baptized	-9.94868
▁divine	-9.94869
▁surface	-9.94961
▁reaction	-9.94974
▁enable	-9.94993
ez	-9.95007
95	-9.95062
ked	-9.95125
▁initiative	-9.95179
lon	-9.95218
▁survey	-9.95223
bari	-9.95246
▁contract	-9.95276
▁cast	-9.95342
▁citizen	-9.9537
bel	-9.95407
▁representative	-9.95464
▁critic	-9.95496
▁ni	-9.95602
don	-9.95658
▁practical	-9.95667
▁interview	-9.95679
gr	-9.95735
▁Sabha	-9.95747
▁proceed	-9.95758
▁Robert	-9.95775
▁Singh	-9.95797
▁target	-9.95801
rian	-9.95808
▁Dan	-9.95854
▁cat	-9.95929
▁38	-9.95934
avi	-9.95942
book	-9.95987
▁Chowdhury	-9.96024
▁acc	-9.96088
▁copy	-9.96124
▁neighbor	-9.96152
▁speaking	-9.96156
▁awarded	-9.96262
▁cu	-9.963
▁shot	-9.96315
most	-9.96387
tail	-9.9641
▁sisters	-9.96412
▁economy	-9.96428
▁notice	-9.96493
▁Arabia	-9.96599
▁sheep	-9.966
35	-9.9664
▁comm	-9.96651
▁dwelling	-9.96687
▁regime	-9.96722
▁domestic	-9.96742
▁weak	-9.96748
xi	-9.96757
▁appearance	-9.96779
▁assembly	-9.96788
▁takes	-9.96808
pping	-9.96818
▁persons	-9.96846
▁fail	-9.96912
▁2002	-9.97025
ession	-9.97114
back	-9.9712
lay	-9.97128
▁length	-9.97149
cial	-9.97156
▁sad	-9.97163
▁clearly	-9.97244
▁forced	-9.97252
▁qua	-9.97278
▁despite	-9.97284
▁assignment	-9.97285
IT	-9.97318
▁fit	-9.97355
win	-9.97413
▁attended	-9.97444
-4	-9.9745
▁root	-9.97476
pla	-9.97513
▁Pak	-9.97551
chan	-9.97602
▁wants	-9.97658
▁actress	-9.97667
79	-9.97679
ened	-9.97681
▁aim	-9.97691
▁drive	-9.97732
▁warm	-9.97783
▁translation	-9.97837
ndi	-9.97838
▁Maha	-9.97877
▁Say	-9.97892
▁evening	-9.97896
▁remains	-9.97926
ini	-9.97935
▁Memorial	-9.97966
▁southern	-9.97967
▁interests	-9.98025
tribute	-9.9807
▁Despite	-9.98103
▁truly	-9.98103
▁overseer	-9.98155
▁arrived	-9.98223
▁contribution	-9.98298
▁1980	-9.9839
▁prepared	-9.9839
▁map	-9.98457
▁wealth	-9.9848
03	-9.98496
▁expressed	-9.98507
▁Games	-9.9852
▁collect	-9.98528
▁1970	-9.98574
▁chance	-9.98599
▁plays	-9.98617
▁evil	-9.98633
▁products	-9.98641
▁issued	-9.98642
▁George	-9.98652
▁airport	-9.98673
▁ka	-9.98732
▁studied	-9.98744
▁weapon	-9.98791
▁Love	-9.98803
▁route	-9.98898
▁guide	-9.9891
▁abuse	-9.98931
▁forms	-9.98975
▁electricity	-9.99004
▁exchange	-9.99021
▁farm	-9.99025
▁arrest	-9.99044
ica	-9.99081
▁bird	-9.99089
▁reveal	-9.9909
▁tea	-9.99129
▁lose	-9.99197
OR	-9.99201
zo	-9.99201
rest	-9.99205
▁standing	-9.99218
▁rid	-9.99218
▁Mir	-9.99272
▁discovered	-9.99291
▁Ber	-9.99316
▁affected	-9.99334
▁instruction	-9.9934
▁fr	-9.99403
aka	-9.99475
▁traffic	-9.99482
▁actions	-9.99527
graph	-9.99781
▁pages	-9.99796
▁entered	-9.9982
▁via	-9.99868
ught	-9.99963
44	-10.0003
ulate	-10.0003
▁existence	-10.0004
▁cricketer	-10.0008
▁Spanish	-10.0013
96	-10.002
▁wonderful	-10.0022
din	-10.0024
▁Catholic	-10.0027
▁street	-10.0028
house	-10.0029
▁gu	-10.0029
▁loved	-10.004
▁Kumar	-10.0044
▁scene	-10.0051
▁explains	-10.0052
gin	-10.0056
▁types	-10.0056
ika	-10.0056
▁destroyed	-10.0056
▁floor	-10.0064
▁audience	-10.0069
▁rice	-10.0071
▁dark	-10.0073
▁pick	-10.0075
▁features	-10.008
board	-10.0081
32	-10.0085
▁except	-10.0086
▁labor	-10.0091
▁harm	-10.0095
▁crops	-10.0104
lp	-10.0105
▁square	-10.0107
-12	-10.011
▁visited	-10.0115
▁Play	-10.0116
▁ahead	-10.0118
bla	-10.012
▁Watch	-10.0129
▁horse	-10.0131
▁contains	-10.0132
▁Es	-10.0135
had	-10.0135
▁criminal	-10.0135
▁Plan	-10.0135
66	-10.0136
isation	-10.0138
▁calendar	-10.014
til	-10.0144
▁Middle	-10.0145
Be	-10.0152
▁promote	-10.0153
-16	-10.0157
▁Demographics	-10.0159
▁bat	-10.0165
Sa	-10.0167
▁1999	-10.0169
▁permanent	-10.0173
raj	-10.0176
▁Ran	-10.0183
-11	-10.0184
▁mistake	-10.0188
▁arch	-10.0195
▁administrative	-10.0206
▁growing	-10.021
ivity	-10.022
▁Ter	-10.0231
02	-10.0234
▁flu	-10.0237
een	-10.024
▁(3)	-10.0241
▁William	-10.0244
▁advance	-10.0248
▁wicket	-10.0249
▁agree	-10.0257
▁signed	-10.0262
▁throw	-10.0264
meter	-10.0268
▁rent	-10.0273
▁vital	-10.0273
▁Sar	-10.0276
▁Group	-10.0278
▁photo	-10.0278
▁Gar	-10.028
▁emb	-10.0281
▁disaster	-10.0282
▁mental	-10.0289
▁Iraq	-10.0291
▁Red	-10.0293
▁qualities	-10.0297
▁option	-10.0298
▁repeat	-10.0305
▁mostly	-10.0306
▁survive	-10.0311
▁huge	-10.0316
▁Police	-10.0321
▁images	-10.0323
cer	-10.0328
ken	-10.0329
▁observe	-10.033
▁BC	-10.0333
▁80	-10.0336
▁forever	-10.0336
▁districts	-10.0337
gene	-10.034
▁Mad	-10.0341
▁Island	-10.0342
75	-10.0345
place	-10.0347
▁designed	-10.0348
▁flag	-10.035
▁leaving	-10.0359
▁regularly	-10.0359
ada	-10.0361
▁semi	-10.0363
pen	-10.0363
▁Comp	-10.0365
▁experienced	-10.0368
▁Cannot	-10.0371
▁composed	-10.0374
▁boat	-10.0374
ood	-10.0375
▁performed	-10.0382
▁industrial	-10.0383
▁defeated	-10.039
▁1947	-10.0392
If	-10.0393
▁cry	-10.0394
▁proved	-10.041
▁explained	-10.0415
▁12:1	-10.0415
▁Shu	-10.0418
▁Fu	-10.0432
▁hurt	-10.0433
▁Prince	-10.0433
▁Abu	-10.0438
▁greatest	-10.044
▁Abd	-10.0444
-15	-10.0444
▁Sil	-10.0452
aya	-10.0457
▁organisation	-10.046
get	-10.046
▁competition	-10.0461
▁1998	-10.0462
▁u	-10.0462
mul	-10.0465
down	-10.0469
▁park	-10.047
▁minor	-10.0471
duction	-10.0481
▁severe	-10.0482
Matt	-10.0482
endra	-10.0485
▁threat	-10.0485
▁standards	-10.0487
▁ga	-10.0489
▁concept	-10.0491
▁Hebrews	-10.0498
▁Bir	-10.0499
▁reward	-10.0503
Ja	-10.0507
▁aid	-10.0522
tory	-10.0526
▁Jan	-10.0527
▁flo	-10.0528
▁righteous	-10.0536
gaon	-10.0543
▁examination	-10.0544
▁Eastern	-10.0544
▁forget	-10.0548
▁theory	-10.0552
-14	-10.0553
▁Second	-10.0556
37	-10.0557
stand	-10.0557
▁defend	-10.0559
▁brief	-10.056
▁dress	-10.0569
ax	-10.0573
▁lands	-10.0574
pher	-10.0577
▁Creator	-10.0584
▁install	-10.0585
▁Hebrew	-10.0586
▁1972	-10.0588
Mo	-10.0591
US	-10.0595
▁holding	-10.0601
▁animal	-10.0602
▁Hill	-10.0603
▁Genesis	-10.0605
▁load	-10.0611
▁flesh	-10.0618
▁connect	-10.0622
▁reference	-10.0628
▁Awami	-10.0643
▁Corporation	-10.0648
▁protests	-10.0648
▁communities	-10.0653
▁Punjab	-10.0653
rous	-10.0661
▁Korea	-10.0675
▁scar	-10.0679
▁fu	-10.0685
▁loyal	-10.069
zar	-10.0691
mic	-10.0696
▁1:2	-10.0703
▁involve	-10.0709
43	-10.071
▁42	-10.0713
bin	-10.0715
ech	-10.0718
▁Secretary	-10.0718
▁bill	-10.0727
▁Give	-10.0728
ava	-10.0731
▁Railway	-10.0733
▁device	-10.0733
▁publication	-10.0741
▁chi	-10.0745
▁5:2	-10.0751
ED	-10.0752
▁okay	-10.0753
▁fra	-10.0755
▁fell	-10.0756
▁agent	-10.0758
igh	-10.076
cus	-10.0761
▁Sylhet	-10.0763
och	-10.0765
▁judgment	-10.0768
▁rivers	-10.0769
▁Part	-10.0777
nia	-10.0783
▁mouth	-10.0783
read	-10.0783
-10	-10.0789
dan	-10.0796
▁Social	-10.0808
▁imagine	-10.0818
▁Still	-10.0819
▁Championship	-10.0824
IC	-10.083
▁Instead	-10.0836
▁remind	-10.0845
▁Ji	-10.085
▁Gan	-10.0851
vert	-10.0857
▁expected	-10.0861
▁conclude	-10.0866
col	-10.0869
▁fan	-10.0869
nan	-10.0873
▁expand	-10.0881
▁Canada	-10.0886
▁danger	-10.0887
▁garden	-10.0894
▁Arabic	-10.0895
▁highlight	-10.0898
▁Singapore	-10.0899
▁Whether	-10.0899
▁brain	-10.09
gent	-10.0903
▁factory	-10.0909
▁posted	-10.0913
▁Ed	-10.0914
▁behalf	-10.0915
▁assigned	-10.0915
▁appears	-10.0919
▁govern	-10.0922
72	-10.0924
▁Pet	-10.0932
▁Rights	-10.0938
▁Mur	-10.0946
▁bridge	-10.0947
▁Miss	-10.0952
yard	-10.0955
▁potential	-10.0955
▁distinct	-10.0956
4;	-10.0957
▁confidence	-10.0966
▁feed	-10.0992
▁counter	-10.0999
▁51	-10.1006
▁feature	-10.1008
▁Malaysia	-10.1012
▁measures	-10.1018
▁Chand	-10.1021
late	-10.1027
▁calling	-10.1027
▁2:2	-10.1032
▁advice	-10.1032
▁destroy	-10.1037
▁prominent	-10.1038
oon	-10.1038
▁Ac	-10.1048
▁47	-10.1049
65	-10.1057
▁raise	-10.107
Read	-10.1072
▁steps	-10.1082
▁whatever	-10.1086
▁destruction	-10.1089
▁joint	-10.1096
▁Week	-10.1105
▁Men	-10.1109
▁balance	-10.111
▁poem	-10.1117
▁Each	-10.1123
42	-10.1123
▁thoughts	-10.1128
▁1997	-10.1131
▁obey	-10.1133
▁platform	-10.1141
▁drink	-10.1142
▁unique	-10.115
▁Bel	-10.1165
▁meant	-10.1169
▁2001,	-10.1169
▁represented	-10.1171
▁critical	-10.1171
RI	-10.1172
▁discipline	-10.1173
▁mobile	-10.1173
▁shape	-10.1175
▁secretary	-10.1189
▁Roy	-10.1191
ola	-10.1191
▁victory	-10.1194
▁escape	-10.1194
▁presented	-10.1194
eb	-10.1195
▁Member	-10.1196
ira	-10.12
39	-10.12
▁Bad	-10.1202
▁providing	-10.1204
▁baby	-10.1208
▁asking	-10.1211
ific	-10.1217
▁Ob	-10.1217
bed	-10.123
▁decisions	-10.1234
▁articles	-10.124
▁arm	-10.1248
▁cloth	-10.1249
47	-10.125
▁operate	-10.125
▁wild	-10.1252
▁hair	-10.1253
▁extend	-10.1257
▁1960	-10.1259
▁ensure	-10.1263
▁moving	-10.1263
rated	-10.127
▁institute	-10.1274
duce	-10.128
ND	-10.1284
▁Authority	-10.1285
▁covered	-10.1286
▁spiritually	-10.1287
▁activists	-10.1287
▁spa	-10.1294
wing	-10.1295
▁organized	-10.1304
▁revenue	-10.131
▁verse	-10.131
▁committed	-10.1312
▁TO	-10.1316
RE	-10.1317
▁Nor	-10.1317
▁scr	-10.1319
▁Liberation	-10.132
▁widely	-10.1325
▁Grand	-10.133
▁seed	-10.1338
ST	-10.134
▁rob	-10.1341
▁Medical	-10.1342
48	-10.1343
pho	-10.1355
▁reign	-10.1358
▁hate	-10.1359
▁corner	-10.1361
▁Sat	-10.1361
▁secondary	-10.1365
▁Y	-10.1366
▁seemed	-10.1368
▁52	-10.1368
▁Ze	-10.1368
▁acting	-10.1369
▁Rather	-10.1369
36	-10.1377
▁Land	-10.1378
▁numerous	-10.1379
▁ideas	-10.138
▁occurred	-10.1381
▁folk	-10.1384
▁singer	-10.1385
▁prepare	-10.1388
▁Make	-10.1391
anta	-10.1392
▁assist	-10.1406
verse	-10.1413
57	-10.1415
hur	-10.1416
▁bowl	-10.1416
▁advantage	-10.1416
▁mode	-10.1417
▁highly	-10.1417
▁waiting	-10.1422
▁files	-10.1425
rant	-10.1426
▁Dh	-10.1438
fil	-10.1438
top	-10.1439
▁elder	-10.1446
▁suffer	-10.1448
▁Shar	-10.1452
▁format	-10.146
water	-10.1467
▁spot	-10.1469
▁tweet	-10.1472
▁Home	-10.1477
nov	-10.1477
▁Both	-10.148
▁Bureau	-10.1481
▁tribe	-10.1485
▁planning	-10.1485
▁Therefore	-10.1492
cient	-10.1498
▁Study	-10.1502
cular	-10.1514
▁easily	-10.1519
▁shoot	-10.1519
ancy	-10.152
▁broad	-10.1525
▁Port	-10.1525
▁offering	-10.1533
▁tear	-10.1533
▁variety	-10.154
▁purposes	-10.1542
▁Besides	-10.1546
▁Myanmar	-10.1551
-13	-10.1561
lation	-10.1568
▁Right	-10.1571
▁pull	-10.1571
▁prophecy	-10.1573
▁Center	-10.1573
▁sen	-10.1578
▁green	-10.1585
▁revealed	-10.1587
46	-10.1588
▁(20	-10.1593
conscious	-10.1594
ush	-10.16
mination	-10.1601
%)	-10.1604
▁mission	-10.1606
▁Hossain	-10.1611
▁essential	-10.1617
▁offence	-10.162
bir	-10.1621
▁functions	-10.1625
▁prefer	-10.1632
▁council	-10.1633
▁calls	-10.1636
▁invited	-10.1642
ject	-10.1647
rating	-10.1649
▁prior	-10.165
▁promised	-10.1657
38	-10.167
▁dedicated	-10.1671
▁activist	-10.1673
64	-10.1683
▁Op	-10.1687
▁honest	-10.1688
▁mate	-10.169
▁Mag	-10.1692
EN	-10.1699
▁dog	-10.1699
▁Han	-10.1712
▁cold	-10.1714
Proverbs	-10.1715
▁zamindar	-10.1716
▁39	-10.1719
▁situated	-10.1721
62	-10.1725
▁Ham	-10.1738
▁200	-10.1741
try	-10.1743
▁helping	-10.175
▁Mother	-10.1751
▁41	-10.1752
▁additional	-10.1755
ease	-10.1757
arch	-10.1758
IN	-10.1758
▁software	-10.1766
▁1950	-10.1768
▁owner	-10.1768
▁Sad	-10.1777
▁Dad	-10.1777
▁colour	-10.1779
▁stopped	-10.178
Re	-10.178
but	-10.1786
▁web	-10.1789
▁assistance	-10.1791
▁claimed	-10.1792
▁Raja	-10.1792
ough	-10.1795
▁wave	-10.1797
▁Qa	-10.1799
▁settlement	-10.1802
▁dam	-10.1802
▁lie	-10.1803
▁fighters	-10.1808
▁consequence	-10.181
▁examine	-10.1815
▁encouraged	-10.1821
▁fill	-10.1823
▁43	-10.1829
▁dig	-10.1833
▁grew	-10.1834
▁parent	-10.1838
▁Local	-10.1841
▁carrying	-10.1841
▁warning	-10.1849
▁Following	-10.185
▁55	-10.1854
coming	-10.1854
▁zone	-10.1855
ikh	-10.1858
▁Syrian	-10.186
stone	-10.1862
▁sharing	-10.1863
rup	-10.1864
▁1995	-10.1866
▁sand	-10.1868
scribe	-10.1876
▁ended	-10.1879
▁Moreover	-10.1883
▁Bri	-10.1885
▁Jordan	-10.1888
▁conducted	-10.1892
▁accurate	-10.1894
▁Sho	-10.1894
▁continues	-10.1895
▁lies	-10.1896
41	-10.1898
▁remove	-10.1902
▁Kali	-10.1908
ob	-10.1909
▁revolution	-10.1913
This	-10.1914
duct	-10.1915
▁extra	-10.1921
▁YouTube	-10.1922
▁NGO	-10.1922
▁staff	-10.1922
run	-10.1922
name	-10.1923
field	-10.1923
▁impact	-10.1927
▁Information	-10.1928
▁distance	-10.1928
▁observed	-10.1928
ida	-10.1932
▁secure	-10.1933
▁render	-10.1934
▁Technology	-10.1945
dhu	-10.1947
▁stood	-10.195
▁Mac	-10.1951
▁Maj	-10.1953
cast	-10.1957
▁uncle	-10.1959
▁Governor	-10.1961
▁Assam	-10.1964
▁imitate	-10.1967
ending	-10.1972
▁poverty	-10.1979
▁games	-10.1991
My	-10.1992
▁details	-10.1994
5;	-10.1994
▁Babylon	-10.1996
▁Chairman	-10.2001
ony	-10.2002
▁Also	-10.2008
▁scored	-10.2009
55	-10.201
▁Power	-10.2019
▁goals	-10.202
arian	-10.2029
▁cook	-10.2032
▁victims	-10.2032
▁sold	-10.2037
▁reality	-10.2038
▁Line	-10.2039
▁Devil	-10.204
▁slow	-10.2043
▁suit	-10.2043
▁minute	-10.2048
AS	-10.2051
▁blind	-10.2053
▁Command	-10.2054
52	-10.2055
▁everlasting	-10.2058
▁painting	-10.2062
▁Student	-10.2064
▁keeping	-10.2067
nga	-10.207
▁Cultural	-10.207
▁micro	-10.207
rang	-10.2071
new	-10.2072
▁grave	-10.2074
56	-10.2075
▁van	-10.2076
[	-10.2079
shan	-10.2079
▁vision	-10.2079
▁Mexico	-10.2081
▁sacred	-10.2081
▁Keep	-10.2089
▁indeed	-10.2093
itu	-10.2094
tak	-10.2095
▁prayers	-10.2096
fold	-10.21
rai	-10.2104
▁gate	-10.2104
▁background	-10.2107
▁poll	-10.2108
▁jail	-10.2108
▁Statistics	-10.211
▁latrine	-10.2116
▁Yemen	-10.2121
how	-10.213
▁license	-10.2133
▁failure	-10.2135
▁publishers	-10.2135
path	-10.2137
▁Black	-10.2139
▁hot	-10.2141
▁handle	-10.2142
Genesis	-10.2142
-5	-10.2151
▁objective	-10.2152
▁Sin	-10.2154
▁sale	-10.2156
▁album	-10.2156
▁49	-10.2158
RA	-10.2158
▁fly	-10.2159
than	-10.2161
▁manifest	-10.2162
▁46	-10.2167
▁obtained	-10.2177
▁mine	-10.2181
▁capacity	-10.2185
▁Girl	-10.2185
▁medicine	-10.2191
▁trees	-10.2193
▁corruption	-10.2195
▁fer	-10.2198
▁solution	-10.2202
▁plain	-10.2202
▁reserve	-10.2203
▁View	-10.2205
burg	-10.2206
▁internet	-10.2208
▁headquarters	-10.2209
▁refused	-10.2215
▁rev	-10.2221
ched	-10.2233
dro	-10.2235
▁resurrection	-10.2244
▁10:1	-10.2247
▁squad	-10.2249
view	-10.2249
hya	-10.2254
La	-10.2255
▁crisis	-10.226
▁Perhaps	-10.2266
▁ethnic	-10.2272
63	-10.2276
▁Economic	-10.2278
▁preserve	-10.228
CH	-10.228
▁provision	-10.228
▁Ver	-10.2283
▁appreciation	-10.2284
54	-10.2287
mid	-10.2288
▁Civil	-10.229
ump	-10.2291
▁Mill	-10.2291
▁transfer	-10.2299
▁photos	-10.2303
▁nominated	-10.2307
▁Kong	-10.2308
▁rare	-10.2312
▁grant	-10.2314
etic	-10.2325
pu	-10.2326
position	-10.2329
ool	-10.233
▁instrument	-10.2331
▁Royal	-10.2334
▁determine	-10.2334
▁Master	-10.2336
▁broadcast	-10.2337
lly	-10.2339
▁sweet	-10.2342
▁Hong	-10.2343
▁fat	-10.2359
▁welcome	-10.236
53	-10.2362
▁trip	-10.2364
azi	-10.2365
▁pure	-10.2365
▁anger	-10.2369
▁Jack	-10.2373
▁cho	-10.2374
▁organizations	-10.2376
ologist	-10.2376
▁auto	-10.2377
▁FIFA	-10.2378
▁fourth	-10.238
udi	-10.2387
▁65	-10.2391
▁streets	-10.2394
▁Constitution	-10.2395
▁double	-10.2396
▁estimated	-10.2398
asa	-10.2399
▁Ahmad	-10.2401
▁Afghan	-10.2403
God	-10.2405
Prov	-10.2407
ctic	-10.2407
▁recover	-10.2407
▁endure	-10.2408
▁spoken	-10.2409
▁realize	-10.2413
▁accident	-10.2413
▁1992	-10.2414
▁Census	-10.2419
▁faced	-10.242
▁afraid	-10.2425
▁professor	-10.2427
▁Help	-10.2428
61	-10.2435
▁foundation	-10.2436
▁44	-10.2442
▁hum	-10.2443
▁coverage	-10.2444
atic	-10.2447
▁recognition	-10.2455
ory	-10.2455
▁answers	-10.2461
▁relief	-10.2467
▁principal	-10.2473
▁vehicle	-10.2473
▁Peace	-10.2473
▁Scriptural	-10.2479
▁identified	-10.2479
▁Three	-10.248
▁sick	-10.2486
▁implement	-10.2489
▁recognized	-10.249
▁cultivate	-10.2496
▁Children	-10.2497
▁temp	-10.25
▁compete	-10.2507
▁Cop	-10.2508
vy	-10.2512
▁plants	-10.2517
▁extended	-10.252
▁YOU	-10.252
▁memory	-10.2526
eva	-10.2533
▁formal	-10.2536
▁broke	-10.2537
▁Rajshahi	-10.2538
▁imperfect	-10.2538
▁hell	-10.2538
▁adopted	-10.2539
▁appointment	-10.2541
▁Spain	-10.2544
▁blessing	-10.2546
▁Males	-10.255
▁partner	-10.255
▁scientific	-10.2556
SA	-10.2559
▁chairman	-10.256
▁removed	-10.2561
▁Ten	-10.2571
▁chosen	-10.2572
▁volume	-10.2574
▁saved	-10.2581
▁native	-10.2584
▁topic	-10.2585
▁drinking	-10.2585
▁deposit	-10.2587
▁net	-10.2589
▁7:1	-10.2593
▁Holy	-10.2594
century	-10.2601
▁liberation	-10.2604
ena	-10.2607
▁frame	-10.2611
▁Hence	-10.2614
▁academic	-10.2617
▁proposed	-10.2617
▁sports	-10.2623
▁invest	-10.2624
▁Protest	-10.2625
▁scientist	-10.2635
▁transform	-10.2637
▁ruling	-10.2639
▁captain	-10.2649
hari	-10.2649
▁medal	-10.2652
▁Report	-10.2652
▁pattern	-10.2659
vor	-10.2661
▁empty	-10.2665
▁Airport	-10.2666
▁lock	-10.2672
▁negative	-10.2677
▁busy	-10.2678
▁debate	-10.268
▁Mer	-10.2681
▁expert	-10.2684
▁select	-10.2694
▁entitled	-10.2695
tom	-10.2698
▁Mc	-10.2699
▁flower	-10.2703
reach	-10.2703
▁Indonesia	-10.2704
asi	-10.2714
▁defeat	-10.2717
▁Ak	-10.2721
▁evident	-10.2726
▁lawyer	-10.2733
take	-10.2735
▁Nawab	-10.2744
▁Paris	-10.2749
face	-10.2751
cher	-10.2754
▁ruin	-10.2754
load	-10.276
▁behavior	-10.2769
▁neither	-10.2769
TH	-10.2772
▁Free	-10.2773
ME	-10.2776
▁Once	-10.2776
lap	-10.2781
▁paragraph	-10.2782
▁tomb	-10.2786
▁exactly	-10.2789
▁silver	-10.2793
hab	-10.2795
mail	-10.2797
▁Language	-10.28
▁conscience	-10.28
▁honour	-10.2806
▁breath	-10.2806
▁Family	-10.2806
▁Centre	-10.2806
far	-10.2815
▁whi	-10.282
▁leadership	-10.2822
▁Nu	-10.2824
▁Retrieve	-10.2824
▁milk	-10.2824
rog	-10.2825
▁53	-10.2826
▁Indeed	-10.2826
mir	-10.2827
▁fun	-10.2833
cker	-10.2839
▁closed	-10.284
▁highway	-10.2841
▁integrity	-10.2849
▁extinct	-10.2849
▁filled	-10.2851
▁Rama	-10.2852
▁identity	-10.2855
▁promises	-10.2858
band	-10.2858
▁recognize	-10.2861
▁journey	-10.2861
▁dangerous	-10.2865
▁weight	-10.2869
▁originally	-10.2872
▁Latin	-10.2872
with	-10.2872
▁Pal	-10.2873
dam	-10.2874
▁executive	-10.2874
▁industries	-10.2874
▁starting	-10.2876
▁studying	-10.2879
nor	-10.2879
▁shut	-10.2882
▁Val	-10.2882
▁dry	-10.2884
▁marked	-10.2888
▁approval	-10.2892
▁courage	-10.2896
▁shop	-10.2901
▁Cla	-10.2905
▁stick	-10.2905
▁nuclear	-10.2911
▁welfare	-10.2911
▁Others	-10.2913
51	-10.2916
▁digital	-10.2917
▁Last	-10.2917
▁parliament	-10.2927
▁worry	-10.293
▁delight	-10.2942
▁pop	-10.2942
▁1993	-10.2944
▁argue	-10.2944
▁edit	-10.2945
▁aware	-10.2947
▁Museum	-10.2948
▁favour	-10.2955
▁Rome	-10.2956
▁Ray	-10.296
▁dish	-10.2961
▁violent	-10.2961
]:	-10.2962
▁Yu	-10.2968
7;	-10.2971
Footnote	-10.2973
▁glory	-10.2973
▁accused	-10.298
▁younger	-10.299
awa	-10.2991
own	-10.2992
6;	-10.2999
▁founder	-10.3
EC	-10.3001
otic	-10.3002
▁Jeremiah	-10.3004
▁Area	-10.3004
▁affairs	-10.3005
▁safety	-10.301
8;	-10.3017
▁punish	-10.3017
How	-10.3023
▁blessings	-10.3032
▁decades	-10.3044
▁precious	-10.3046
▁speed	-10.305
post	-10.305
▁theatre	-10.3051
▁Fer	-10.3055
▁Street	-10.3062
▁Zealand	-10.3068
▁flight	-10.3071
▁Question	-10.3081
▁Vo	-10.3084
49	-10.3086
▁illegal	-10.3087
▁companion	-10.3087
pit	-10.3091
Ra	-10.3095
dhi	-10.3097
▁scale	-10.31
cap	-10.3103
▁1994	-10.3107
▁iron	-10.3109
▁launch	-10.3112
▁extent	-10.3112
▁sentence	-10.3115
gla	-10.3116
▁Old	-10.3125
▁Swa	-10.3134
Jehovah	-10.3138
▁Young	-10.3139
▁servant	-10.3139
▁Sher	-10.3143
▁pleasure	-10.3144
ncies	-10.3155
gni	-10.3159
▁arms	-10.3159
▁Pla	-10.316
▁employment	-10.3172
▁summer	-10.3172
▁Vice	-10.3173
rah	-10.3177
▁condemn	-10.3182
▁Twenty	-10.3182
▁detail	-10.3183
▁rapid	-10.3189
▁fresh	-10.319
▁prince	-10.3195
▁planet	-10.3197
▁Para	-10.32
▁royal	-10.3202
▁shift	-10.3202
▁distribution	-10.3203
shore	-10.3203
▁Tre	-10.3203
vil	-10.3204
▁Philippine	-10.3208
pra	-10.321
▁organisations	-10.321
hid	-10.3211
gate	-10.3215
▁stress	-10.3215
▁finished	-10.3216
▁dear	-10.3218
▁scholar	-10.3218
known	-10.3221
▁principle	-10.3226
▁react	-10.3227
▁Witness	-10.3232
▁Music	-10.3233
▁cinema	-10.3234
▁depict	-10.3235
▁Sham	-10.3237
▁Supreme	-10.324
▁investigation	-10.324
▁requirement	-10.3245
▁Justice	-10.325
▁Engineering	-10.325
▁certificate	-10.3253
ssa	-10.3256
▁fighting	-10.3257
▁opportunities	-10.3259
▁Set	-10.3262
▁earned	-10.3263
▁suffered	-10.3271
▁edition	-10.3274
bon	-10.3276
mission	-10.3281
▁Total	-10.3284
▁Pradesh	-10.3285
▁True	-10.3285
Exodus	-10.3285
istan	-10.3286
▁governor	-10.329
▁initial	-10.3291
wl	-10.3295
▁bond	-10.3297
▁portion	-10.3298
mma	-10.3304
▁1975	-10.3304
▁Ce	-10.3309
vision	-10.3309
worth	-10.3313
▁description	-10.3317
▁product	-10.3318
▁1982	-10.3318
▁height	-10.3322
▁Revolution	-10.3324
▁Matt	-10.3335
▁applied	-10.3337
▁Eve	-10.3346
▁conference	-10.3347
▁Sim	-10.3355
▁Tar	-10.3358
500	-10.3359
▁Australian	-10.3362
▁encounter	-10.3363
▁identify	-10.337
▁storm	-10.337
▁ear	-10.3382
▁drop	-10.3382
▁san	-10.3383
▁Thailand	-10.339
▁straight	-10.3396
▁1989	-10.3397
▁deeply	-10.3398
▁Province	-10.3402
▁literary	-10.3402
▁54	-10.3405
▁wage	-10.3407
▁drawn	-10.3409
▁bra	-10.341
▁consideration	-10.3411
▁newly	-10.3412
▁quick	-10.3414
▁translated	-10.3417
▁personality	-10.3418
▁journal	-10.3421
bol	-10.3422
▁Hospital	-10.3428
atu	-10.343
rich	-10.3432
▁stream	-10.3436
▁catch	-10.3442
▁seeing	-10.3446
▁developing	-10.3446
▁earthquake	-10.3448
uni	-10.3451
▁publications	-10.3454
Deuteronomy	-10.3455
▁blue	-10.3455
▁Pen	-10.3455
▁existing	-10.3457
▁engaged	-10.3467
▁Library	-10.3468
▁hotel	-10.3469
▁larger	-10.347
▁harmony	-10.3481
ware	-10.3483
▁climate	-10.3488
▁enjoyed	-10.3488
▁armed	-10.3495
▁decide	-10.3497
▁sight	-10.3499
test	-10.35
▁Administration	-10.3501
▁secular	-10.3502
▁supposed	-10.3503
▁walking	-10.3505
▁Ash	-10.3505
▁recall	-10.3509
▁duties	-10.3509
SC	-10.3521
▁dealing	-10.3522
ensive	-10.3523
mou	-10.3534
▁Foreign	-10.3534
▁senior	-10.354
▁Awake	-10.354
▁scholars	-10.3542
▁Festival	-10.3554
▁philosophy	-10.3554
▁1984	-10.3555
▁sca	-10.3556
▁Nar	-10.3556
▁Major	-10.3558
▁Foundation	-10.356
▁Gen	-10.356
De	-10.3562
▁emotional	-10.3567
▁laid	-10.3572
▁enemies	-10.3574
▁peaceful	-10.3575
▁Bethel	-10.358
▁manager	-10.3581
▁replaced	-10.3581
▁Brazil	-10.3584
▁Stop	-10.3587
▁specified	-10.3608
▁realized	-10.3612
For	-10.3614
▁Britain	-10.3615
▁Bihar	-10.3616
▁sky	-10.3627
▁library	-10.3634
▁compared	-10.3636
▁bread	-10.3638
▁obtain	-10.3645
▁Head	-10.3649
gam	-10.3654
3;	-10.3655
east	-10.3655
▁Bay	-10.3658
▁notable	-10.3662
▁Er	-10.3666
nath	-10.367
▁otherwise	-10.3674
list	-10.3676
▁demonstration	-10.3681
▁contrast	-10.3681
▁presentation	-10.3681
▁enemy	-10.3681
ographic	-10.3683
gation	-10.3684
garh	-10.3685
▁Post	-10.3685
under	-10.3689
▁regional	-10.3704
▁hearing	-10.3707
▁skin	-10.371
ility	-10.3711
▁vegetable	-10.3714
2;	-10.3715
▁metal	-10.3725
▁bri	-10.3726
▁fundamental	-10.3735
▁remaining	-10.3735
▁Pass	-10.3741
▁indigenous	-10.3741
▁march	-10.3746
▁1977	-10.3749
▁push	-10.3754
▁1987	-10.3756
▁technical	-10.3762
▁worse	-10.3762
▁Prayer	-10.3762
▁sto	-10.3764
▁Mun	-10.3764
▁household	-10.3765
▁cancel	-10.3769
▁1983	-10.3769
pend	-10.3773
crea	-10.3774
rum	-10.3775
.'"	-10.3778
▁relatives	-10.3781
▁Krishna	-10.3782
▁Special	-10.3782
▁Project	-10.3784
maker	-10.3787
▁registered	-10.3793
gha	-10.3796
▁illustration	-10.3796
▁wear	-10.3796
▁agreed	-10.3796
▁kindness	-10.3801
▁score	-10.3801
▁camera	-10.3804
▁receiving	-10.3809
▁context	-10.3811
9;	-10.3816
▁Town	-10.3821
▁unless	-10.3821
▁Var	-10.3827
▁impossible	-10.383
▁resolve	-10.383
▁dispute	-10.3831
▁tongue	-10.3837
▁bag	-10.3841
▁Trans	-10.3844
▁convert	-10.3856
▁pond	-10.3857
▁earn	-10.3858
▁protesters	-10.3863
▁elect	-10.3867
▁Noah	-10.387
tories	-10.3876
▁1962	-10.3876
▁contained	-10.3878
▁Israeli	-10.3888
▁duty	-10.3889
▁conclusion	-10.39
▁blow	-10.39
▁Prize	-10.39
▁Gal	-10.39
▁requires	-10.3904
▁satellite	-10.3905
▁pursue	-10.3912
▁13:1	-10.3925
▁believers	-10.3941
▁closer	-10.3941
▁Press	-10.3945
▁fulfill	-10.3945
▁phase	-10.3947
▁Him	-10.3949
▁Without	-10.3953
▁Super	-10.3955
▁Teach	-10.3961
logy	-10.3962
▁connected	-10.3965
When	-10.3966
Ju	-10.3966
▁argument	-10.3967
▁passenger	-10.3967
▁quarter	-10.3967
▁IN	-10.3968
▁update	-10.3968
▁empire	-10.3974
▁blame	-10.3979
▁prime	-10.398
khali	-10.3985
▁engineering	-10.399
▁quo	-10.3994
▁hunt	-10.3995
▁aspects	-10.4
To	-10.4002
ifying	-10.4009
▁worker	-10.401
▁loan	-10.4019
▁Four	-10.4019
Romans	-10.4025
▁disappear	-10.4029
▁elements	-10.4032
▁spec	-10.4038
▁bull	-10.404
▁bio	-10.4042
▁gained	-10.4048
▁hero	-10.405
bert	-10.4057
▁volunteer	-10.4064
▁extensive	-10.4064
▁adapt	-10.4065
▁treasure	-10.4071
▁twenty	-10.4071
▁granted	-10.4077
▁describes	-10.4078
▁4:2	-10.4083
aria	-10.4094
Isaiah	-10.4095
Let	-10.4098
▁Tan	-10.4099
▁Bahrain	-10.4099
hak	-10.4101
iff	-10.4103
See	-10.4104
▁finish	-10.4105
▁investment	-10.4106
▁respectively	-10.4106
▁winner	-10.4111
▁residents	-10.4112
▁flee	-10.4115
▁print	-10.4116
▁laugh	-10.4119
ibility	-10.412
▁Sunday	-10.4123
▁Syed	-10.4124
▁10:2	-10.4125
▁telling	-10.4127
▁recommend	-10.4131
▁surrounding	-10.4134
▁Number	-10.4135
▁rose	-10.4137
▁Order	-10.4142
▁Tal	-10.4144
▁possession	-10.4145
▁Bill	-10.4152
▁1988	-10.4156
▁stock	-10.4159
▁vast	-10.4164
▁approved	-10.417
▁Tunisia	-10.417
style	-10.417
▁historian	-10.4177
▁vice	-10.4189
▁Mount	-10.4191
▁glass	-10.4191
▁1969	-10.4192
▁unable	-10.4202
▁Palestinian	-10.4205
▁Sang	-10.4209
▁coast	-10.4209
▁Ana	-10.4218
▁associate	-10.4218
▁Sanskrit	-10.4219
▁prospect	-10.4219
▁quiet	-10.4219
▁wound	-10.4233
▁decline	-10.4233
▁scripture	-10.4235
▁proclaim	-10.4242
▁Soon	-10.4246
▁Hindi	-10.4256
An	-10.4256
▁abroad	-10.4262
hum	-10.4262
▁fault	-10.4262
▁hang	-10.4263
▁guest	-10.4269
▁Michael	-10.4269
▁Gold	-10.427
▁Bro	-10.428
▁traveling	-10.4281
▁interpret	-10.4283
▁delete	-10.4287
▁Put	-10.4288
▁1986	-10.4293
▁Media	-10.4294
▁Trust	-10.4298
▁successfully	-10.4299
9%	-10.4299
▁attacked	-10.43
▁Golden	-10.4303
▁Through	-10.4304
self	-10.4304
▁internal	-10.4304
cut	-10.4309
▁ICC	-10.4309
▁Real	-10.4312
▁password	-10.4312
▁Remember	-10.4314
round	-10.4315
▁unity	-10.4324
▁punishment	-10.4325
▁Google	-10.4326
▁procedure	-10.4326
▁managed	-10.4328
▁employees	-10.4337
▁Charles	-10.4337
▁discussed	-10.4338
▁genuine	-10.4341
▁creature	-10.4348
▁conquer	-10.4348
gger	-10.4351
▁shepherd	-10.4362
5,000	-10.4362
uz	-10.4367
▁Pala	-10.4368
▁profit	-10.437
▁reject	-10.4376
There	-10.4379
▁museum	-10.4384
▁ransom	-10.4384
lal	-10.4385
▁broken	-10.4385
▁Kur	-10.4392
▁pair	-10.4396
▁announcement	-10.44
mbi	-10.4405
Galatians	-10.4405
▁Meeting	-10.4406
life	-10.4409
▁Wait	-10.4414
ghat	-10.4418
▁sitting	-10.4419
ball	-10.4421
▁300	-10.4426
▁beauty	-10.4427
lah	-10.443
Ecclesiastes	-10.4434
▁Blogger	-10.4435
▁seeking	-10.444
▁Gaza	-10.444
nger	-10.4442
▁consult	-10.4442
▁sustain	-10.4449
▁relate	-10.4449
▁Vietnam	-10.4456
▁classes	-10.4457
▁Mari	-10.4459
▁formation	-10.4462
shire	-10.4462
▁prescribed	-10.4463
▁upper	-10.4467
▁1973	-10.4472
▁(3	-10.4472
▁constructed	-10.4473
▁celebration	-10.4478
▁temperature	-10.4485
▁Frank	-10.4485
▁beside	-10.4486
▁universe	-10.4493
▁resist	-10.4496
▁creating	-10.4505
▁couldn	-10.4505
▁producer	-10.4508
phy	-10.4511
▁closely	-10.4517
▁Nur	-10.4521
▁trend	-10.4522
dian	-10.4523
▁guidance	-10.4529
▁primarily	-10.4529
NC	-10.4529
▁invitation	-10.4529
▁pot	-10.4531
▁nice	-10.4532
▁ring	-10.4537
8%	-10.4537
▁caught	-10.4539
▁righteousness	-10.4542
▁Similarly	-10.455
▁experiment	-10.4551
dies	-10.4563
▁influenced	-10.4568
voc	-10.457
pass	-10.4572
▁roof	-10.4575
▁grown	-10.458
▁column	-10.458
▁rebel	-10.4584
▁engage	-10.4589
▁prop	-10.4592
▁labour	-10.4598
▁fixed	-10.4605
onic	-10.4606
▁64	-10.4606
▁approximately	-10.461
▁Really	-10.4616
▁absolute	-10.4617
▁previously	-10.462
▁treated	-10.4621
▁purchase	-10.4625
▁ruled	-10.4628
▁commit	-10.4632
▁Common	-10.4632
iness	-10.4632
chandra	-10.4635
rick	-10.4636
▁tower	-10.4638
▁Security	-10.4639
▁alleged	-10.464
▁Movement	-10.4645
▁wing	-10.4658
▁Finally	-10.4659
▁latter	-10.4661
▁scheme	-10.4662
▁winter	-10.4665
organ	-10.467
▁End	-10.4671
▁Eli	-10.4672
▁possess	-10.4673
▁nearby	-10.4674
▁Korean	-10.4681
▁valuable	-10.4684
▁solve	-10.4685
▁1974	-10.4685
▁portray	-10.4686
other	-10.4689
▁Support	-10.4691
▁compassion	-10.4699
▁Tell	-10.4706
▁confident	-10.4706
▁signal	-10.4708
▁Queen	-10.4708
▁contest	-10.4711
mari	-10.4713
▁friendship	-10.4713
▁clinic	-10.4715
▁Disc	-10.4716
▁Officer	-10.4718
▁Tower	-10.4722
▁humble	-10.4723
▁gathering	-10.4725
▁3:2	-10.4727
▁clothes	-10.4727
▁chose	-10.4728
iest	-10.4728
ister	-10.473
▁Noted	-10.4731
▁Cre	-10.4732
eu	-10.4734
▁medium	-10.4744
▁Kam	-10.4745
pal	-10.4748
▁devotion	-10.4751
▁Jacob	-10.4751
▁godly	-10.4754
SP	-10.4754
▁Temple	-10.4759
▁script	-10.4763
▁baptism	-10.4773
▁interesting	-10.4776
▁speaker	-10.4777
plan	-10.4779
▁Pacific	-10.4789
▁Sara	-10.4789
▁payment	-10.4789
▁Election	-10.4804
▁discern	-10.4804
▁carefully	-10.481
▁instruct	-10.4811
▁missionary	-10.4815
▁proposal	-10.4819
▁commonly	-10.4826
▁namely	-10.4826
▁Office	-10.483
rama	-10.4831
responsibilities	-10.4834
▁valid	-10.4842
▁Actress	-10.4846
▁twice	-10.4849
▁regulations	-10.4857
▁shock	-10.4866
▁1967	-10.4872
▁mal	-10.4873
-21	-10.4879
▁circuit	-10.4879
arm	-10.4881
▁missing	-10.4882
stead	-10.4888
▁500	-10.4893
▁chair	-10.4898
▁gradually	-10.4902
ei	-10.4903
▁suggested	-10.4906
▁Angel	-10.4906
▁widow	-10.4909
▁resulted	-10.491
▁bringing	-10.4911
Ar	-10.4912
▁distress	-10.492
▁Nevertheless	-10.4925
▁unknown	-10.4933
▁rub	-10.494
▁Live	-10.4946
come	-10.4949
▁finger	-10.495
▁Phil	-10.4956
▁1930	-10.4962
▁MA	-10.4965
▁Density	-10.4971
▁Captain	-10.4971
Box	-10.4978
▁1985	-10.498
▁understood	-10.4986
▁wedding	-10.4986
hearted	-10.4989
Al	-10.499
itive	-10.4991
▁detect	-10.4993
▁planned	-10.4997
▁earthly	-10.5003
▁Bab	-10.5009
ffer	-10.5012
▁monument	-10.5016
▁captured	-10.503
▁correspond	-10.5032
▁participate	-10.5035
▁reasonable	-10.5035
▁Saul	-10.5048
aq	-10.5049
Colossians	-10.5055
▁chemical	-10.5055
nom	-10.5056
RO	-10.506
▁Actor	-10.506
▁divorce	-10.507
▁bright	-10.5072
▁Ephesians	-10.5074
▁Female	-10.5078
▁advise	-10.5078
▁restrict	-10.5079
▁56	-10.5081
▁torture	-10.5087
▁contribute	-10.5088
▁herself	-10.5096
▁characteristic	-10.5097
hop	-10.51
gri	-10.5104
▁flat	-10.5106
▁gathered	-10.5106
▁entertainment	-10.5109
▁marry	-10.511
▁tend	-10.5115
▁motivate	-10.5117
▁arranged	-10.5127
▁initially	-10.5127
range	-10.513
play	-10.5137
▁foretold	-10.514
ference	-10.5147
▁acknowledge	-10.5148
▁Alam	-10.5151
▁Male	-10.5153
▁63	-10.5153
▁11:1	-10.516
▁Agriculture	-10.5171
▁frequently	-10.5177
▁alter	-10.5184
hani	-10.5188
lov	-10.5188
▁winning	-10.5191
▁Italy	-10.5195
▁Um	-10.5201
▁magn	-10.5212
▁wheat	-10.5218
▁roll	-10.5221
▁yes	-10.5225
▁calm	-10.5228
▁passing	-10.5228
▁putting	-10.5232
▁OF	-10.5233
IL	-10.5238
▁tomorrow	-10.5242
▁nomination	-10.5246
▁harvest	-10.525
▁ibn	-10.5251
▁surprise	-10.5253
▁trained	-10.5256
▁none	-10.5262
▁Federation	-10.5265
▁careful	-10.5269
▁participated	-10.527
▁exceed	-10.5281
▁operating	-10.5283
tali	-10.5285
▁sincere	-10.5286
▁covenant	-10.5289
sanitary	-10.5289
▁Kenya	-10.529
▁heritage	-10.5297
All	-10.5302
Hebrews	-10.5304
Chi	-10.5305
▁Rural	-10.5308
▁hide	-10.5311
▁System	-10.5313
▁settled	-10.5316
▁crop	-10.532
▁Lal	-10.5325
▁invite	-10.5328
▁circle	-10.5329
▁technique	-10.5336
▁fix	-10.5345
▁united	-10.5345
▁Back	-10.5345
▁Uttar	-10.5353
hana	-10.5354
▁Search	-10.5355
▁1914	-10.5356
▁luck	-10.5357
ume	-10.5358
▁attending	-10.5362
liness	-10.5364
▁tweeted	-10.5365
▁submit	-10.5368
▁alternative	-10.5368
▁Personal	-10.5368
▁tap	-10.5371
▁smile	-10.5385
▁Green	-10.5396
build	-10.5401
▁mono	-10.5401
▁tract	-10.5404
▁universities	-10.5408
▁1979	-10.544
▁require	-10.5441
▁75	-10.5441
▁Maybe	-10.5447
▁lift	-10.5448
▁moon	-10.5448
▁Mumbai	-10.5448
▁Italian	-10.5449
▁defined	-10.5449
▁oldest	-10.5454
▁illustrate	-10.5456
▁democracy	-10.5456
▁eating	-10.546
▁Communication	-10.5464
▁Kho	-10.5467
oid	-10.5479
▁Move	-10.5482
▁proud	-10.5483
▁57	-10.5486
▁civilian	-10.5491
▁Mom	-10.5492
treat	-10.5493
▁Brahma	-10.5495
▁driver	-10.55
1;	-10.5502
Rom	-10.5504
▁epi	-10.5506
▁listed	-10.5507
wood	-10.5508
▁repent	-10.5509
ford	-10.5512
▁soft	-10.5512
▁Next	-10.5513
▁Christianity	-10.5519
▁sharp	-10.5522
▁transferred	-10.5523
▁Class	-10.5523
ette	-10.5527
▁fulfillment	-10.5527
▁pra	-10.5534
▁intention	-10.5537
▁jute	-10.5538
▁Yo	-10.5539
power	-10.5545
EL	-10.5546
▁(4)	-10.5554
▁UK	-10.5562
▁personally	-10.5569
▁Listen	-10.557
▁Christmas	-10.5571
▁adopt	-10.5577
▁reduced	-10.5578
▁File	-10.558
▁cent	-10.5582
▁criticism	-10.5583
▁decade	-10.5583
▁qualified	-10.5585
▁Q	-10.5586
▁66	-10.5593
▁salvation	-10.5594
▁rough	-10.5596
▁urged	-10.5602
▁useful	-10.5605
▁environmental	-10.5608
▁Call	-10.5614
▁1965	-10.5617
▁intellectual	-10.5618
▁rival	-10.5618
▁motion	-10.562
▁possibly	-10.5626
▁massive	-10.5627
LA	-10.5633
▁ideal	-10.5645
▁Age	-10.565
▁opposite	-10.5651
rov	-10.5652
▁Note	-10.5658
▁illness	-10.5661
▁pointed	-10.5665
▁Dia	-10.5665
▁Village	-10.5667
▁encouragement	-10.567
▁fee	-10.5671
▁1948	-10.5674
▁vessel	-10.5675
▁Anti	-10.5681
▁preparation	-10.5684
▁superior	-10.5684
▁Hor	-10.5688
▁Khulna	-10.5692
▁obvious	-10.5692
▁Gre	-10.5693
Revelation	-10.5694
▁cash	-10.5694
▁72	-10.5703
▁troops	-10.5708
▁affection	-10.5709
▁Run	-10.5714
▁residence	-10.5716
▁Count	-10.5718
▁Portuguese	-10.5725
▁plane	-10.5726
▁Turkey	-10.5726
NA	-10.5728
▁opt	-10.573
▁Bhu	-10.5736
▁Web	-10.5749
▁rape	-10.5751
▁musical	-10.5752
hou	-10.5753
▁(17	-10.5754
▁victim	-10.5754
UR	-10.5754
print	-10.5759
▁ceremony	-10.5766
▁familiar	-10.5766
▁commerce	-10.5766
▁Short	-10.5766
habi	-10.5768
▁magic	-10.5768
▁remote	-10.5775
▁Death	-10.5777
▁Screen	-10.5783
▁CPI	-10.5783
▁ice	-10.5785
▁Affairs	-10.5791
▁Should	-10.5791
▁weather	-10.58
▁thick	-10.58
▁relating	-10.5808
▁pack	-10.5814
AF	-10.5814
▁manufacture	-10.5816
▁attain	-10.5818
▁fuel	-10.582
▁properly	-10.5825
▁fought	-10.5825
▁electric	-10.5829
▁Jami	-10.5837
ene	-10.5839
▁Ye	-10.5842
▁suddenly	-10.585
▁Washington	-10.5858
▁Failed	-10.5858
▁forgive	-10.5859
▁California	-10.5866
▁desert	-10.5867
▁corrupt	-10.5868
▁1920	-10.5869
▁farmers	-10.587
Li	-10.5873
▁Kashmir	-10.5874
▁ultimate	-10.5874
▁monitor	-10.5883
▁Begum	-10.5883
▁audio	-10.5883
▁1952	-10.5889
uda	-10.5891
▁1976	-10.5893
▁Muk	-10.5893
▁facing	-10.5894
▁monk	-10.5896
vation	-10.5899
▁introduction	-10.5899
▁metres	-10.5902
▁sword	-10.5902
▁1978	-10.5909
▁Bara	-10.5909
▁merely	-10.591
▁Cur	-10.5912
▁Ly	-10.5915
▁Congregation	-10.5916
▁Error	-10.5916
▁replace	-10.5923
▁happening	-10.5929
▁mercy	-10.5933
serve	-10.5944
▁Madrasa	-10.5944
▁trace	-10.5948
▁merchant	-10.595
serving	-10.5956
▁assistant	-10.5958
▁Meanwhile	-10.5958
▁Sophie	-10.5958
▁commander	-10.5961
▁glad	-10.5961
▁brand	-10.5962
▁eager	-10.5967
Go	-10.5968
▁Organization	-10.5975
▁temporary	-10.5976
▁1940	-10.598
▁ignore	-10.5984
▁lit	-10.5986
▁mud	-10.5987
▁peasant	-10.5992
▁ski	-10.5997
▁dynasty	-10.6009
ulating	-10.601
▁14:1	-10.6013
▁largely	-10.602
▁cancer	-10.6025
▁legend	-10.6028
▁Municipality	-10.6029
▁Commissioner	-10.6031
▁insurance	-10.6035
khi	-10.6042
▁aircraft	-10.6044
▁printing	-10.6044
▁rescue	-10.6044
▁Station	-10.605
▁belonging	-10.6052
▁Alex	-10.6053
▁Save	-10.606
▁Control	-10.606
▁prize	-10.6061
▁opposed	-10.6068
▁injured	-10.6069
▁Mak	-10.6069
▁taste	-10.6069
▁reduce	-10.6075
▁imprisonment	-10.6077
▁Video	-10.6079
▁entry	-10.6082
▁Nazi	-10.6084
▁Football	-10.6086
▁White	-10.6086
mount	-10.6088
berg	-10.6092
▁lake	-10.6097
▁Moh	-10.6097
Con	-10.6104
▁Deb	-10.611
▁Change	-10.6112
▁watching	-10.6112
▁alcohol	-10.612
▁suicide	-10.6121
just	-10.6128
▁admit	-10.6129
▁narrow	-10.6129
▁officially	-10.6129
▁gentle	-10.6129
even	-10.6134
▁innings	-10.6136
▁throne	-10.6137
▁wives	-10.6138
▁educated	-10.6146
▁Mission	-10.615
▁Born	-10.6151
▁Martin	-10.6157
▁Several	-10.6163
▁confirmed	-10.6163
▁3:16	-10.6168
▁maybe	-10.6168
▁spring	-10.6171
▁debt	-10.6171
▁Rai	-10.6171
▁tourist	-10.6172
▁titled	-10.6173
▁palace	-10.618
chu	-10.6184
▁prisoners	-10.6185
▁blessed	-10.6187
fall	-10.6188
LE	-10.6192
▁Abdullah	-10.62
▁exception	-10.6202
break	-10.6205
200	-10.6205
▁absence	-10.6206
▁Article	-10.6206
▁Sai	-10.6208
▁distinguish	-10.6215
▁participation	-10.6215
▁Create	-10.6216
MA	-10.6224
▁sovereignty	-10.6225
▁overcome	-10.6232
▁colonial	-10.6232
▁tender	-10.624
▁drawing	-10.6241
qa	-10.6241
▁silent	-10.6241
▁covering	-10.6242
▁guess	-10.6242
▁fucking	-10.6243
▁Judge	-10.625
▁17:1	-10.6251
▁cool	-10.6253
jay	-10.6254
▁contributed	-10.6255
▁causing	-10.6258
▁pride	-10.6259
▁Gandhi	-10.6259
▁admitted	-10.6261
▁employer	-10.6263
▁dismiss	-10.6263
▁proof	-10.6265
▁innocent	-10.6267
▁rejected	-10.6267
pati	-10.6268
▁achieve	-10.6271
▁collected	-10.6272
▁BY	-10.6273
unct	-10.6282
▁jump	-10.6283
ground	-10.6289
▁mix	-10.6289
▁Rule	-10.6296
▁seriously	-10.6304
▁Long	-10.6307
▁Cambodia	-10.6311
▁banned	-10.6314
▁Political	-10.6319
AM	-10.632
▁printed	-10.6322
▁Dutch	-10.6324
▁meat	-10.6326
▁withdraw	-10.633
▁latest	-10.6333
▁agriculture	-10.6337
▁Daily	-10.6337
▁smaller	-10.6338
dev	-10.634
0;	-10.6343
▁brochure	-10.6346
▁brick	-10.6347
plo	-10.6353
▁Add	-10.6358
▁fli	-10.6359
active	-10.6363
▁Richard	-10.6363
▁Hello	-10.6364
▁burning	-10.637
▁Know	-10.637
▁cloud	-10.6372
▁angry	-10.6373
▁entirely	-10.6376
▁cabinet	-10.6381
▁champion	-10.6381
▁ritual	-10.6381
▁Access	-10.6381
▁sought	-10.6381
▁evolution	-10.639
▁Boy	-10.6394
▁publish	-10.6397
▁Win	-10.6399
▁1957	-10.6406
▁engine	-10.6406
▁inspect	-10.6407
▁Think	-10.6408
▁greatly	-10.6409
▁apparently	-10.6412
Sha	-10.6418
▁entrance	-10.6425
▁paradise	-10.6425
▁Guard	-10.6427
▁Thana	-10.6429
▁listening	-10.6431
▁neighbour	-10.6434
▁Wall	-10.6443
▁mixed	-10.6448
Ezekiel	-10.6452
▁policies	-10.6452
▁Region	-10.6452
▁prompt	-10.6452
▁Lin	-10.6459
▁equipment	-10.646
▁visible	-10.6461
ifies	-10.6465
▁62	-10.6466
rack	-10.6466
lateral	-10.6469
▁Business	-10.6469
▁maintained	-10.6478
pala	-10.6478
▁biggest	-10.6478
▁Navy	-10.6485
▁contemporary	-10.6487
▁partition	-10.6487
▁architecture	-10.6488
▁schedule	-10.6488
▁solid	-10.649
▁archive	-10.6494
▁Sch	-10.6498
▁organised	-10.6499
▁gender	-10.6499
▁engineer	-10.6503
▁1951	-10.6512
▁Executive	-10.6514
▁Messiah	-10.6514
▁talent	-10.6514
▁coach	-10.6517
▁Bridge	-10.6519
▁salt	-10.6521
▁Urdu	-10.6523
▁agency	-10.6523
course	-10.6524
▁crack	-10.6526
ddle	-10.6537
▁suspect	-10.6541
▁Sometimes	-10.6541
▁Way	-10.6542
▁Radio	-10.6543
▁button	-10.6547
▁plate	-10.6548
▁terrorist	-10.6551
town	-10.6553
iq	-10.6555
▁tribulation	-10.6559
control	-10.6561
▁delay	-10.6566
▁branches	-10.6567
▁budget	-10.6576
▁County	-10.6577
▁copies	-10.6579
▁scheduled	-10.6584
-8	-10.6589
sexual	-10.659
▁describe	-10.6592
▁sending	-10.6598
▁relatively	-10.66
▁egg	-10.6606
▁selection	-10.6615
▁readers	-10.6622
▁fuck	-10.663
▁Window	-10.6631
India	-10.6632
roll	-10.6633
▁Tract	-10.6638
▁Zo	-10.6639
▁lying	-10.6645
▁achieved	-10.6648
▁Turkish	-10.6651
▁acquired	-10.6652
NT	-10.6666
▁fashion	-10.6667
▁focused	-10.6667
language	-10.6669
▁label	-10.6671
▁1981	-10.6677
zan	-10.668
▁tall	-10.6685
bazar	-10.6688
▁cease	-10.669
▁1956	-10.6692
▁Premier	-10.6694
▁Tamil	-10.6694
▁Cap	-10.6695
▁Azerbaijan	-10.6703
▁prohibit	-10.6703
▁1946	-10.6711
▁disciple	-10.6711
▁Ask	-10.6713
▁shit	-10.6714
direct	-10.6718
▁Cast	-10.6719
▁lecture	-10.673
▁answered	-10.6732
▁spin	-10.6732
▁featured	-10.6734
state	-10.6743
▁presidential	-10.6748
DP	-10.6756
person	-10.6758
▁2:4	-10.6766
▁dollars	-10.6767
▁intended	-10.6767
▁analysis	-10.6776
Vidhan	-10.6776
▁61	-10.6779
▁succeed	-10.6782
ux	-10.6788
▁flock	-10.6797
▁Turk	-10.6803
▁collapse	-10.6804
ano	-10.6808
citation	-10.6811
▁potato	-10.6813
yana	-10.6813
▁extremely	-10.6821
▁Which	-10.6822
▁pretty	-10.6822
▁cow	-10.6822
▁Import	-10.6822
▁Hasan	-10.6823
▁Nobel	-10.6833
▁Blog	-10.6835
▁Current	-10.684
▁Narayan	-10.6841
keeper	-10.6843
▁estate	-10.6845
▁delivered	-10.6847
▁encouraging	-10.685
▁thrill	-10.6859
▁bone	-10.686
▁classical	-10.686
▁tele	-10.6862
▁fulfilled	-10.6862
▁spell	-10.6867
▁persecution	-10.6868
▁universal	-10.6868
▁Summer	-10.687
Jo	-10.687
▁darkness	-10.6876
▁electronic	-10.6877
word	-10.6883
▁11:2	-10.6885
▁authentic	-10.6887
▁signature	-10.6887
Rev	-10.6895
▁publisher	-10.6903
▁Message	-10.6905
▁declare	-10.6917
▁Battle	-10.6924
▁permit	-10.6924
▁Armenian	-10.693
▁sample	-10.6933
▁modest	-10.6942
▁peak	-10.6945
▁awareness	-10.6948
▁participant	-10.6952
▁bottom	-10.6952
▁khan	-10.6955
▁capable	-10.696
▁miracle	-10.6961
▁1958	-10.6962
▁Van	-10.6965
▁campus	-10.6966
▁Stadium	-10.697
▁exploit	-10.697
▁Ireland	-10.6971
▁saving	-10.6976
▁Friday	-10.698
▁grass	-10.6982
▁default	-10.6989
▁medieval	-10.6989
▁Henry	-10.699
chang	-10.6995
▁Find	-10.6996
media	-10.7001
▁Ty	-10.7002
▁Review	-10.7006
▁arrive	-10.7011
▁Dam	-10.7016
output	-10.7018
▁150	-10.7022
▁sail	-10.7023
▁wine	-10.7028
▁celebrate	-10.703
▁RE	-10.7037
▁warned	-10.7039
▁Gor	-10.7043
▁Communist	-10.7045
▁advocate	-10.7045
▁utter	-10.7048
▁awake	-10.7052
▁passage	-10.7056
▁multiple	-10.7057
▁Mirza	-10.7059
▁Fire	-10.7065
▁notification	-10.7065
▁cup	-10.7066
▁Qui	-10.7068
called	-10.7069
friend	-10.7069
Com	-10.7075
▁15:1	-10.7079
phone	-10.7084
lio	-10.709
▁enforce	-10.7092
graphic	-10.7093
▁patron	-10.7093
▁extreme	-10.7094
▁Nothing	-10.7094
TA	-10.7096
▁Chicago	-10.7102
▁Ottoman	-10.7102
▁category	-10.7102
▁email	-10.7107
▁surrounded	-10.7111
▁disturb	-10.7111
▁8:1	-10.7112
▁grain	-10.7113
▁subsequently	-10.7114
▁Qatar	-10.7115
▁buried	-10.7121
▁Joy	-10.713
▁outstanding	-10.713
▁shelter	-10.7131
▁convinced	-10.7132
▁achievement	-10.7137
▁arise	-10.7143
▁(10	-10.7143
▁complain	-10.7143
▁relation	-10.7148
▁atmosphere	-10.7149
▁Lev	-10.7154
▁Hari	-10.7156
▁inhabitants	-10.7159
▁finance	-10.7159
▁caste	-10.7164
mati	-10.7167
▁Dev	-10.7168
▁Leg	-10.7175
▁Origin	-10.7178
▁Comilla	-10.7179
▁loyalty	-10.7184
▁Studies	-10.7188
▁Management	-10.7188
▁Sid	-10.7188
will	-10.7192
▁burden	-10.7197
▁Body	-10.7202
Man	-10.7206
▁assassin	-10.7207
▁occupation	-10.7207
▁Meh	-10.7207
▁generate	-10.7208
▁16:1	-10.7208
▁hole	-10.7216
▁registration	-10.7216
▁garment	-10.7217
▁fiction	-10.7222
bhu	-10.7225
▁confirm	-10.7225
▁petition	-10.7226
▁Fund	-10.7228
▁Express	-10.7229
titude	-10.7232
▁1961	-10.7233
▁poly	-10.7235
▁bought	-10.7238
▁element	-10.7242
▁emergency	-10.7255
▁steal	-10.7255
▁119	-10.7259
▁complaint	-10.7261
▁emerged	-10.7263
▁regarded	-10.7264
▁psalmist	-10.7264
▁Limited	-10.7264
cover	-10.7265
▁abandoned	-10.7266
Why	-10.727
▁expansion	-10.7274
▁vow	-10.7279
▁celebrated	-10.728
▁easier	-10.7283
▁Kuwait	-10.7283
clude	-10.7291
▁Lake	-10.7293
▁Joshua	-10.7293
▁contrary	-10.7293
▁terminal	-10.7293
ET	-10.7294
integrat	-10.7306
▁missionaries	-10.7314
▁containing	-10.732
▁mild	-10.7336
▁Mela	-10.7337
▁Thomas	-10.7341
▁singing	-10.7352
▁Ever	-10.7356
▁Argentina	-10.7361
▁Operation	-10.7361
▁depth	-10.7361
▁deemed	-10.7361
▁UEFA	-10.7371
▁explanation	-10.7371
▁actual	-10.7371
ridge	-10.7379
▁drag	-10.7383
▁Team	-10.7384
▁deserve	-10.739
▁1945	-10.7391
▁USA	-10.7392
▁Hy	-10.7393
▁predict	-10.7395
▁Jatiya	-10.74
▁Judah	-10.74
▁succeeded	-10.7403
▁supporters	-10.7403
▁Secondary	-10.7406
▁strict	-10.742
▁noticed	-10.7421
▁Sign	-10.7424
▁pin	-10.7426
▁infrastructure	-10.7429
▁Bhutan	-10.7431
▁string	-10.7432
Le	-10.7433
ounce	-10.7434
▁Having	-10.744
▁Down	-10.7446
▁defense	-10.7449
▁Isa	-10.7459
HO	-10.7467
▁stretch	-10.7478
▁Faith	-10.7478
cade	-10.7479
▁Subject	-10.7479
▁exclusive	-10.7488
▁discover	-10.749
▁graduated	-10.749
▁Military	-10.7498
▁Northern	-10.7498
▁elderly	-10.7499
▁strange	-10.7504
▁Bose	-10.7505
▁holiday	-10.7508
▁hidden	-10.7508
count	-10.751
▁rejoice	-10.7517
▁1968	-10.7518
quest	-10.7519
▁poetry	-10.7519
▁emperor	-10.7537
▁Account	-10.7538
▁diplomatic	-10.754
▁employed	-10.754
▁childhood	-10.7543
▁sufficient	-10.7547
▁yield	-10.7547
▁Paradise	-10.7547
▁Geography	-10.7549
▁Tk	-10.755
LO	-10.7553
▁occupied	-10.7556
▁Bru	-10.7558
▁Legislative	-10.7567
▁chain	-10.7573
▁violation	-10.7587
▁Sadar	-10.7587
▁insist	-10.7588
▁corporation	-10.7597
▁replied	-10.7597
road	-10.7606
▁Training	-10.7607
▁virus	-10.7608
▁retired	-10.7617
door	-10.7622
▁episode	-10.7627
▁BBC	-10.7627
▁weakness	-10.7635
▁witnessing	-10.7636
▁guilty	-10.7638
▁Colombia	-10.7647
▁ordinary	-10.7647
▁silence	-10.7647
▁Auto	-10.7648
▁Food	-10.765
And	-10.7654
▁weekly	-10.7656
▁distributed	-10.7657
▁advanced	-10.7657
▁controlled	-10.766
▁CD	-10.7661
▁BA	-10.7662
▁Hold	-10.7663
▁Official	-10.7667
▁fifth	-10.7667
▁Tibet	-10.7668
▁tank	-10.7677
wide	-10.7679
▁clay	-10.768
▁Maria	-10.7691
▁Gene	-10.7691
▁guarantee	-10.7697
▁Extinct	-10.7697
where	-10.7701
▁Dec	-10.7701
▁rot	-10.7707
▁Karachi	-10.7707
▁Kamal	-10.7712
▁climb	-10.7717
▁1954	-10.7725
▁1964	-10.7725
▁satisfy	-10.7727
▁hunger	-10.7727
turn	-10.7729
present	-10.773
▁organize	-10.773
▁Check	-10.7735
▁alongside	-10.7737
TV	-10.7747
▁democratic	-10.7747
▁considerable	-10.7748
▁gall	-10.7752
▁threatened	-10.7756
▁arrival	-10.7757
▁earliest	-10.7757
▁grateful	-10.7757
▁properties	-10.7759
▁suggestions	-10.7761
after	-10.7775
▁Harry	-10.7776
▁donation	-10.7782
▁6:3	-10.7784
▁Francis	-10.7787
▁eternal	-10.7788
▁drain	-10.7788
▁exile	-10.7793
▁valley	-10.7798
▁suitable	-10.7798
PP	-10.7808
▁agencies	-10.7811
▁Rangpur	-10.7812
▁pour	-10.7814
▁excellent	-10.7818
▁Friend	-10.7818
giving	-10.7823
▁virtual	-10.7828
▁reputation	-10.7828
▁Sangsad	-10.7828
▁9:1	-10.7829
▁cooperation	-10.7831
▁Saturday	-10.7838
▁Child	-10.7841
▁Den	-10.7841
▁accordance	-10.785
▁zealous	-10.7851
▁sport	-10.7851
▁Theocratic	-10.7859
▁denied	-10.786
▁Religious	-10.7869
▁refresh	-10.7869
▁span	-10.7869
▁Visit	-10.7871
▁refuse	-10.7877
▁gather	-10.7879
▁Text	-10.788
operative	-10.7886
vious	-10.7888
▁grandfather	-10.789
▁reply	-10.7894
▁continent	-10.7907
▁Louis	-10.7911
▁remarkable	-10.792
▁insect	-10.7922
▁Grant	-10.7922
▁promoted	-10.7922
acre	-10.7924
▁resistance	-10.7924
▁surprised	-10.7925
▁Very	-10.7928
▁statue	-10.7932
LL	-10.794
▁Front	-10.7941
▁maximum	-10.7942
▁graduate	-10.7945
▁Holmes	-10.7951
▁Learn	-10.7952
▁Hand	-10.7952
dict	-10.7954
▁Camp	-10.7955
▁Key	-10.7957
▁wearing	-10.7959
▁59.5%:	-10.7961
▁liberal	-10.7961
▁craft	-10.7964
▁coastal	-10.7967
▁bamboo	-10.7972
▁recipient	-10.7972
▁component	-10.7972
▁Max	-10.7972
▁sentenced	-10.798
▁hydro	-10.7982
▁motor	-10.7987
▁fled	-10.7995
▁Nazrul	-10.8003
▁constant	-10.8006
▁Natural	-10.8013
▁Flo	-10.8024
▁loose	-10.8029
▁Vol	-10.8043
▁accompanied	-10.8044
▁seal	-10.8045
▁Literature	-10.8055
▁anymore	-10.8055
▁changing	-10.8055
▁1963	-10.8063
▁Code	-10.8064
▁impart	-10.8072
▁Georgia	-10.8075
▁manuscript	-10.8075
▁rail	-10.8078
Ephesians	-10.8081
mph	-10.8082
▁icon	-10.8088
▁immediate	-10.809
▁trick	-10.8095
▁Edward	-10.81
▁Chronicles	-10.8107
▁Additional	-10.8107
▁Initial	-10.811
▁draft	-10.8117
▁humility	-10.8118
▁1919	-10.812
▁Never	-10.8121
claim	-10.8122
▁Elijah	-10.8128
▁Modern	-10.8128
▁Mohammed	-10.8138
▁Moscow	-10.8138
▁manage	-10.8139
▁bold	-10.8141
▁ocean	-10.8149
▁Six	-10.8156
▁Primary	-10.8159
▁lady	-10.8162
government	-10.8176
▁neck	-10.8177
▁gang	-10.8178
▁madrasa	-10.818
▁crown	-10.8183
▁relative	-10.8186
▁lion	-10.8187
▁slowly	-10.8189
▁neutral	-10.8191
▁dedication	-10.8191
▁repair	-10.8192
▁quit	-10.8196
▁restored	-10.8197
RC	-10.8197
▁Pun	-10.8199
▁terrible	-10.8201
▁widespread	-10.8201
▁2.0	-10.821
▁1966	-10.8212
▁Welcome	-10.8212
▁Taiwan	-10.8212
▁recognise	-10.8223
▁deputy	-10.8223
▁aspect	-10.8226
▁leaf	-10.8227
▁publishing	-10.8227
mmer	-10.8232
▁directory	-10.8238
▁Hussain	-10.8254
▁Venezuela	-10.8254
▁Square	-10.8254
found	-10.8265
▁designated	-10.8267
▁socio	-10.8268
logical	-10.8271
▁execution	-10.8276
4,000	-10.8277
▁dust	-10.8277
tress	-10.8284
▁jurisdiction	-10.8286
▁Ocean	-10.8286
▁fri	-10.8295
▁snow	-10.8296
▁recruit	-10.8297
▁Schedule	-10.8297
▁Ganges	-10.8297
Eph	-10.8302
ique	-10.8303
▁Thessalonians	-10.8308
▁minimum	-10.8308
▁Greece	-10.8308
▁combined	-10.8308
▁provincial	-10.8318
craft	-10.8319
▁bride	-10.8321
▁Flickr	-10.8329
OL	-10.8329
▁coup	-10.8333
▁consumer	-10.8334
▁elevation	-10.834
▁appoint	-10.8341
▁Due	-10.8349
▁extension	-10.835
▁afternoon	-10.835
▁shout	-10.8356
itude	-10.8359
▁attached	-10.8361
▁reminder	-10.8364
▁filter	-10.8372
III	-10.8373
▁Talk	-10.8375
▁qualify	-10.8383
▁Ul	-10.8386
▁Devi	-10.8386
▁settle	-10.8387
▁Zia	-10.839
▁overall	-10.8393
▁panel	-10.8393
▁perspective	-10.8393
▁poison	-10.8393
▁dozen	-10.8394
▁plot	-10.8396
▁creative	-10.8397
▁audit	-10.84
▁labourer	-10.84
▁Circ	-10.8406
▁sake	-10.8406
But	-10.8412
▁discreet	-10.8415
▁split	-10.842
▁Philippians	-10.842
▁Anna	-10.8421
Who	-10.8424
▁cop	-10.8436
▁intelligence	-10.8447
▁Answer	-10.8447
▁greet	-10.8449
▁Isaac	-10.8449
▁parliamentary	-10.8453
▁recommendation	-10.8453
▁1949	-10.8456
▁diploma	-10.8456
▁Indies	-10.8458
▁rising	-10.8459
▁Valley	-10.846
▁pig	-10.8466
▁combination	-10.8469
▁Off	-10.8471
▁nationalist	-10.8472
▁Metro	-10.8475
▁definite	-10.848
▁cruel	-10.848
▁visitors	-10.8482
▁differ	-10.8487
UN	-10.8488
▁doctrine	-10.8491
▁5:3	-10.8491
▁infant	-10.8493
▁yellow	-10.8502
▁Network	-10.8502
▁external	-10.8502
▁Sorry	-10.8502
▁6:2	-10.8504
▁stadium	-10.8513
▁afford	-10.8513
▁tube	-10.8519
▁Deputy	-10.8534
▁netizens	-10.8545
▁giant	-10.8546
▁Light	-10.8555
Embassy	-10.8556
▁discharge	-10.8556
source	-10.8558
▁Fish	-10.856
▁Ven	-10.8566
▁oppose	-10.8568
▁implementation	-10.857
▁Everyone	-10.8572
▁motive	-10.8576
▁loud	-10.858
▁mob	-10.8582
▁19:1	-10.8584
ville	-10.8587
Ex	-10.8592
▁acceptable	-10.8597
▁thorough	-10.86
▁Luc	-10.86
▁urge	-10.86
▁bazars	-10.8604
▁Care	-10.8611
▁struck	-10.8611
eastern	-10.8614
CT	-10.862
▁Freedom	-10.8623
mov	-10.8631
▁surrender	-10.8633
▁riot	-10.8634
▁Barisal	-10.8644
▁instant	-10.8647
▁Govern	-10.8653
Compare	-10.8654
▁stupid	-10.8655
▁introduce	-10.8656
▁Theatre	-10.8657
▁shame	-10.8667
▁emerge	-10.8669
▁persist	-10.867
▁formula	-10.8677
▁hashtag	-10.8677
▁expense	-10.8678
▁telephone	-10.8678
▁120	-10.8679
▁vary	-10.8689
▁everywhere	-10.8691
▁Hol	-10.8695
▁Abul	-10.8695
▁exposed	-10.87
▁Gospel	-10.8711
also	-10.872
▁drew	-10.8722
▁Gupta	-10.8722
▁12:2	-10.8725
lessness	-10.8728
▁Furthermore	-10.8733
▁Independence	-10.8733
productive	-10.8737
▁1955	-10.8742
▁Katherine	-10.8744
▁restaurant	-10.8744
▁adjust	-10.875
▁dramatic	-10.8755
▁judicial	-10.8755
▁renamed	-10.8755
▁Folder	-10.8755
▁Editor	-10.8764
making	-10.8766
▁truck	-10.8766
▁smoke	-10.8767
▁anniversary	-10.8778
▁territories	-10.8778
▁1959	-10.878
▁Five	-10.8782
Gen	-10.8782
▁equi	-10.8784
▁wake	-10.8787
▁400	-10.8788
▁cope	-10.8795
▁yesterday	-10.88
▁nurse	-10.8802
▁bitter	-10.8804
box	-10.8808
▁league	-10.8811
:11,	-10.8812
▁losing	-10.8813
▁Sudan	-10.8816
▁wheel	-10.8823
▁rebellion	-10.8823
▁Career	-10.8824
▁Mujib	-10.8826
▁crash	-10.8828
▁Emperor	-10.8834
▁Type	-10.8837
▁assess	-10.884
▁yourselves	-10.8845
▁brutal	-10.8845
▁strive	-10.8846
▁intense	-10.8847
▁expectation	-10.8852
▁chart	-10.8858
▁Band	-10.8862
▁worst	-10.8868
▁assumed	-10.8869
▁sugar	-10.8873
▁bow	-10.8875
▁Palestine	-10.8879
▁dying	-10.8883
▁Karim	-10.8888
▁Environment	-10.889
▁Lebanon	-10.889
▁liquid	-10.889
▁Nigeria	-10.8891
▁smart	-10.8891
▁commend	-10.8898
▁1953	-10.8911
▁obligation	-10.8913
▁observation	-10.8913
▁sculpture	-10.8913
▁comb	-10.8925
▁improvement	-10.8929
▁devoted	-10.8933
▁Taj	-10.8944
▁communicate	-10.8947
NG	-10.8948
▁tribal	-10.8949
New	-10.8954
▁executed	-10.8958
▁Democratic	-10.8958
▁Netherlands	-10.8958
▁Madrid	-10.8958
▁VI	-10.896
▁Philip	-10.8961
▁stuff	-10.8967
▁Lahore	-10.897
:13)	-10.8977
▁injustice	-10.8981
▁Dur	-10.8982
▁Close	-10.8982
▁Tro	-10.8985
▁Teacher	-10.8986
▁involving	-10.8993
▁preparing	-10.8993
▁Block	-10.8998
▁Kala	-10.9
▁impressed	-10.9004
▁collective	-10.9012
▁helpful	-10.9027
▁Tagore	-10.9027
▁mature	-10.9031
▁typically	-10.9038
▁confront	-10.9038
▁comedy	-10.9057
▁weigh	-10.906
▁Apart	-10.9069
▁cultivation	-10.9073
▁relevant	-10.9073
▁derived	-10.9073
▁birthday	-10.9078
▁insight	-10.9083
▁goddess	-10.9085
hati	-10.9096
▁Bahadur	-10.9096
▁Uganda	-10.9096
▁empower	-10.9097
▁Conference	-10.9099
▁submitted	-10.9101
▁4:8	-10.9104
▁Protect	-10.9105
▁Ibrahim	-10.9108
▁disorder	-10.9108
▁ornament	-10.9108
▁Mymensingh	-10.9119
▁continuous	-10.9119
operation	-10.912
▁parallel	-10.9131
▁driving	-10.9131
▁bullet	-10.9139
▁endeavor	-10.9142
▁obedient	-10.9142
keep	-10.9148
▁Unable	-10.9151
▁producing	-10.9154
▁flash	-10.9156
▁copper	-10.9157
▁shoe	-10.9157
▁resurrected	-10.9158
▁Convention	-10.9166
▁noble	-10.9168
▁package	-10.917
▁layer	-10.9175
▁unexpected	-10.9177
▁Parishad	-10.9178
▁successor	-10.9187
▁Champion	-10.9187
▁GOD	-10.9194
▁raising	-10.9195
▁emphasize	-10.9201
▁assured	-10.9201
▁Chile	-10.9208
▁capture	-10.9208
▁tired	-10.921
▁attendance	-10.9222
▁dignity	-10.9224
▁constantly	-10.9232
▁Edmond	-10.9236
PR	-10.9246
▁Tara	-10.9246
▁Agricultural	-10.9247
▁neglect	-10.9247
▁begun	-10.9249
▁dropped	-10.9249
▁slip	-10.9254
posi	-10.9256
▁Kazi	-10.9259
▁Alexander	-10.9259
▁harsh	-10.926
▁grade	-10.9268
▁exact	-10.9269
▁anxiety	-10.9271
▁romantic	-10.9271
▁prevail	-10.9271
▁enhance	-10.9271
▁Prior	-10.9273
▁Buddha	-10.9283
▁Average	-10.9283
▁Television	-10.9283
▁visual	-10.9283
▁Shiva	-10.9292
▁1942	-10.9293
▁Gilead	-10.9294
▁imperial	-10.9294
▁2:3	-10.9301
▁Bharat	-10.9303
▁hypo	-10.9306
▁Flood	-10.9308
▁Staff	-10.9309
Islami	-10.9314
▁Medal	-10.9316
▁1943	-10.9317
▁HIV	-10.9318
▁Until	-10.9322
▁Akbar	-10.9323
▁obstacle	-10.933
▁Comm	-10.9335
▁determination	-10.9342
▁difficulties	-10.9343
▁await	-10.9343
free	-10.9343
▁musician	-10.9349
▁%1	-10.9354
▁Obama	-10.9355
▁Tele	-10.9356
▁deeds	-10.9379
▁Highway	-10.9383
▁Little	-10.9389
▁Page	-10.939
▁Sarah	-10.9391
▁margin	-10.9391
▁Haque	-10.9391
▁pest	-10.9393
Mark	-10.9399
▁definition	-10.9401
▁substance	-10.9401
▁hatred	-10.9401
▁soldier	-10.9404
▁Cross	-10.9425
hear	-10.9425
▁Clearly	-10.9427
▁promotion	-10.9449
▁15:2	-10.9463
▁threaten	-10.9474
▁tight	-10.9475
▁6:9	-10.9477
▁Whatever	-10.9479
▁brac	-10.9482
▁satisfaction	-10.9485
▁patience	-10.9485
Job	-10.9487
▁quoted	-10.949
▁Turn	-10.9491
▁destination	-10.9509
▁Journal	-10.9519
▁ticket	-10.9521
▁famine	-10.9521
UL	-10.9523
who	-10.9523
▁7:2	-10.9525
▁impression	-10.9533
▁wanna	-10.9533
▁Try	-10.9539
▁fool	-10.9544
▁pollution	-10.9545
▁maintenance	-10.9545
respect	-10.955
human	-10.9552
▁bless	-10.9558
▁palm	-10.956
▁Ghosh	-10.9562
▁aggr	-10.9564
▁householder	-10.9569
▁eliminate	-10.9569
▁joke	-10.9573
▁Thai	-10.9579
▁Chapter	-10.9581
▁kick	-10.9582
▁Cuba	-10.9592
▁switch	-10.9593
▁gross	-10.9594
chha	-10.9604
▁Wikipedia	-10.9606
▁emphasis	-10.9606
▁pilot	-10.9606
▁psycho	-10.9607
▁subscribe	-10.9611
▁offline	-10.9615
▁mechanic	-10.962
▁neighborhood	-10.962
▁sang	-10.962
▁tie	-10.9629
▁declaration	-10.963
▁sponsor	-10.963
▁sultan	-10.963
▁descend	-10.9654
▁unlike	-10.9666
▁restore	-10.9669
▁Version	-10.9669
▁profession	-10.9673
▁Imam	-10.9676
▁alert	-10.9679
▁Ibn	-10.968
▁client	-10.9683
▁4:3	-10.9683
▁Rang	-10.9688
flow	-10.9692
ordinate	-10.9701
▁Buddhism	-10.9703
▁conviction	-10.9703
▁Mahmud	-10.9703
▁essay	-10.9703
▁thirty	-10.9716
▁personnel	-10.9716
▁Leader	-10.9718
western	-10.9722
▁stranger	-10.9726
▁twelve	-10.9728
▁nobody	-10.9728
▁copyright	-10.973
▁zeal	-10.9738
▁compound	-10.974
▁rip	-10.9741
▁documentary	-10.9745
▁rally	-10.9747
▁strip	-10.975
▁pursuit	-10.9753
▁initiated	-10.9753
▁Enter	-10.9753
▁Garden	-10.9755
▁Full	-10.9757
▁Victoria	-10.9765
▁popularity	-10.9765
rural	-10.9771
▁Dinajpur	-10.9777
▁possibility	-10.9777
▁Translation	-10.9778
▁obedience	-10.979
▁societies	-10.979
credit	-10.9796
aunt	-10.9798
▁GO	-10.9802
▁significance	-10.9802
▁passion	-10.9803
▁Rashid	-10.9815
▁joyful	-10.982
▁Shri	-10.9822
ppl	-10.9831
▁Maldives	-10.9839
▁knock	-10.9839
:10,	-10.9848
▁subsequent	-10.9849
▁Building	-10.9852
▁administer	-10.9852
▁stake	-10.9861
▁Sports	-10.9866
▁Edit	-10.9866
▁Morocco	-10.9877
▁domain	-10.9877
▁Khu	-10.9879
▁register	-10.9881
▁discovery	-10.9883
▁starred	-10.9885
nished	-10.9893
▁rush	-10.9901
▁teenager	-10.9902
▁Mountain	-10.9902
▁Imagine	-10.9939
posing	-10.9951
American	-10.9952
▁Bangabandhu	-10.9952
▁phrase	-10.9952
▁1944	-10.9952
▁mourn	-10.9954
▁currency	-10.9965
▁Seven	-10.9967
▁chamber	-10.998
bound	-10.9982
▁estimate	-10.9984
▁favorite	-10.9986
▁horizon	-10.999
▁imprisoned	-10.999
▁Third	-10.999
▁ratio	-10.9996
▁consistent	-10.9998
▁advertise	-11.0002
▁influential	-11.0002
▁uniform	-11.0003
▁Record	-11.0003
▁profile	-11.0003
▁fate	-11.0016
▁forgiveness	-11.0021
That	-11.0024
▁Lieutenant	-11.0028
Bangladesh	-11.0028
▁beloved	-11.0028
▁explore	-11.003
▁cult	-11.0031
▁stamp	-11.0033
▁selfish	-11.0037
▁controversial	-11.004
▁Spiritual	-11.0042
▁thin	-11.0043
▁oppress	-11.0046
▁regret	-11.0053
▁everyday	-11.0058
▁outcome	-11.0058
▁1939	-11.0065
▁elephant	-11.0066
▁resolution	-11.0066
▁delegate	-11.0066
▁Multi	-11.0067
▁Culture	-11.0068
▁armies	-11.0072
▁crush	-11.0082
▁Padma	-11.0093
▁literally	-11.0095
fact	-11.0096
▁sect	-11.0097
▁spite	-11.0105
▁neuro	-11.0111
▁cotton	-11.013
▁conquest	-11.0135
▁municipal	-11.0137
stitute	-11.014
gupta	-11.0143
▁acquire	-11.0151
▁1937	-11.0155
▁pronoun	-11.0161
▁alien	-11.0161
▁Truth	-11.0168
▁convey	-11.0169
▁symbolic	-11.017
▁Ethiopia	-11.0181
▁cartoon	-11.0181
▁bengal	-11.0185
▁routine	-11.0194
▁pocket	-11.0194
▁concentrate	-11.0194
▁FOR	-11.0194
▁Again	-11.0201
▁Allah	-11.0202
▁Chu	-11.0205
▁specifically	-11.0212
kumar	-11.0214
▁Indonesian	-11.0215
▁remittance	-11.022
▁Smith	-11.022
▁insult	-11.0227
▁absorb	-11.0233
▁Macedonia	-11.0233
▁detained	-11.0233
▁combat	-11.0238
▁decrease	-11.0246
▁Abbas	-11.0247
▁Trade	-11.0251
▁Mujibur	-11.0255
▁anxious	-11.0259
urban	-11.0264
▁Globe	-11.0272
▁snake	-11.0272
▁Zu	-11.0276
▁anywhere	-11.0281
▁Contact	-11.0285
▁decree	-11.0285
▁riches	-11.0289
▁fabric	-11.0298
▁unusual	-11.0298
▁ongoing	-11.0302
▁entrepreneur	-11.0311
▁perceive	-11.0311
▁Address	-11.0312
▁criticized	-11.0316
▁cycle	-11.0319
▁somewhere	-11.0321
▁progressive	-11.0322
▁beneficial	-11.0324
▁worried	-11.0324
▁imposed	-11.0324
▁Certificate	-11.0337
▁Mol	-11.034
▁lord	-11.0344
▁beast	-11.035
▁swim	-11.0351
▁fallen	-11.0356
▁Stay	-11.0366
▁storage	-11.0376
▁Journalist	-11.0378
▁amazing	-11.0389
DC	-11.0398
50,000	-11.0401
▁scream	-11.0403
▁expensive	-11.0404
▁mainstream	-11.0417
▁revolutionary	-11.0423
▁everybody	-11.0423
▁Albert	-11.0425
▁Further	-11.0429
▁Tokyo	-11.0429
▁slightly	-11.0429
▁shah	-11.0429
▁idol	-11.0431
General	-11.0433
▁1:3	-11.0434
▁edge	-11.0435
▁erect	-11.0437
▁Sindh	-11.0437
▁Everything	-11.0442
▁raid	-11.0444
▁Bho	-11.0448
800	-11.0458
▁1,000	-11.0459
▁commitment	-11.0465
▁ancestor	-11.0469
▁HOW	-11.0469
▁greed	-11.0471
▁arrange	-11.0473
▁fame	-11.0479
▁embassy	-11.0482
▁runner	-11.0482
eshwar	-11.0483
▁Beijing	-11.0495
▁assault	-11.0495
▁colleague	-11.0495
▁generous	-11.0495
throp	-11.05
▁irre	-11.0504
▁tiny	-11.0505
▁Industrial	-11.0508
▁terrorism	-11.0511
▁compare	-11.0519
from	-11.052
▁Hope	-11.0522
▁20:2	-11.0532
▁sentiment	-11.0535
▁Aziz	-11.0535
▁Story	-11.0536
▁breed	-11.0537
▁WHAT	-11.0548
▁uncertain	-11.0548
▁martyr	-11.0548
plication	-11.055
▁Archive	-11.0552
graduate	-11.0553
▁construct	-11.0557
▁altar	-11.0564
▁extract	-11.0566
▁4:4	-11.0566
▁1941	-11.0573
▁sudden	-11.0574
Chancellor	-11.0575
about	-11.0579
▁Mandir	-11.059
▁1921	-11.059
▁confess	-11.0591
minded	-11.0597
▁Display	-11.0603
▁shortage	-11.0607
▁apartment	-11.0616
▁crazy	-11.0629
▁cousin	-11.0629
▁Southern	-11.0629
▁saint	-11.0643
wick	-11.0649
▁nearest	-11.0651
▁supplies	-11.0656
▁wire	-11.0657
▁bigger	-11.0663
▁alarm	-11.0667
▁Howrah	-11.0667
▁invasion	-11.067
▁courageous	-11.0675
▁Follow	-11.068
father	-11.0687
radi	-11.0691
▁proportion	-11.0696
▁Habib	-11.0697
▁mutual	-11.071
▁1935	-11.0711
▁ought	-11.0715
▁philosopher	-11.0724
▁flourish	-11.0724
▁endurance	-11.0724
▁Chha	-11.0726
▁transportation	-11.0737
▁Durga	-11.0742
▁honey	-11.0742
▁Credit	-11.0751
▁Finance	-11.0751
▁Lead	-11.0762
100	-11.0763
▁adequate	-11.0764
▁coffee	-11.0764
▁embrace	-11.0765
▁Zimbabwe	-11.0778
▁athlete	-11.0778
▁workshop	-11.078
▁insert	-11.0783
▁knee	-11.0784
▁Return	-11.0785
▁PAGE	-11.0792
▁alliance	-11.0793
endranath	-11.08
▁shadow	-11.0806
▁spark	-11.0808
▁banana	-11.0811
▁9:2	-11.0811
Brahm	-11.0817
▁violate	-11.082
▁download	-11.0827
▁Stand	-11.0827
related	-11.0828
▁equivalent	-11.0833
▁prejudice	-11.0833
▁vest	-11.0835
▁abandon	-11.0844
▁genetic	-11.0847
▁assert	-11.0851
▁8:2	-11.0857
▁Institution	-11.086
▁pornography	-11.086
▁Taliban	-11.0861
▁afflict	-11.0861
▁Rabindranath	-11.0861
▁Upon	-11.0867
▁Thousand	-11.0874
▁brown	-11.0874
▁smell	-11.0874
▁queen	-11.0875
speaking	-11.0883
▁categories	-11.0888
▁temptation	-11.089
▁cheap	-11.0902
▁jealous	-11.0916
▁Computer	-11.0916
ario	-11.0917
member	-11.0921
▁Author	-11.0921
▁borrow	-11.093
▁References	-11.093
▁studio	-11.093
▁brave	-11.0936
icide	-11.0955
▁Standard	-11.0959
national	-11.0977
▁Heart	-11.0978
▁Steve	-11.0981
▁blogging	-11.0981
▁Gopal	-11.0983
▁FROM	-11.0985
▁configuration	-11.0985
▁enormous	-11.0985
▁monarch	-11.0985
▁Cairo	-11.0986
▁resort	-11.0986
▁lamp	-11.0997
▁Assistant	-11.0999
▁disagree	-11.0999
▁Christendom	-11.0999
▁somewhat	-11.0999
▁infection	-11.1
▁1931	-11.1001
▁offend	-11.1002
▁Between	-11.1013
▁completion	-11.1013
▁funeral	-11.1013
▁weekend	-11.1033
▁plague	-11.1041
▁typical	-11.1043
▁keen	-11.1047
▁facility	-11.1055
▁physician	-11.1055
▁10:3	-11.1056
▁Saf	-11.1057
▁partnership	-11.1059
▁Gho	-11.1066
▁Oxford	-11.1069
▁memorial	-11.1069
▁subcontinent	-11.1071
▁heavily	-11.1084
▁subdivision	-11.1098
▁grasp	-11.1098
▁tension	-11.1102
▁consent	-11.1102
▁Ancient	-11.1106
▁Fisheries	-11.1112
▁depression	-11.1112
▁define	-11.1112
▁Parents	-11.1112
▁Sharif	-11.1113
▁assume	-11.1114
ananda	-11.1115
▁resource	-11.1124
▁1938	-11.1124
▁Provincial	-11.1126
▁batsman	-11.1126
▁Ltd	-11.1128
▁Spirit	-11.1139
▁latitudes	-11.114
▁Honor	-11.1144
▁Kabul	-11.1152
▁boycott	-11.1154
▁collaboration	-11.1154
Leviticus	-11.1154
▁concert	-11.1154
▁cheer	-11.1159
▁Route	-11.118
▁administrator	-11.1183
▁Chau	-11.119
▁painful	-11.119
agricultural	-11.1194
▁irrigation	-11.1197
▁profound	-11.12
▁worshippers	-11.1212
▁betray	-11.1213
▁urgent	-11.1214
▁discrimination	-11.1225
▁grief	-11.1225
▁Paddy	-11.1226
▁pillar	-11.1226
▁6:4	-11.1233
▁immoral	-11.1234
▁exhibit	-11.1238
▁Prophet	-11.124
▁trigger	-11.1241
▁residential	-11.1242
while	-11.1266
▁thereafter	-11.1267
uzzaman	-11.1268
▁1918	-11.1271
▁Huq	-11.1283
▁Transport	-11.1284
▁Wood	-11.1293
▁bronze	-11.1297
▁teeth	-11.1297
▁Linux	-11.1298
▁assure	-11.1301
▁Unlike	-11.1303
▁sinful	-11.1307
▁Place	-11.1308
▁Saint	-11.1308
▁Arch	-11.131
which	-11.131
▁Citizen	-11.1312
▁1932	-11.1312
▁operator	-11.1313
▁Burma	-11.1316
▁employee	-11.132
▁22:1	-11.1323
▁substantial	-11.1326
▁slogan	-11.1326
▁Defence	-11.1326
▁Austria	-11.1326
▁Southeast	-11.1338
▁Commonwealth	-11.134
twitter	-11.1341
▁referring	-11.1347
▁casual	-11.1355
▁Brazilian	-11.1362
▁clergy	-11.1369
connect	-11.137
▁Libya	-11.1372
▁pleasant	-11.1384
vul	-11.1387
▁thread	-11.1399
▁divide	-11.1401
▁Against	-11.1406
▁theater	-11.142
▁Print	-11.1422
▁pound	-11.1424
Keep	-11.1427
▁mathematics	-11.1428
▁virtue	-11.1428
▁distant	-11.1428
▁restrictions	-11.1431
▁Canadian	-11.1442
▁24:14	-11.1443
▁silk	-11.1443
▁Present	-11.1444
▁4:6	-11.1449
▁1936	-11.1455
▁smooth	-11.1457
▁investigate	-11.1457
▁Point	-11.1463
▁fever	-11.1465
▁attachment	-11.1471
▁comparison	-11.1471
▁immigrant	-11.1471
▁Document	-11.1472
▁venture	-11.1472
▁grab	-11.148
▁Euro	-11.1486
▁miraculous	-11.1486
▁retirement	-11.1486
▁excuse	-11.1487
tribution	-11.1493
▁Channel	-11.1501
▁drunk	-11.1501
▁glorious	-11.1516
▁massacre	-11.1517
▁Hamid	-11.1525
▁Ordinance	-11.153
▁offspring	-11.153
▁promoting	-11.153
▁Andrew	-11.1531
James	-11.1531
▁taka	-11.1533
▁Armenia	-11.1535
▁intelligent	-11.1545
▁Jessore	-11.1545
given	-11.1546
▁immorality	-11.1551
▁earnest	-11.1554
▁physics	-11.156
▁Scripture	-11.1561
▁Palace	-11.1569
TER	-11.157
error	-11.1582
▁prophecies	-11.1589
▁varieties	-11.1589
▁Policy	-11.1589
▁isolated	-11.159
▁resident	-11.159
▁prim	-11.1602
▁Hollywood	-11.1604
▁Knowledge	-11.1604
▁Scotland	-11.1604
▁Welfare	-11.1604
great	-11.1606
▁Domini	-11.1607
▁Walk	-11.1612
▁occasionally	-11.1613
▁controversy	-11.1619
▁alphabet	-11.1619
▁Bangali	-11.1619
▁priority	-11.1634
▁Field	-11.1634
▁housing	-11.1634
▁Hotel	-11.1634
▁panchayat	-11.1649
▁exhibition	-11.1651
▁exert	-11.1653
▁concentration	-11.1664
▁nawab	-11.1664
▁injury	-11.1664
▁Serbia	-11.1669
▁factories	-11.1672
▁Madras	-11.1678
elecommunication	-11.1683
▁municipality	-11.1685
▁Jones	-11.1688
▁continuing	-11.1694
▁dialect	-11.1694
▁Jonah	-11.1694
▁descendants	-11.1695
▁harmful	-11.1703
▁mineral	-11.1708
▁removal	-11.1709
▁dwell	-11.1714
▁forgotten	-11.1724
▁dictator	-11.1724
▁hardship	-11.1729
▁Ecuador	-11.1739
▁8:3	-11.1747
▁Mongol	-11.1756
▁1928	-11.1756
▁Tube	-11.1758
▁compromise	-11.1769
▁qualification	-11.1769
▁Explain	-11.1769
▁eleven	-11.1769
▁Night	-11.1773
▁Monday	-11.1777
▁fifty	-11.1784
▁longitudes	-11.1784
▁invalid	-11.1784
▁ascend	-11.1788
▁basin	-11.1788
script	-11.1792
▁underground	-11.1797
▁Bombay	-11.1799
krishna	-11.1799
▁Coast	-11.18
▁Creative	-11.1801
▁Than	-11.1807
▁13:2	-11.181
▁Gazette	-11.1814
▁compensation	-11.1814
▁tragedy	-11.1814
▁composition	-11.1814
▁composer	-11.1814
▁blank	-11.1814
▁elsewhere	-11.1815
▁cited	-11.1816
▁Nobody	-11.1818
▁sickness	-11.1824
▁abundant	-11.1829
▁Federal	-11.183
▁1929	-11.183
▁Mohan	-11.1855
▁architect	-11.1858
▁Yang	-11.186
▁propaganda	-11.186
▁permitted	-11.1865
▁pagan	-11.1871
▁odd	-11.1882
▁journalism	-11.1883
▁classified	-11.1885
▁Kazakhstan	-11.189
▁Exchange	-11.189
▁bottle	-11.189
▁addict	-11.1897
▁font	-11.1914
▁voting	-11.1921
▁1922	-11.1928
▁DNA	-11.1928
▁excel	-11.1932
▁gaze	-11.1936
▁participating	-11.1936
▁regulate	-11.1936
▁Digital	-11.1952
▁amendment	-11.1952
▁Blue	-11.1953
▁Mukherjee	-11.1967
▁chicken	-11.1967
▁Brown	-11.1969
▁Tripura	-11.1983
▁Bangkok	-11.1998
▁statistics	-11.1998
▁surprising	-11.1998
▁adjustment	-11.2006
▁Barcelona	-11.2013
▁Ukraine	-11.2013
▁enterprise	-11.2013
▁opponent	-11.2013
▁pipe	-11.2019
▁consumption	-11.2029
▁occurrence	-11.2029
▁translator	-11.2029
▁Julian	-11.2029
▁steel	-11.203
▁CHAPTER	-11.2044
▁automatically	-11.2044
▁bangladesh	-11.2044
▁inspiration	-11.2044
▁elite	-11.2046
▁penalty	-11.206
▁Small	-11.2061
▁coordinate	-11.2064
▁transition	-11.2066
▁Sweden	-11.2075
▁entrusted	-11.2075
▁Commerce	-11.2075
▁Copyright	-11.2075
▁meditate	-11.2075
▁huh	-11.2076
▁cattle	-11.2079
▁zoo	-11.2085
▁14:2	-11.2085
▁nineteenth	-11.2091
▁click	-11.2092
Muslim	-11.2096
▁Azad	-11.2097
▁acres	-11.2098
▁gap	-11.2101
▁Mexican	-11.2107
▁pyramid	-11.2107
▁premier	-11.2107
▁Server	-11.212
▁Pharisees	-11.2122
▁width	-11.2122
▁beneath	-11.2122
▁involvement	-11.2124
▁Arthur	-11.2125
▁3:13	-11.2134
▁safeguard	-11.2138
▁Location	-11.2138
▁relax	-11.2138
bagh	-11.2153
▁accompany	-11.2154
▁intervention	-11.2154
▁gratitude	-11.2154
▁Crime	-11.2154
▁transmission	-11.2156
▁kiss	-11.2173
▁trading	-11.2179
▁immortal	-11.2185
▁renowned	-11.2185
▁inhabited	-11.2185
▁sorrow	-11.2185
▁Tribunal	-11.2201
▁inheritance	-11.2201
▁Agency	-11.2201
economic	-11.2207
▁suppress	-11.2217
▁circum	-11.2223
▁Gulf	-11.2223
▁Winter	-11.2225
▁merge	-11.2227
▁Damascus	-11.2232
▁adjacent	-11.2232
▁Brooklyn	-11.2248
▁Gazi	-11.2254
▁oppression	-11.2257
▁carriage	-11.2264
▁linguist	-11.2264
▁orphan	-11.2265
▁foolish	-11.2268
▁breast	-11.228
▁dinner	-11.228
▁devote	-11.2284
▁twin	-11.2286
natural	-11.2287
▁Ground	-11.2288
ATION	-11.2289
▁Chaplin	-11.2296
▁revolt	-11.2297
▁Algeria	-11.2298
▁Quran	-11.2308
▁Mubarak	-11.2312
▁Stephen	-11.2312
▁interior	-11.2312
▁missile	-11.2312
▁tiger	-11.2319
▁hiding	-11.2322
▁starring	-11.2322
▁conservative	-11.2328
▁embarrass	-11.2328
▁geographical	-11.2328
▁owe	-11.2332
▁frequent	-11.2332
▁Archaeological	-11.2344
▁suspended	-11.2344
▁abilities	-11.2344
▁censorship	-11.2345
▁distract	-11.2347
▁accord	-11.2348
▁lunch	-11.2349
▁Fellow	-11.236
▁radical	-11.2361
▁specify	-11.237
▁cyclone	-11.2377
▁comic	-11.2383
▁Stock	-11.2384
▁Jalal	-11.2385
▁insurer	-11.2425
▁drum	-11.2425
▁shopping	-11.2425
▁excessive	-11.2426
▁Program	-11.244
▁tunnel	-11.244
▁expedition	-11.244
figure	-11.2449
▁WEEK	-11.2456
▁challenging	-11.2456
▁exhaust	-11.2456
▁mechanism	-11.2456
▁SMS	-11.2457
▁consume	-11.2468
▁BIBLE	-11.2472
▁Satyajit	-11.2472
▁magistrate	-11.2472
▁tobacco	-11.2472
▁Gregor	-11.2473
▁License	-11.2489
▁federal	-11.2489
▁Uddin	-11.2489
▁biological	-11.2494
▁funny	-11.2508
▁Medicine	-11.2521
▁globe	-11.2521
▁10,000	-11.2523
▁Zone	-11.2529
▁Berlin	-11.2534
▁concluding	-11.2537
▁desperate	-11.2537
▁pilgrim	-11.2537
▁sediment	-11.2537
▁Leave	-11.2539
▁fraud	-11.2544
▁explosion	-11.2554
▁migrant	-11.2554
▁shrine	-11.2554
▁sensitive	-11.257
▁Recently	-11.257
▁mortal	-11.257
▁Anderson	-11.257
▁evolved	-11.2586
▁kilometre	-11.2586
▁Urban	-11.2586
▁trademark	-11.2592
▁restrain	-11.2597
▁conceal	-11.2603
text	-11.2608
▁Independent	-11.2619
▁diamond	-11.2619
▁Titus	-11.262
▁Things	-11.2632
▁decorated	-11.2636
▁communal	-11.2636
▁spouse	-11.2636
▁Guinea	-11.2637
▁symptoms	-11.2652
▁encrypt	-11.2652
▁particle	-11.2653
▁sanction	-11.2656
ographer	-11.2657
▁invisible	-11.2669
▁uploaded	-11.2669
▁hungry	-11.2671
▁scholarship	-11.2673
▁Cambridge	-11.2685
▁Khwaja	-11.2702
▁coconut	-11.2702
▁precise	-11.2702
▁steam	-11.2702
▁Rup	-11.2717
▁Meghna	-11.2718
▁fortune	-11.2719
▁fond	-11.2723
▁diverse	-11.2725
▁24:3	-11.2726
▁11:3	-11.273
▁Degree	-11.2735
▁Senior	-11.2735
▁supervision	-11.2737
▁yeah	-11.2752
▁12:3	-11.2757
▁Gujarat	-11.2768
▁radiation	-11.2768
▁Brunei	-11.2768
▁Something	-11.2769
▁limitations	-11.2774
▁carbon	-11.2775
▁tropical	-11.2785
▁architectural	-11.2785
▁dancing	-11.2785
▁Cinema	-11.2789
▁oath	-11.2793
▁Inspector	-11.2802
▁Portugal	-11.2802
▁Likewise	-11.2802
▁solidarity	-11.2802
▁Model	-11.2803
▁rational	-11.2807
election	-11.2813
▁Marriage	-11.2818
▁attractive	-11.2818
▁mask	-11.2821
▁Thursday	-11.2835
▁auxiliary	-11.2835
▁Jahangir	-11.2835
▁Maulana	-11.2835
▁Dubai	-11.2836
▁vocal	-11.2836
▁theories	-11.2844
▁13:3	-11.2852
▁ambassador	-11.2852
▁heartfelt	-11.2852
▁dominant	-11.2852
▁Tehran	-11.2869
logging	-11.2878
toxic	-11.2885
▁Husain	-11.2886
▁Worship	-11.2886
▁segment	-11.2886
▁acclaim	-11.2886
▁Unknown	-11.2889
▁Self	-11.2893
▁Final	-11.2896
▁kitchen	-11.2919
▁scroll	-11.2919
▁intimate	-11.292
ordination	-11.292
▁JEHOVAH	-11.2936
▁artificial	-11.2936
▁Sanitation	-11.2936
▁Magazine	-11.2953
▁rupee	-11.2954
▁Hassan	-11.2955
▁Municipal	-11.2965
stream	-11.2966
▁slaughter	-11.297
▁Vatican	-11.297
▁Kerala	-11.297
▁moderate	-11.2978
▁Bollywood	-11.2987
▁Murshidabad	-11.2987
▁sequence	-11.2987
▁Private	-11.2987
▁transaction	-11.2987
▁barrier	-11.2988
▁terror	-11.3
▁22:3	-11.3004
▁Religion	-11.3004
piece	-11.3018
▁Faculty	-11.3022
▁Lebanese	-11.3022
▁plenty	-11.3022
▁Kyrgyz	-11.3039
▁Hyderabad	-11.3039
▁pregnant	-11.3039
▁Survey	-11.3039
▁Jamaat	-11.3039
▁ownership	-11.3044
▁Mosaic	-11.3073
▁preceding	-11.3073
▁Teabing	-11.3073
▁warfare	-11.3073
▁Draw	-11.3075
extrem	-11.309
▁deliberate	-11.309
▁militant	-11.309
▁horror	-11.309
▁memories	-11.309
▁Mohamed	-11.309
▁assemble	-11.3097
▁Elizabeth	-11.3107
▁Eventually	-11.3107
▁fifteen	-11.3107
parser	-11.3108
▁Sarkar	-11.3112
▁horn	-11.3116
▁resume	-11.3116
▁inaugurated	-11.3125
▁closing	-11.3125
▁whisper	-11.3125
▁Uzbek	-11.3142
▁Presidency	-11.3159
▁reconstruct	-11.3159
▁immense	-11.3159
▁interrupt	-11.316
▁Programme	-11.3175
▁prevalent	-11.3177
▁northeast	-11.3194
▁strategy	-11.3194
▁4:7	-11.3205
Where	-11.3211
▁faculty	-11.3212
▁Regiment	-11.3212
▁Actually	-11.3212
▁employ	-11.3224
▁18:2	-11.3225
▁confined	-11.3229
▁hoping	-11.3236
oriented	-11.3237
▁SONGS	-11.3246
▁abundance	-11.3246
worm	-11.325
▁strain	-11.3252
▁apparent	-11.3254
▁Technical	-11.3264
▁analyze	-11.3264
▁verdict	-11.3265
▁Speaker	-11.3282
▁extraordinary	-11.3282
▁equipped	-11.3282
▁reliable	-11.3282
▁Vidya	-11.3288
▁southeast	-11.329
▁dialogue	-11.3299
▁Tangail	-11.3299
▁erupt	-11.3301
▁negotiation	-11.3317
▁Atlantic	-11.3317
▁pulse	-11.3317
▁exhort	-11.3317
▁passport	-11.3321
▁Moroccan	-11.3334
▁density	-11.3335
scale	-11.3346
▁15:3	-11.3346
▁plugin	-11.3352
▁recreation	-11.3352
▁glance	-11.3352
▁Secret	-11.3367
▁Regarding	-11.337
▁Invalid	-11.337
▁3:5	-11.337
▁Aaron	-11.3374
▁electrification	-11.3387
▁narrative	-11.3387
▁indefinite	-11.3387
▁excited	-11.3387
▁migrate	-11.3388
▁wipe	-11.3392
▁Cottage	-11.3405
▁grace	-11.3407
▁contradict	-11.3423
▁summary	-11.3423
▁Maharashtra	-11.3441
▁supreme	-11.3441
▁Jonathan	-11.3459
▁academy	-11.3459
▁Historical	-11.3459
built	-11.346
Arab	-11.3466
▁16:2	-11.3476
▁expenditure	-11.3477
▁Albania	-11.3478
▁admission	-11.3478
▁marvelous	-11.3494
▁Bolivia	-11.3494
▁Ahsan	-11.3495
▁zero	-11.3495
▁substitute	-11.3498
▁Sydney	-11.3512
ologies	-11.3516
quality	-11.3519
▁Electric	-11.353
▁manufacturing	-11.353
▁vulnerable	-11.353
▁mihrab	-11.353
▁enlighten	-11.353
Every	-11.3532
Allow	-11.354
▁ISBN	-11.3548
▁messenger	-11.3548
▁Orissa	-11.3548
▁Labour	-11.3549
ndranath	-11.3561
▁Wednesday	-11.3566
▁quantum	-11.3566
▁Iqbal	-11.3567
▁Architect	-11.3585
▁supplied	-11.3585
▁protein	-11.3585
▁Caesar	-11.3585
▁licence	-11.3585
▁carrier	-11.3586
▁Denmark	-11.3586
▁Anglo	-11.3598
▁occupy	-11.3603
▁Faridpur	-11.3603
▁Caribbean	-11.3621
▁prosperity	-11.3621
▁Example	-11.3621
▁Earlier	-11.3639
▁survival	-11.3639
▁Russell	-11.3639
▁Consequently	-11.3657
▁Switzerland	-11.3657
▁diligent	-11.3657
▁tactic	-11.3662
▁deploy	-11.3676
▁17:3	-11.3687
▁archaeological	-11.3694
▁undeserved	-11.3694
▁applicable	-11.3694
▁confused	-11.3694
▁cherish	-11.3694
▁Throughout	-11.3697
▁variation	-11.3712
▁advertising	-11.373
▁surgery	-11.373
▁applies	-11.3731
▁infected	-11.3734
▁Nasir	-11.3739
▁threw	-11.3749
▁Munich	-11.3749
▁overlook	-11.3749
▁restoration	-11.3749
▁100,000	-11.3749
▁relics	-11.3753
▁Columbia	-11.3767
▁overseas	-11.3767
▁readily	-11.3768
▁Ownership	-11.3786
▁chronic	-11.3786
▁disrupt	-11.3787
▁adhere	-11.3793
▁mirror	-11.3804
▁plastic	-11.3804
▁Colonel	-11.3804
▁Madhya	-11.3806
▁accommodate	-11.3823
▁supplement	-11.3823
▁scope	-11.3823
▁indication	-11.3824
▁translate	-11.3839
▁remnant	-11.3841
▁tribunal	-11.3841
▁ridicule	-11.3841
▁Heritage	-11.3841
▁courtesy	-11.3842
culture	-11.3859
▁elevated	-11.386
▁northwest	-11.3865
▁relieve	-11.3879
▁UNESCO	-11.3897
▁Certain	-11.3897
▁descent	-11.39
▁boundaries	-11.3901
▁custody	-11.3916
▁ingredient	-11.3916
▁predominant	-11.3916
▁receipt	-11.3916
▁Tuesday	-11.3916
▁feminist	-11.3916
▁absent	-11.3916
▁Trophy	-11.3916
▁tendency	-11.3917
▁Consul	-11.3918
▁Physics	-11.3935
▁Tajikistan	-11.3935
▁graduation	-11.3935
▁Bulgaria	-11.3935
▁landowner	-11.3935
▁Hasina	-11.3935
▁elaborate	-11.3953
▁privacy	-11.3953
▁endanger	-11.3953
▁cheat	-11.3969
▁Principal	-11.3972
▁nervous	-11.3972
▁quantity	-11.3972
▁Blood	-11.3972
▁1:5	-11.3974
:21)	-11.3977
kindness	-11.3978
▁swear	-11.3991
▁accusation	-11.3991
▁Remove	-11.3992
▁tragic	-11.3992
▁browser	-11.401
▁fierce	-11.401
▁rainfall	-11.4011
Pakistan	-11.4016
clusion	-11.4025
▁strategic	-11.4029
▁humanitarian	-11.4029
▁wilderness	-11.4029
▁Space	-11.4029
▁convicted	-11.4048
▁sugarcane	-11.4048
▁cuisine	-11.4048
▁Olive	-11.4054
▁figurative	-11.4067
▁necessarily	-11.4067
▁poultry	-11.4067
▁protocol	-11.4067
▁smoking	-11.4067
▁incorporated	-11.4067
including	-11.4073
▁suppose	-11.408
▁1:8	-11.4085
▁terracotta	-11.4086
▁scandal	-11.4086
▁meditation	-11.4086
through	-11.4092
▁phenomenon	-11.4105
▁poultries	-11.4105
▁modified	-11.4105
▁Direct	-11.412
▁Chennai	-11.4124
▁Pharaoh	-11.4124
▁Sovereign	-11.4124
▁shield	-11.4124
▁clause	-11.4124
▁28:19,	-11.4143
▁Metropolitan	-11.4143
▁survivor	-11.4143
▁Custom	-11.4143
▁crucial	-11.4143
▁Manager	-11.4143
corporat	-11.4161
▁Brahmaputra	-11.4162
▁dynamic	-11.4162
▁enthusiasm	-11.4162
▁Hannah	-11.4162
▁Faisal	-11.4162
▁dairies	-11.4181
▁nerve	-11.4183
▁kilometers	-11.42
▁Watson	-11.4201
▁genre	-11.4202
▁regulation	-11.4218
▁basket	-11.422
▁7:9	-11.4227
▁Chatterjee	-11.4239
▁assurance	-11.4239
▁ghost	-11.4239
▁Testament	-11.4239
▁asleep	-11.4239
plicate	-11.4255
▁Emirates	-11.4258
▁voluntary	-11.4258
▁entity	-11.4261
answer	-11.4266
▁Community	-11.4278
▁Noakhali	-11.4278
6,000	-11.4299
▁preservation	-11.4317
▁repeal	-11.4317
▁17:2	-11.4319
▁Microsoft	-11.4336
▁inclined	-11.4336
▁Trinity	-11.4336
▁corporate	-11.4337
▁announce	-11.4346
▁behaviour	-11.4356
▁pregnancy	-11.4356
▁theocratic	-11.4356
▁revelation	-11.4356
▁Writing	-11.4356
▁Organisation	-11.4375
▁virgin	-11.4375
ennial	-11.438
▁Biblical	-11.4395
▁featuring	-11.4395
▁pursuing	-11.4395
▁Micro	-11.4415
▁Armageddon	-11.4434
▁legislation	-11.4434
▁WORD	-11.4434
▁coalition	-11.4434
▁disabled	-11.4435
▁maternal	-11.4454
▁deceive	-11.4454
▁jewel	-11.4455
▁Announcements	-11.4474
▁adventure	-11.4474
▁jackfruit	-11.4474
▁delegation	-11.4474
▁Cantonment	-11.4474
▁coincide	-11.4493
▁dhaka	-11.4494
▁uprising	-11.4494
▁Dharma	-11.4494
▁Bachelor	-11.4513
▁Always	-11.4515
▁Almighty	-11.4533
▁shirt	-11.4534
lithic	-11.4534
▁Landowner	-11.4553
▁calculate	-11.4553
▁stomach	-11.4553
▁cooperate	-11.4573
▁floodplain	-11.4573
▁metropolitan	-11.4573
▁scoring	-11.4573
▁monastery	-11.4593
▁testimony	-11.4593
▁furnish	-11.4593
▁9:3	-11.4596
▁grandmother	-11.4613
▁Hussein	-11.4613
▁(2012)	-11.4613
▁unfortunate	-11.4633
▁(2011)	-11.4633
▁serial	-11.4634
▁pretend	-11.4636
▁Telugu	-11.4653
▁Ambassador	-11.4673
▁curriculum	-11.4673
▁Advance	-11.4673
▁Delete	-11.4678
▁lyrics	-11.4694
▁Ayub	-11.4694
▁witch	-11.4694
▁database	-11.4696
▁anonymous	-11.4714
▁monsoon	-11.4714
▁persuade	-11.4714
▁drove	-11.4714
▁blogosphere	-11.4734
▁conspiracy	-11.4734
▁patriarch	-11.4734
▁choosing	-11.4734
▁Ashraf	-11.4737
▁conservation	-11.4754
▁breakfast	-11.4754
▁Surely	-11.4756
▁typ	-11.4758
▁Jinnah	-11.4775
▁commemorate	-11.4775
▁facilitate	-11.4775
▁perception	-11.4775
▁Junior	-11.4775
▁striking	-11.4775
▁Arakan	-11.4775
▁Shyam	-11.4778
▁Energy	-11.4795
▁Grameenphone	-11.4795
▁scattered	-11.4795
▁Capital	-11.4795
▁defence	-11.4795
▁convince	-11.4813
▁Default	-11.4816
▁Rohingya	-11.4816
▁0.3	-11.4831
▁autonomous	-11.4836
▁imagination	-11.4836
▁withdrew	-11.4836
▁(2006)	-11.4836
▁boast	-11.4838
▁rabbi	-11.4838
National	-11.4851
▁tremendous	-11.4857
▁comprising	-11.4857
▁corridor	-11.4877
▁describing	-11.4877
▁exciting	-11.4877
▁mathematical	-11.4898
▁Course	-11.4898
▁sphere	-11.4898
▁Lesson	-11.4899
▁excess	-11.4915
▁declaring	-11.4919
▁Mecca	-11.4919
▁varied	-11.4919
▁21:3	-11.4928
▁Summit	-11.4939
▁Alliance	-11.494
▁Canaan	-11.494
structural	-11.496
▁Sahitya	-11.496
▁Thakur	-11.496
▁Background	-11.4961
observ	-11.497
▁lease	-11.4978
▁Electronic	-11.4981
▁surviving	-11.4981
▁Defense	-11.5002
▁discouraged	-11.5002
▁annex	-11.5003
▁13:4	-11.5007
▁Guatemala	-11.5023
▁legislative	-11.5023
▁Puerto	-11.5023
▁Excuse	-11.5043
▁outlook	-11.5044
▁regain	-11.5044
▁Joint	-11.5044
▁Michel	-11.5045
▁traits	-11.5045
▁22:2	-11.5049
ssembl	-11.5061
▁knife	-11.5064
▁Micah	-11.5065
▁bishop	-11.5065
▁eldest	-11.5085
▁landscape	-11.5086
OVER	-11.5086
complete	-11.5102
▁apologize	-11.5106
▁competitive	-11.5106
▁reinforce	-11.5106
▁unemployment	-11.5106
▁wrath	-11.5107
▁Website	-11.5107
▁Reason	-11.5107
trained	-11.5107
▁suburb	-11.5108
▁3:8	-11.5124
▁Caucasus	-11.5128
▁Magistrate	-11.5128
▁furniture	-11.5128
▁Airlines	-11.5128
▁Scientific	-11.5149
▁believing	-11.5149
▁venue	-11.5149
▁outrage	-11.5153
▁quarrel	-11.517
▁completing	-11.517
▁twist	-11.517
Judg	-11.5177
▁Bhattacharya	-11.5191
▁Athens	-11.5192
▁5:8	-11.521
▁Challenge	-11.5234
▁Financial	-11.5234
▁Swedish	-11.5234
▁(2010)	-11.5234
▁enacted	-11.5234
▁proverb	-11.5234
▁irregular	-11.5255
▁Rajasthan	-11.5255
▁mystery	-11.5256
▁anchor	-11.5258
▁(2013)	-11.5277
▁invention	-11.5278
▁guilt	-11.5295
▁Banerjee	-11.5298
▁disappointment	-11.5298
▁rectangular	-11.5298
▁swift	-11.5298
▁reception	-11.5298
://	-11.5299
▁allocate	-11.5303
▁opera	-11.5304
▁7:3	-11.5305
▁muscle	-11.532
▁behave	-11.5326
▁Karnataka	-11.5341
▁refrain	-11.5341
▁struggling	-11.5341
▁(2007)	-11.5341
▁hurry	-11.5341
▁Nizam	-11.5342
▁exempt	-11.5363
▁communist	-11.5363
▁abstract	-11.5363
▁slope	-11.5363
▁Belgium	-11.5384
▁Vittoria	-11.5384
▁conferred	-11.5384
▁diversity	-11.5384
▁BNP	-11.5384
▁psychological	-11.5385
▁vault	-11.5385
▁sovereign	-11.5403
▁Discussion	-11.5406
▁approve	-11.5406
trust	-11.5414
▁Pennsylvania	-11.5428
▁separation	-11.5428
▁engaging	-11.5428
▁Taylor	-11.5428
▁offense	-11.5428
▁Writer	-11.5428
▁Bangalore	-11.545
▁Orthodox	-11.545
▁Palanquin	-11.545
▁serpent	-11.545
▁Calendar	-11.5471
▁Demotix	-11.5471
▁Unfortunately	-11.5471
▁prominence	-11.5471
▁(2005)	-11.5471
▁decoration	-11.5471
▁Winston	-11.5472
▁Together	-11.5493
▁retrieve	-11.5493
▁http	-11.5515
▁consecutive	-11.5515
▁departure	-11.5515
▁observance	-11.5515
▁(2008)	-11.5515
▁guitar	-11.5515
▁abortion	-11.5515
▁Lamb	-11.5518
▁Large	-11.5519
▁Baghdad	-11.5537
▁Trinamool	-11.5537
▁acquisition	-11.5537
▁throat	-11.5537
▁improving	-11.5537
▁electoral	-11.5537
▁siege	-11.5537
▁Qualifier	-11.5559
▁dictionary	-11.5559
▁enrolled	-11.5559
▁warrior	-11.5559
▁2:9	-11.5579
▁Pentecost	-11.5581
▁Chemistry	-11.5603
▁TREASURES	-11.5603
profit	-11.5604
▁admire	-11.5606
▁interfere	-11.5609
▁literal	-11.562
▁Sealdah	-11.5626
▁Imperial	-11.5626
▁leather	-11.5626
▁Gentile	-11.5626
▁Break	-11.5626
▁compiled	-11.5626
▁Movie	-11.5627
▁Specif	-11.5634
▁Engineer	-11.5636
▁lamb	-11.5638
▁Cyprus	-11.5648
▁disposal	-11.5648
▁Pabna	-11.5648
▁exercising	-11.567
▁temporarily	-11.567
▁paddy	-11.567
▁CEO	-11.567
▁provoke	-11.567
▁concrete	-11.5692
▁technologies	-11.5692
▁triumph	-11.5692
▁spoil	-11.5693
▁Choudhury	-11.5715
▁Industry	-11.5715
▁experiencing	-11.5715
▁Scholar	-11.5715
▁livestock	-11.5715
▁dairy	-11.5715
Jesus	-11.5716
With	-11.5717
▁Subsequently	-11.5737
▁consequent	-11.5737
▁Rahim	-11.574
▁Notwithstanding	-11.576
▁frustration	-11.576
▁(2004)	-11.576
▁3:3	-11.576
▁modify	-11.5761
▁execute	-11.5761
▁wrestling	-11.5782
▁advisor	-11.5782
▁excavation	-11.5805
▁bacteria	-11.5805
▁guidelines	-11.5805
ocracy	-11.5809
▁nephew	-11.5827
▁Recall	-11.5839
▁Criminal	-11.585
▁helicopter	-11.585
▁identification	-11.585
▁Clear	-11.5869
▁Cabinet	-11.5873
▁Indigenous	-11.5873
▁economist	-11.5873
▁libraries	-11.5873
Jeremiah	-11.5875
▁Declaration	-11.5896
▁calamity	-11.5896
▁Woman	-11.5896
▁devastating	-11.5918
▁nickname	-11.5918
▁Jammu	-11.5918
▁GNOME	-11.5941
▁ignorance	-11.5941
▁hazard	-11.5941
▁crystal	-11.5942
Deut	-11.5946
▁Traditional	-11.5964
▁comprehensive	-11.5964
▁expelled	-11.5964
▁Require	-11.5965
▁Messianic	-11.5987
▁Zechariah	-11.5987
▁merciful	-11.5987
▁equation	-11.5987
▁pledge	-11.5988
Eccl	-11.6001
▁Chaitanya	-11.601
▁complicated	-11.601
pucca	-11.6011
▁inclination	-11.6033
▁livelihood	-11.6033
▁junior	-11.6033
▁(2009)	-11.6033
▁9/1	-11.6042
▁intervene	-11.6045
▁hung	-11.6052
▁Newspapers	-11.6056
▁indicating	-11.6057
▁shrimp	-11.608
▁Harvard	-11.608
▁eligible	-11.6103
▁swallow	-11.6103
▁(2015)	-11.6103
▁caution	-11.6103
▁dimension	-11.6111
▁Literary	-11.6126
▁Texas	-11.6126
▁Corinth	-11.6126
▁overthrow	-11.6126
▁Czech	-11.6126
correct	-11.6132
▁Yusuf	-11.615
▁arsenic	-11.615
▁physicist	-11.615
▁obstruct	-11.615
▁powder	-11.615
▁erosion	-11.615
▁depressed	-11.615
▁idiot	-11.6173
▁Campaign	-11.6196
▁fragment	-11.6196
▁injuries	-11.6197
▁Tanzania	-11.622
▁Mediterranean	-11.6244
▁Manchester	-11.6244
▁tissue	-11.6244
▁martial	-11.6244
▁Crown	-11.6244
▁barely	-11.6245
Pucca	-11.6246
▁Benjamin	-11.6267
▁introductory	-11.6267
▁necessity	-11.6267
▁drought	-11.6267
▁Treaty	-11.6267
▁Animal	-11.6268
▁decay	-11.6268
▁olive	-11.6268
▁Audit	-11.6277
▁5:4	-11.6289
▁overwhelming	-11.6291
▁Filmfare	-11.6291
Yemen	-11.6297
▁desktop	-11.6315
▁Kepler	-11.6315
▁babies	-11.6315
screen	-11.6322
▁acquainted	-11.6338
▁celebrating	-11.6338
▁manufactories	-11.6338
▁pleasing	-11.6338
▁scenario	-11.6338
▁commencement	-11.6338
▁Jamaica	-11.6339
▁Kapoor	-11.6339
▁gauge	-11.6339
mplified	-11.6339
▁hesitate	-11.634
▁STUDY	-11.6362
▁Prothom	-11.6362
▁Padak	-11.6363
TION	-11.6374
▁legitimate	-11.6386
▁landlord	-11.6386
Sirajul	-11.6386
▁restart	-11.6388
▁Universal	-11.641
▁(2014)	-11.641
▁Jamuna	-11.641
▁humankind	-11.641
continent	-11.6416
▁12:4	-11.6418
▁cigarette	-11.6434
▁persecuted	-11.6434
▁Jimmy	-11.6434
▁whale	-11.6436
official	-11.6442
▁resemble	-11.6458
▁excitement	-11.6483
▁genocide	-11.6483
▁Burmese	-11.6483
▁Above	-11.6483
▁Slav	-11.6501
Zephaniah	-11.6507
▁presidency	-11.6507
▁contributor	-11.6507
▁stairs	-11.6507
eceive	-11.652
▁3:9	-11.6527
▁Different	-11.6531
▁Encourage	-11.6531
▁encompass	-11.6531
▁unprecedented	-11.6531
▁Individual	-11.6531
▁stumble	-11.6531
▁brilliant	-11.6555
▁oxygen	-11.6555
▁thunder	-11.6556
sacrificing	-11.658
▁forbidden	-11.658
Wiki	-11.6593
▁affair	-11.6603
▁Century	-11.6604
▁frequency	-11.6604
▁Concern	-11.6629
▁yoke	-11.6631
▁Sundarbans	-11.6653
▁arriving	-11.6653
begotten	-11.6653
▁plunder	-11.6653
▁Swiss	-11.6653
▁circulation	-11.6678
▁identical	-11.6678
:1-3)	-11.6701
▁thirst	-11.6703
▁monster	-11.6703
▁Manipur	-11.6703
▁Delimitation	-11.6727
▁Nehru	-11.6752
inspiring	-11.6765
▁censor	-11.6775
▁deceased	-11.6777
▁Bhutto	-11.6777
▁Registrar	-11.6802
▁Hitler	-11.6802
▁cyber	-11.6802
▁distort	-11.6808
cultural	-11.6813
