<unk>	0
<s>	0
</s>	0
।	-3.32206
,	-3.47259
ের	-4.36753
র	-4.62745
▁এবং	-4.71438
-	-4.81684
ে	-4.90915
▁ও	-4.97955
.	-4.97978
▁করে	-5.00959
▁	-5.02732
:	-5.02994
▁(	-5.07758
▁করা	-5.12824
)	-5.13565
▁এই	-5.25257
▁না	-5.26494
▁যে	-5.32177
কে	-5.32612
▁জন্য	-5.33882
▁হয়	-5.44683
▁"	-5.46536
?	-5.50544
▁থেকে	-5.54165
ই	-5.59772
▁তিনি	-5.60318
▁তার	-5.66422
▁করতে	-5.73749
▁একটি	-5.77342
▁আমি	-5.8443
▁আর	-5.85462
ও	-5.86514
"	-5.89413
▁করেন	-5.93647
▁তাদের	-5.9624
▁আমাদের	-5.96464
ন	-5.96635
▁-	-5.9671
▁করার	-5.96963
▁বা	-5.97167
▁এর	-5.98447
▁এক	-5.98551
টি	-6.05657
▁আমরা	-6.05756
▁ছিল	-6.0717
▁তা	-6.14677
▁এ	-6.15878
তে	-6.16094
▁হবে	-6.21527
▁সালে	-6.23111
য়	-6.23203
▁মধ্যে	-6.23541
▁কি	-6.2529
▁তারা	-6.25663
▁কিন্তু	-6.26824
ক	-6.28045
স	-6.28073
▁কোন	-6.28216
▁আমার	-6.31106
রা	-6.3358
;	-6.35037
▁একজন	-6.35652
▁যা	-6.36691
দের	-6.3742
▁হয়েছে	-6.42382
▁সেই	-6.44135
▁হয়ে	-6.44708
▁সে	-6.44864
▁সাথে	-6.45688
▁তাঁর	-6.46709
!	-6.47628
▁কিছু	-6.48182
'	-6.48501
▁সঙ্গে	-6.49018
▁নিয়ে	-6.52991
▁একটা	-6.53239
▁সময়	-6.53451
▁পারে	-6.57126
▁হিসেবে	-6.59964
ি	-6.60249
া	-6.60523
▁এটা	-6.60991
▁কাজ	-6.63407
ী	-6.64584
▁যায়	-6.65089
টা	-6.67212
▁'	-6.69451
▁১	-6.7091
▁বলে	-6.72067
▁কথা	-6.74294
▁প্রতি	-6.74683
▁আছে	-6.7472
▁যখন	-6.74902
▁আপনি	-6.74904
▁রয়েছে	-6.75382
▁অনেক	-6.76662
▁সালের	-6.79596
▁পর	-6.79881
▁মনে	-6.81834
▁হয়েছিল	-6.84769
ল	-6.86221
ম	-6.86686
▁২	-6.86743
▁যদি	-6.87216
▁করেছিলেন	-6.89276
তা	-6.89665
▁প্রথম	-6.89731
▁।	-6.90071
▁হতে	-6.91002
▁হল	-6.91019
▁কাছে	-6.91113
▁নয়	-6.91199
না	-6.91802
১	-6.93108
▁তুমি	-6.93272
▁এটি	-6.93969
▁শুরু	-6.94894
▁দিয়ে	-6.95137
।"	-6.95699
গুলো	-6.95877
▁ব্যবহার	-6.96012
▁দ্বারা	-6.97431
▁থাকে	-6.9861
▁বছর	-6.98675
...	-6.98826
▁ছিলেন	-6.98847
▁করেছে	-7.00054
ত	-7.01147
ভাবে	-7.01475
▁ঈশ্বরের	-7.01805
▁হচ্ছে	-7.02235
▁কী	-7.03096
▁আপনার	-7.03196
▁যিহোবার	-7.0446
▁তখন	-7.07162
▁করুন	-7.084
ব	-7.0995
▁এমন	-7.11155
▁৩	-7.11366
▁মাধ্যমে	-7.12173
▁তাকে	-7.13178
▁অ	-7.15171
▁কোনো	-7.1547
▁তাই	-7.17426
▁করি	-7.17834
জ	-7.19306
▁সাহায্য	-7.19614
▁বেশি	-7.19817
▁করেছেন	-7.20758
▁নতুন	-7.21082
▁পর্যন্ত	-7.21388
▁[	-7.21736
ো	-7.21909
▁কারণ	-7.22003
▁অথবা	-7.22462
▁দেওয়া	-7.22727
▁বিভিন্ন	-7.23209
]	-7.24461
▁তোমার	-7.24738
▁উপর	-7.2492
▁জন	-7.25104
নি	-7.25571
▁সম্বন্ধে	-7.26223
▁আরও	-7.27145
▁বিষয়ে	-7.27297
▁যারা	-7.30086
▁নাম	-7.30728
▁এখন	-7.30848
এর	-7.30911
▁৪	-7.31225
▁কেন	-7.32843
▁দেখা	-7.33195
এ	-7.35724
▁৫	-7.37081
ট	-7.37223
▁যিহোবা	-7.37236
▁আমাকে	-7.37261
বি	-7.38293
▁বাইবেল	-7.38805
শ	-7.39033
▁অন্যান্য	-7.39579
▁করেছিল	-7.40088
▁পারি	-7.40314
▁নেই	-7.41191
▁করবে	-7.42024
▁দিকে	-7.42035
▁শিক্ষা	-7.42363
▁সব	-7.4252
▁তবে	-7.42644
▁শেষ	-7.42725
▁হন	-7.4273
▁প্রায়	-7.42855
২	-7.43829
▁৬	-7.43882
▁উত্তর	-7.43976
▁লাভ	-7.44188
▁দেয়	-7.44516
▁মতো	-7.44618
▁অংশ	-7.44657
▁প্রধান	-7.45501
গুলি	-7.46322
▁১০	-7.47237
প	-7.48459
▁ক্ষেত্রে	-7.48742
িত	-7.49132
▁তৈরি	-7.49487
▁অন্য	-7.50404
▁হলে	-7.50723
▁দিন	-7.51267
▁ঠিক	-7.51308
▁আগে	-7.51491
▁পরে	-7.53001
▁বিষয়	-7.53176
মা	-7.53966
▁প্রদান	-7.54347
▁১৮	-7.54477
▁বলা	-7.54543
▁বি	-7.55216
▁মা	-7.56029
ার	-7.56211
▁কীভাবে	-7.56229
▁এখানে	-7.56697
▁পারেন	-7.57056
▁ব্যক্তি	-7.57151
লি	-7.57322
▁তাহলে	-7.57703
লা	-7.58754
▁ওপর	-7.58866
▁প্রকাশ	-7.59272
▁বড়	-7.59272
/	-7.59321
▁ধরে	-7.59326
▁জীবন	-7.60682
▁ই	-7.61168
্য	-7.61323
▁কারণে	-7.61856
),	-7.6228
কা	-7.62298
▁ঈশ্বর	-7.62463
▁বিশ্বাস	-7.62504
▁হওয়ার	-7.62775
▁খুব	-7.62823
▁যেমন	-7.62898
▁সময়ে	-7.62999
▁বিশেষ	-7.63406
▁করছে	-7.63595
▁দিতে	-7.63668
ড	-7.64655
▁সমস্ত	-7.65197
▁১৫	-7.65199
ীয়	-7.65536
▁১২	-7.66322
▁ধরনের	-7.66668
▁...	-7.66777
▁জাতীয়	-7.67171
▁ফলে	-7.67192
▁যার	-7.67263
▁হিসাবে	-7.6765
৩	-7.67724
গ	-7.67857
▁যেখানে	-7.67949
▁নি	-7.68097
▁যেতে	-7.6847
▁গ্রহণ	-7.68639
▁নামে	-7.68719
▁সরকার	-7.68983
▁পাওয়া	-7.69749
▁কেউ	-7.70238
▁বাংলাদেশ	-7.7056
▁কে	-7.70976
৫	-7.71275
িক	-7.7237
▁সকল	-7.72675
%	-7.72951
ং	-7.73321
▁মত	-7.73665
▁৭	-7.74248
হ	-7.74584
সি	-7.75499
▁অর্থ	-7.76849
▁আইন	-7.76944
▁উচিত	-7.77541
▁ব্যবস্থা	-7.78648
▁১৭	-7.78992
▁সেখানে	-7.79521
▁প্রয়োজন	-7.80275
▁কর	-7.8078
▁লোক	-7.808
▁চেষ্টা	-7.80867
▁যেন	-7.82037
্	-7.82108
▁হওয়া	-7.82378
▁একই	-7.82676
▁১১	-7.82812
▁মানুষ	-7.82966
▁হয়তো	-7.83086
▁বিরুদ্ধে	-7.83566
কারী	-7.83581
▁কম	-7.84418
ঃ	-7.84995
▁ভারতের	-7.85318
▁তথ্য	-7.85354
৪	-7.85612
▁১৩	-7.8607
▁সবচেয়ে	-7.86271
▁তো	-7.86568
▁৮	-7.86736
▁গুরুত্বপূর্ণ	-7.87128
বে	-7.87409
সা	-7.87687
▁যিনি	-7.87866
▁১৪	-7.88279
িং	-7.88555
খ	-7.88595
▁দল	-7.88723
▁আল	-7.88734
▁ছবি	-7.88858
▁সেটা	-7.89284
▁সু	-7.89549
▁১৬	-7.89643
▁বলেন	-7.90416
১৯	-7.90748
ফ	-7.90941
▁আ	-7.91035
ণ	-7.91136
▁বলতে	-7.91728
দ	-7.91846
বার	-7.91943
বা	-7.92775
▁চলে	-7.92881
▁সুযোগ	-7.9355
▁সদস্য	-7.93857
রি	-7.93884
▁৯	-7.95019
▁২০	-7.95087
▁বলেছিলেন	-7.95773
▁দেন	-7.96139
▁দুই	-7.96203
ভ	-7.96451
পুর	-7.96483
গুলোর	-7.9661
▁যদিও	-7.96643
১৮	-7.96679
▁পূর্ব	-7.96788
▁যাবে	-7.96837
ু	-7.9701
▁সম্পর্কে	-7.97049
▁পালন	-7.97452
▁প্রচার	-7.98563
▁সি	-7.99043
▁বিশ্ববিদ্যালয়	-7.99204
▁দেখতে	-7.99337
▁বেশ	-7.99773
▁ভাল	-7.99823
▁মে	-7.99952
তার	-8.00006
▁অবস্থিত	-8.00078
▁দ্বিতীয়	-8.00383
▁ছাড়া	-8.00383
▁দায়িত্ব	-8.00428
▁করবেন	-8.00755
জি	-8.00759
▁সাধারণ	-8.00834
▁দক্ষিণ	-8.00879
চ	-8.01101
৮	-8.01144
▁নিজের	-8.01314
▁হার	-8.01791
▁চিন্তা	-8.02071
▁সত্য	-8.02076
৬	-8.02763
পি	-8.03346
৯	-8.03475
ডি	-8.03829
▁গেছে	-8.03846
টির	-8.03975
▁মানুষের	-8.0417
▁অব	-8.04182
▁পরিবর্তন	-8.04232
▁চেয়ে	-8.04239
▁বন্ধ	-8.04599
▁আন্তর্জাতিক	-8.04972
▁শুধু	-8.05091
▁দেশের	-8.05641
য়া	-8.05752
▁চলচ্চিত্র	-8.05869
▁ক	-8.05907
▁সেবা	-8.06067
৭	-8.0652
ছে	-8.06721
▁পরিচিত	-8.06738
িয়া	-8.06904
▁পড়ে	-8.07039
▁যিশু	-8.07084
১৫	-8.08225
▁আবার	-8.08313
▁ভাষায়	-8.08477
ঁ	-8.0891
▁বাংলাদেশের	-8.09016
▁থাকা	-8.0913
▁দেওয়ার	-8.0937
▁লোকেদের	-8.09402
▁সাল	-8.09873
▁স	-8.10858
▁ভালো	-8.11067
▁উল্লেখ	-8.11142
লে	-8.11494
▁চাই	-8.11804
▁প্রকাশিত	-8.11812
▁যোগ	-8.12348
লো	-8.12441
নো	-8.12491
▁ভাষা	-8.12914
দা	-8.13545
▁তুলে	-8.13576
▁যাতে	-8.13695
▁ছোট	-8.13986
মি	-8.14093
▁ভারতীয়	-8.14311
▁ফিরে	-8.14376
▁গড়ে	-8.14475
▁হলো	-8.14539
▁তোমাকে	-8.14828
গুলির	-8.14945
▁কাজে	-8.1533
কার	-8.1552
▁পুরস্কার	-8.1607
▁বাবা	-8.16334
▁কাছ	-8.16579
▁উচ্চ	-8.17109
▁সংখ্যা	-8.17315
▁দু	-8.18384
▁কর্তৃক	-8.18479
▁প্র	-8.18562
▁স্থানীয়	-8.19149
▁রাখা	-8.19164
▁গান	-8.19305
▁সৃষ্টি	-8.19353
১০	-8.19471
▁পি	-8.20276
সহ	-8.20473
▁রাজনৈতিক	-8.20501
▁ভাই	-8.20957
▁আশা	-8.21071
▁মারা	-8.21132
▁বছরের	-8.21458
▁শহর	-8.21743
▁আরো	-8.21977
▁বাক্য	-8.22078
▁উদাহরণ	-8.22238
▁আলোচনা	-8.22254
▁সা	-8.22293
▁বর্তমানে	-8.22343
▁ক্ষমতা	-8.22493
▁টি	-8.22518
▁তালিকা	-8.22715
উ	-8.22868
থ	-8.23126
▁যুদ্ধ	-8.23391
▁বুঝতে	-8.2353
▁এমনকি	-8.23688
০০০	-8.23977
▁ডি	-8.24026
▁রাজা	-8.24091
▁অনুযায়ী	-8.24106
▁জেলা	-8.24281
▁নারী	-8.24294
▁মাঝে	-8.24554
▁নিজেদের	-8.24578
▁হাজার	-8.25042
▁আপনাকে	-8.25097
▁দেশ	-8.25128
▁দলের	-8.2529
▁ব্যাপারে	-8.25321
▁হতো	-8.25369
▁ঘোষণা	-8.2541
▁স্থান	-8.25653
▁বের	-8.25861
▁পায়	-8.25986
▁অধ্যয়ন	-8.262
▁রাজ্যের	-8.26208
▁আসে	-8.26228
▁থাকতে	-8.26477
মান	-8.26587
▁উপ	-8.26831
য়ে	-8.26906
আ	-8.27184
▁যাচ্ছে	-8.27198
▁বাংলা	-8.2739
১৭	-8.27409
▁জন্ম	-8.27585
▁সিদ্ধান্ত	-8.27709
কি	-8.27711
▁লক্ষ	-8.27885
▁মূল	-8.28578
▁পদ	-8.28676
▁সমস্যা	-8.2868
▁নিতে	-8.28883
১৪	-8.29024
▁দেখে	-8.29617
▁পুরুষ	-8.29623
▁অধিকার	-8.29694
▁করো	-8.29831
▁সরকারের	-8.30184
▁কু	-8.3026
▁যান	-8.30372
▁বৃদ্ধি	-8.30417
▁দিয়েছিলেন	-8.30465
▁কেবল	-8.3059
▁প্রার্থনা	-8.30889
▁ঢাকা	-8.31044
▁লেখা	-8.31159
▁পরীক্ষা	-8.31592
▁এরপর	-8.31783
▁ঘটনা	-8.32007
▁চিত্র	-8.32028
▁পরিবারের	-8.32071
▁অর্জন	-8.32074
▁পা	-8.32137
▁খুবই	-8.32398
▁অফ	-8.32486
১৬	-8.32805
▁শহরের	-8.32882
▁প্রদর্শন	-8.33016
▁মান	-8.33048
▁ভুল	-8.33097
▁বিবেচনা	-8.33121
▁নিশ্চিত	-8.33173
▁খান	-8.3325
১১	-8.34166
১২	-8.34258
▁ধর্ম	-8.34331
▁মহিলা	-8.34388
▁তিন	-8.34524
▁পরিবার	-8.34749
▁তাদেরকে	-8.34788
▁২৪	-8.34811
১৩	-8.34898
▁মার্কিন	-8.35522
▁উ	-8.3575
▁মি	-8.35753
▁সম্ভব	-8.35799
▁প্রাচীন	-8.3627
▁যীশু	-8.36351
▁১৯	-8.36465
▁প্রতিষ্ঠান	-8.3658
▁পারবে	-8.36611
▁জেলার	-8.3664
▁সহ	-8.36728
▁ম	-8.36796
▁কলেজ	-8.36804
▁প্রভাব	-8.3711
▁অন্তর্ভুক্ত	-8.37186
▁পথ	-8.37237
▁উদ্দেশ্য	-8.37271
▁মধ্য	-8.37442
▁চান	-8.37473
▁বাইবেলের	-8.37546
▁বার	-8.3799
▁ভারত	-8.38016
▁দেশে	-8.38124
কো	-8.38288
সে	-8.38318
তি	-8.38339
▁রাজ্য	-8.384
▁শক্তি	-8.38476
▁মাসে	-8.38484
ড়া	-8.38573
▁অবস্থান	-8.38768
▁তাঁকে	-8.38852
▁কয়েক	-8.38882
গা	-8.38893
▁প্রেরিত	-8.38932
টার	-8.38958
▁কেন্দ্র	-8.39316
▁গিয়ে	-8.39547
▁সারা	-8.3988
পা	-8.39937
▁কা	-8.40293
▁অনুসারে	-8.40704
▁যাওয়ার	-8.40831
▁বার্তা	-8.40907
▁দুটি	-8.41092
জা	-8.41122
▁নির্মাণ	-8.41195
▁রক্ষা	-8.41273
▁বাস	-8.4156
▁দেয়া	-8.4177
▁লোকেরা	-8.41805
▁জীবনের	-8.423
কৃত	-8.42449
▁দরকার	-8.42477
জন	-8.42479
▁পৌল	-8.42524
▁মৃত্যু	-8.42777
▁নির্বাচিত	-8.4337
▁শব্দ	-8.43381
▁ব্যাখ্যা	-8.43695
▁জানি	-8.4403
▁কাজের	-8.44075
▁পরামর্শ	-8.4424
ভি	-8.44378
▁টাকা	-8.44459
▁কখনও	-8.44483
▁ভাবে	-8.44518
▁সামাজিক	-8.44735
স্	-8.44797
▁শিল্প	-8.44918
▁পরিচালিত	-8.44972
▁সম্পর্ক	-8.45263
▁ধর্মীয়	-8.45467
▁সমর্থন	-8.45603
▁করত	-8.45787
▁মাত্র	-8.45996
▁বিদ্যালয়	-8.46074
▁দেখুন	-8.46201
▁থাকবে	-8.46371
▁যাওয়া	-8.4684
ড়	-8.46895
▁জন্যে	-8.46962
▁থাকার	-8.4698
▁পরবর্তী	-8.47001
▁পক্ষে	-8.47055
%,	-8.47114
▁সামনে	-8.47471
▁সরকারি	-8.47653
স্ট	-8.47947
▁মু	-8.47986
▁অনুষ্ঠিত	-8.48179
▁২১	-8.48195
▁বর্ণনা	-8.4824
▁খুঁজে	-8.48348
▁ফল	-8.48388
▁ধারণা	-8.48481
▁আই	-8.487
▁হয়নি	-8.48732
▁করছেন	-8.48792
▁২২	-8.48874
।"-	-8.48994
▁ঐ	-8.49074
▁উল্লেখযোগ্য	-8.49087
রো	-8.49139
▁বই	-8.49221
▁প্রেম	-8.49228
▁বিচার	-8.49335
দি	-8.49463
▁পরিচালনা	-8.49464
▁অবশ্যই	-8.49686
▁২৫	-8.49939
▁হাত	-8.49994
▁লক্ষ্য	-8.50039
▁মার্চ	-8.50153
ছি	-8.50195
▁ভয়	-8.51002
হা	-8.51127
▁হ্যাঁ	-8.51343
▁৩০	-8.51419
▁দিক	-8.51567
▁আজ	-8.52162
▁প্রশ্ন	-8.52344
▁পৃষ্ঠার	-8.52467
নের	-8.52643
অ	-8.52648
▁আধ্যাত্মিক	-8.52713
▁পুলিশ	-8.52724
▁তোমাদের	-8.52781
▁সংবাদ	-8.52912
সমূহ	-8.52983
▁বর্তমান	-8.53044
▁স্থাপন	-8.53044
পূর্ণ	-8.5314
▁নামক	-8.53233
▁ক্রিকেট	-8.53364
▁অভিনয়	-8.53404
▁স্কুল	-8.53483
▁এত	-8.5363
মূলক	-8.53643
▁ভাগ	-8.53729
▁আসলে	-8.5377
প্র	-8.53796
▁তোমরা	-8.54359
য়ার	-8.54361
আমি	-8.54566
▁এলাকা	-8.54679
▁বে	-8.54715
▁জল	-8.54858
▁ব্যক্তিদের	-8.54958
▁কখনো	-8.54996
ছ	-8.55007
নে	-8.55034
্স	-8.55055
▁এতে	-8.55123
▁সময়ের	-8.55472
▁ইতিহাস	-8.55744
▁প্রমাণ	-8.55761
▁বিশ্ব	-8.5615
▁করতেন	-8.56393
▁ব্যবহৃত	-8.56497
▁কঠিন	-8.56507
▁অন্যদের	-8.56567
▁হাতে	-8.56688
▁নির্বাচন	-8.56807
▁ভূমিকা	-8.56926
▁রাখতে	-8.57469
হীন	-8.57655
▁যোহন	-8.57681
▁এসব	-8.57838
▁ভিডিও	-8.57865
▁কিভাবে	-8.57955
মে	-8.58136
▁মন	-8.58251
▁এপ্রিল	-8.58381
▁মিনিট	-8.58574
▁পবিত্র	-8.58598
▁গঠিত	-8.586
▁পান	-8.58966
▁নেওয়া	-8.58992
▁বহু	-8.59014
▁ব্যক্তিগত	-8.59046
▁২৩	-8.59074
গণ	-8.59227
▁জি	-8.59421
এম	-8.59423
▁থাকেন	-8.59509
▁বিভাগ	-8.59815
▁নিজেকে	-8.59817
▁পরিকল্পনা	-8.60048
▁জানা	-8.60256
▁করছি	-8.60276
▁দিয়েছে	-8.603
▁অবস্থা	-8.6031
▁ছেড়ে	-8.60397
কাল	-8.6042
▁দ্রুত	-8.60612
▁ব্যক্তির	-8.60692
ইন	-8.60788
▁মুসলিম	-8.61023
▁প্রাথমিক	-8.61203
▁আনন্দ	-8.61364
▁পূর্ণ	-8.61476
▁সাধারণত	-8.61526
▁অ্যা	-8.6157
গুলোতে	-8.618
▁ঘটে	-8.61832
▁সেগুলো	-8.62006
২০	-8.62111
▁জানতে	-8.62196
▁সম্ভবত	-8.62503
▁ব্রিটিশ	-8.62516
▁এসে	-8.62547
▁পরিণত	-8.62567
▁রি	-8.62677
▁পার	-8.62698
▁জ্ঞান	-8.62723
▁এলাকায়	-8.62785
▁ভিত্তি	-8.62813
▁ডিসেম্বর	-8.62817
▁নদী	-8.63163
▁সঠিক	-8.63163
▁আমাদেরকে	-8.63338
▁?	-8.63422
াল	-8.63737
তো	-8.63867
▁তারপর	-8.64118
▁উত্তম	-8.64129
এস	-8.64511
▁ল	-8.64544
▁দ্য	-8.64567
▁পূর্বে	-8.64641
▁জে	-8.6474
▁রিপোর্ট	-8.64885
▁বাইরে	-8.6492
▁জুন	-8.64933
ান	-8.65238
▁ফাইল	-8.65304
▁উপজেলা	-8.65374
শি	-8.65501
▁গত	-8.65682
▁ব্যর্থ	-8.65748
▁চার	-8.65773
▁কোথায়	-8.66214
▁একটু	-8.66587
▁পিতর	-8.66642
▁গ	-8.66801
▁মন্তব্য	-8.66929
▁গঠন	-8.66951
▁সংস্থা	-8.6703
▁পাকিস্তান	-8.67428
েরা	-8.67497
▁যাদের	-8.67623
▁মাস	-8.67648
▁দাবি	-8.67849
ওয়া	-8.67859
আর	-8.67873
▁সবাই	-8.67956
▁অন্যতম	-8.68011
রে	-8.68053
▁উক্ত	-8.68163
ায়	-8.6837
▁শাসন	-8.68392
গুলোকে	-8.68395
▁উন্নয়ন	-8.68728
▁বরং	-8.68857
▁পেতে	-8.69088
▁সম্মান	-8.69116
▁রেখে	-8.69157
▁চালু	-8.69215
▁সংক্রান্ত	-8.69248
▁ইচ্ছা	-8.69277
▁বিবরণ	-8.69575
▁যোগাযোগ	-8.69677
▁গবেষণা	-8.69892
▁স্ত্রী	-8.6992
▁২০১১	-8.70137
▁চায়	-8.70198
▁উপস্থিত	-8.70327
▁উৎস	-8.70387
▁দান	-8.70581
ভা	-8.70741
▁আসা	-8.70828
▁এখনও	-8.70897
▁যুক্ত	-8.71058
▁হ্যা	-8.71067
▁করলে	-8.71124
গো	-8.71295
▁সত্ত্বেও	-8.71331
▁যিশুর	-8.71642
▁খারাপ	-8.71724
▁লা	-8.71835
▁শুধুমাত্র	-8.71962
▁উপরে	-8.72012
▁কো	-8.72114
ুল	-8.72166
▁নির্দিষ্ট	-8.7225
▁প্রবেশ	-8.72354
▁বন্ধু	-8.72434
▁তারিখে	-8.72532
▁সামরিক	-8.72576
▁পাঠ	-8.72712
বো	-8.73387
কু	-8.7346
▁এম	-8.73578
▁হ	-8.73592
▁অধীনে	-8.73615
▁মনোযোগ	-8.73639
▁ভিন্ন	-8.73676
কর	-8.73866
▁ইন	-8.73946
▁মো	-8.73948
▁শান্তি	-8.73955
▁যেহেতু	-8.73994
▁পদ্ধতি	-8.74185
▁মৃত্যুর	-8.74192
▁কয়েকটি	-8.74193
▁পরিমাণ	-8.74219
▁করেছি	-8.74312
ক্স	-8.74324
▁বিষয়টা	-8.74351
▁লি	-8.74522
▁হয়েছিলেন	-8.74582
▁অপেক্ষা	-8.74618
▁শহরে	-8.74836
গত	-8.75049
▁নির্দেশ	-8.7518
▁কত	-8.75182
▁ওই	-8.7541
▁করব	-8.75423
▁একমাত্র	-8.75492
▁পানি	-8.75711
▁গ্রাম	-8.7574
▁ধ্বংস	-8.7576
▁রে	-8.76073
▁মোট	-8.76081
▁লেখক	-8.76204
▁নিউ	-8.76268
তম	-8.76282
▁পুনরায়	-8.76285
▁কিমি	-8.76376
▁শিশু	-8.7643
▁নীতি	-8.76452
করণ	-8.7654
▁বিয়ে	-8.76667
▁গিয়েছিল	-8.76676
▁জয়	-8.76795
▁এছাড়াও	-8.76875
▁চা	-8.77093
▁পুরো	-8.77127
▁হে	-8.7721
▁জুলাই	-8.77406
▁আইনের	-8.77531
▁প্রতিষ্ঠিত	-8.77604
▁স্বাধীনতা	-8.77792
▁এসেছে	-8.77795
▁কৃষি	-8.77857
▁অনু	-8.78036
ির	-8.78062
র্	-8.78127
▁জীবনে	-8.78187
▁ব	-8.78217
▁পৃথিবীর	-8.78386
▁খাদ্য	-8.78443
▁মানে	-8.78687
দার	-8.79025
▁ইত্যাদি	-8.79087
▁আগস্ট	-8.79195
▁এল	-8.79248
▁পরিচালক	-8.79397
▁বিশ্বের	-8.79411
▁অক্টোবর	-8.79506
▁ব্যাংক	-8.7954
▁মানব	-8.79589
▁কিংবা	-8.79894
▁ফেলে	-8.80058
▁হত্যা	-8.80439
▁নেয়	-8.80506
২৪	-8.80526
▁বিষয়টি	-8.80598
▁হত্তয়া	-8.80648
▁রাখার	-8.80665
▁হা	-8.80758
▁পদে	-8.80855
মথি	-8.80881
২২	-8.8092
২১	-8.81266
▁সম্পূর্ণ	-8.81497
▁নিয়ন্ত্রণ	-8.81687
টে	-8.81937
▁হলেন	-8.81975
▁পশ্চিম	-8.8203
▁আধুনিক	-8.82178
ৎ	-8.82179
▁পৃথিবীতে	-8.82367
লার	-8.82372
▁গা	-8.82392
▁বাধ্য	-8.82443
২৩	-8.82623
বাদ	-8.82678
▁ছাত্র	-8.82775
▁খেলা	-8.82856
▁মথি	-8.83147
▁জনসংখ্যা	-8.8323
▁আচরণ	-8.83301
▁২৮	-8.83307
▁ধন্যবাদ	-8.83319
▁ব্লগ	-8.83421
▁মুক্ত	-8.83467
য়ের	-8.83467
▁নভেম্বর	-8.83517
▁২০০১	-8.8352
▁ড	-8.83554
▁রা	-8.83631
ভার	-8.83652
▁স্যার	-8.83724
▁অঞ্চল	-8.83788
▁হত	-8.83914
▁শক্তিশালী	-8.84074
ষ্ট	-8.84279
▁ধরা	-8.84357
▁মূল্য	-8.84397
▁প	-8.84452
▁ত	-8.84488
▁শিক্ষার	-8.84556
▁দিনের	-8.8473
▁কেমন	-8.84773
▁ন	-8.84785
▁জায়গা	-8.84807
▁অর্থনৈতিক	-8.85141
▁ইউ	-8.85258
▁ভি	-8.85273
িয়ে	-8.85326
▁বাংলাদেশে	-8.85447
▁পাই	-8.85488
▁আক্রমণ	-8.8559
দ্য	-8.85982
ন্ড	-8.86046
▁কাল	-8.86228
▁অত্যন্ত	-8.86413
▁স্বাস্থ্য	-8.8658
▁বৈশিষ্ট্য	-8.86993
▁সেপ্টেম্বর	-8.86994
▁২০১৪	-8.86994
▁মণ্ডলীর	-8.87033
▁নেওয়ার	-8.87188
▁বাড়ি	-8.87303
▁ডে	-8.8734
চি	-8.87363
▁অবস্থায়	-8.87481
▁হোক	-8.876
▁কিছুই	-8.87628
▁উদ্দেশ্যে	-8.8765
রু	-8.87659
▁সবসময়	-8.87666
মার	-8.87692
ছিল	-8.87757
ষ	-8.87941
▁উভয়	-8.87966
▁কিনা	-8.88004
▁মনোভাব	-8.88044
▁পরিচর্যা	-8.88092
▁প্রস্তুত	-8.88189
▁জনসংখ্যার	-8.88343
শা	-8.88374
▁বজায়	-8.88471
ক্ষ	-8.88718
জে	-8.88734
▁জানুয়ারি	-8.88898
▁এভাবে	-8.88967
▁পরিবর্তে	-8.88992
▁যেটা	-8.89094
▁বিমান	-8.89122
▁পড়া	-8.89128
▁দিয়েছিল	-8.89213
▁প্রচেষ্টা	-8.89426
▁আলাদা	-8.8944
▁নিকট	-8.89495
▁খাবার	-8.89638
▁নির্মিত	-8.89711
▁ইউনিয়ন	-8.89787
▁হই	-8.89854
▁২০১২	-8.89884
▁অনুসরণ	-8.89934
▁থেকেই	-8.89985
▁জায়গায়	-8.90084
▁রাষ্ট্রপতি	-8.90186
▁মুক্তি	-8.90228
▁স্থানে	-8.90423
▁নির্ধারণ	-8.90423
▁পছন্দ	-8.90514
▁মসজিদ	-8.90682
▁নিযুক্ত	-8.90853
▁সহজ	-8.90959
▁পাঁচ	-8.91074
ন্ত	-8.91088
▁তৃতীয়	-8.91118
▁বলেছেন	-8.91128
ত্ব	-8.91146
▁দিনে	-8.91173
▁দিয়েছেন	-8.91173
▁হইতে	-8.9125
▁সংরক্ষণ	-8.91251
▁২০১৩	-8.91284
▁মুখ	-8.91428
▁অনুমতি	-8.91434
▁প্রতিষ্ঠা	-8.91508
হি	-8.91612
▁দীর্ঘ	-8.91687
▁রাষ্ট্র	-8.91805
▁প্রয়োগ	-8.91851
▁আদেশ	-8.91891
▁উপায়	-8.92121
▁আসতে	-8.92165
▁প্রথমে	-8.92183
▁পাওয়ার	-8.92394
মো	-8.92414
▁দূর	-8.92444
▁জনপ্রিয়	-8.92472
▁নাগরিক	-8.9253
▁দি	-8.9258
সের	-8.92617
▁২৭	-8.92695
টিকে	-8.92868
সু	-8.92875
▁পিতা	-8.92955
▁হিন্দু	-8.93006
▁!	-8.9302
▁প্রতিক্রিয়া	-8.93223
▁প্রশিক্ষণ	-8.9323
▁০	-8.93265
▁২৬	-8.93353
▁পাকিস্তানের	-8.93383
▁ঘরে	-8.93701
▁গল্প	-8.93734
বল	-8.93762
▁ছেলে	-8.93815
▁ব্লগার	-8.93859
▁নিরাপত্তা	-8.93929
২৮	-8.93946
ীর	-8.9395
▁অভিযোগ	-8.93953
▁শ	-8.94104
লাম	-8.94208
▁একে	-8.94236
▁খ্রিস্টান	-8.94296
শন	-8.94313
▁তিনটি	-8.94549
▁আঘাত	-8.94577
▁কোম্পানি	-8.94699
▁চিহ্নিত	-8.94813
▁পারবেন	-8.94826
▁বল	-8.94896
▁জড়িত	-8.94904
▁যৌন	-8.94907
স্থ	-8.94907
▁সংগ্রহ	-8.94952
▁প্রায়ই	-8.95147
▁এগিয়ে	-8.95181
▁বেশী	-8.95187
▁দাও	-8.95332
▁জিজ্ঞেস	-8.95334
▁নামের	-8.95385
▁মেনে	-8.9546
▁প্রাপ্ত	-8.95627
▁.	-8.95634
▁অঞ্চলে	-8.95656
▁ছড়িয়ে	-8.96008
২৫	-8.96041
▁শিক্ষক	-8.9633
▁রাজধানী	-8.96376
▁অর্থাৎ	-8.96439
▁ফা	-8.9653
▁ইসলাম	-8.9658
▁২০১০	-8.96619
ূ	-8.9675
▁করিন্থীয়	-8.96829
▁রায়	-8.96889
▁জা	-8.96982
▁বিজ্ঞান	-8.97077
▁মিথ্যা	-8.97102
আই	-8.97302
▁সত্যিই	-8.97315
ম্যান	-8.9733
▁অনুবাদ	-8.97456
▁মহা	-8.97468
▁কর্মকর্তা	-8.97624
▁মিটার	-8.97749
▁পরি	-8.9784
▁প্রশংসা	-8.97896
▁প্রয়োজনীয়	-8.97901
▁আরব	-8.97962
▁আজকে	-8.98106
▁দাস	-8.98263
▁সক্রিয়	-8.98349
▁যাই	-8.9845
েই	-8.98515
গুলিতে	-8.98698
ময়	-8.98853
▁নির্ভর	-8.98896
টো	-8.98906
শে	-8.98954
▁ব্যাপক	-8.98979
▁সুন্দর	-8.98993
▁পুত্র	-8.99012
▁কার্যক্রম	-8.99062
▁৫০	-8.99066
▁এস	-8.99084
▁রক্ত	-8.99088
▁ওঠে	-8.99248
▁অ্যান্ড	-8.99295
▁ভাব	-8.99299
▁২৯	-8.993
▁সর্বোচ্চ	-8.99624
▁উপলব্ধি	-8.99658
▁বাংলার	-8.99672
যুক্ত	-8.99757
▁অধীন	-8.99878
▁যথেষ্ট	-8.9995
▁সেরা	-9.00013
▁সম্পন্ন	-9.00023
▁ফেব্রুয়ারি	-9.00031
০	-9.0019
▁নেন	-9.00193
▁নিয়ম	-9.00305
▁অপরাধ	-9.00313
▁বসে	-9.00383
▁মিলিয়ন	-9.00399
চে	-9.00455
ফা	-9.00519
▁বয়স	-9.00584
▁প্রস্তাব	-9.00623
▁পদক্ষেপ	-9.00665
▁যেগুলো	-9.00689
িন	-9.00784
▁কর্ম	-9.00953
▁যায়নি	-9.01333
▁একবার	-9.01469
▁প্রকৃত	-9.01476
▁অংশগ্রহণ	-9.01486
যোগ্য	-9.01675
রূপে	-9.01682
▁প্রত্যেক	-9.01687
▁সমাজ	-9.01703
সন	-9.01707
▁শাহ	-9.01707
▁আপনাদের	-9.02101
▁অল্প	-9.0224
▁যাও	-9.0231
▁পরিস্থিতি	-9.02388
লেন	-9.0247
▁পৃষ্ঠা	-9.02723
▁সন্তান	-9.02743
▁গেল	-9.02758
ছিলেন	-9.02873
▁আপন	-9.02883
▁পথে	-9.0304
▁জ	-9.03053
▁শা	-9.03063
▁উপযুক্ত	-9.03086
▁চুক্তি	-9.03094
▁স্বীকার	-9.03184
▁কল	-9.03313
▁নেতা	-9.03377
৩০	-9.03564
▁মন্দির	-9.03816
▁উঠে	-9.03826
▁এইরকম	-9.03827
▁মাসের	-9.04085
▁রাজ	-9.04093
েন	-9.04159
▁বেঁচে	-9.04307
▁লিখেছিলেন	-9.04354
শীল	-9.04481
▁চাপ	-9.04538
▁দেখায়	-9.04541
▁দয়া	-9.04549
▁নির্ধারিত	-9.04573
▁বিরোধী	-9.04618
▁২০১৬	-9.0491
▁শ্রেষ্ঠ	-9.04969
▁এদের	-9.04995
▁ফ	-9.05109
▁হয়ত	-9.05134
নার	-9.05217
▁মূলত	-9.05268
▁পাপ	-9.05364
ঙ্গ	-9.05366
▁শিকার	-9.05384
▁উৎপাদন	-9.05445
▁দূরে	-9.05496
▁গভীর	-9.05584
▁হলেও	-9.05599
দিন	-9.05762
▁আছেন	-9.059
▁তারিখ	-9.05922
▁আলী	-9.06009
▁ভোট	-9.06121
বাদী	-9.06161
▁কোটি	-9.06241
▁২০১৫	-9.06251
তু	-9.06251
খা	-9.06288
▁বাধা	-9.0634
▁৪০	-9.0635
▁বলার	-9.06532
▁যিহোবাকে	-9.06682
▁প্রচুর	-9.06728
ড়ি	-9.06763
▁জাতি	-9.06916
সার	-9.06983
▁অতিরিক্ত	-9.07056
▁ক্লাব	-9.07089
▁অধিকাংশ	-9.07243
▁গো	-9.07286
▁আসার	-9.07328
▁মেয়ে	-9.07351
▁গাড়ি	-9.07413
ধ	-9.07428
ঘ	-9.07502
▁বর্গ	-9.07513
ছেন	-9.07588
▁আন্দোলন	-9.07609
▁অতি	-9.07769
▁স্পষ্ট	-9.0783
▁২০০৯	-9.08051
▁পোস্ট	-9.08067
▁শতাংশ	-9.08134
লু	-9.08216
▁ধীরে	-9.08238
▁বিষয়গুলো	-9.08308
চা	-9.0833
▁মার	-9.08477
▁আত্মা	-9.08924
জন্ম	-9.09046
ুর	-9.0905
▁অঞ্চলের	-9.0907
▁চ	-9.09169
টিতে	-9.09172
ঙ্ক	-9.0918
▁তাতে	-9.09184
▁এগুলো	-9.09253
▁বলি	-9.09388
নী	-9.09469
▁তাঁদের	-9.09635
▁রাখে	-9.09698
▁হইবে	-9.0979
▁পরিচয়	-9.09792
▁অনুমোদন	-9.09833
▁সাহিত্য	-9.09946
▁চিকিৎসা	-9.09996
▁বিশাল	-9.10044
▁অভিজ্ঞতা	-9.10171
▁ফুটবল	-9.10278
ন্স	-9.10507
▁এখনো	-9.10556
▁সংগঠন	-9.10593
▁বিভাগের	-9.1076
▁দুটো	-9.10868
২৬	-9.10892
▁বিখ্যাত	-9.10977
▁সহায়তা	-9.11079
(	-9.11262
▁এলাকার	-9.1137
▁পে	-9.11511
▁বন	-9.11551
▁রু	-9.11742
▁২০০৮	-9.11776
▁স্বামী	-9.11924
▁ব্যা	-9.11999
▁খবর	-9.12059
▁অধিক	-9.1206
▁কেন্দ্রীয়	-9.12108
▁অনুরোধ	-9.12241
পে	-9.12245
▁সুবিধা	-9.12312
▁স্বাধীন	-9.12385
▁বিশ্বস্ত	-9.12402
%।	-9.12442
▁নিয়োগ	-9.12449
▁নদীর	-9.12972
▁কলকাতা	-9.13
▁শি	-9.131
▁ক্ষমা	-9.13102
চার	-9.1314
▁শাখা	-9.13262
▁ওয়া	-9.13267
,"	-9.13428
▁পর্যায়ে	-9.13465
▁দশ	-9.13496
▁প্রকল্প	-9.13535
▁বেছে	-9.13666
▁যীশুর	-9.13696
▁উপভোগ	-9.13798
▁মিল	-9.13989
▁ফি	-9.14041
▁সরাসরি	-9.14049
▁লে	-9.14068
▁যুক্তরাষ্ট্রের	-9.14132
▁নিজ	-9.14168
▁অবশ্য	-9.14242
▁করেছিলাম	-9.14277
▁ফোন	-9.14397
▁ধারা	-9.14449
হে	-9.14544
▁পাশাপাশি	-9.14699
▁নিচে	-9.14725
▁ইব্রীয়	-9.14822
▁বোন	-9.14839
▁পত্রিকা	-9.14859
▁সেইসঙ্গে	-9.14979
▁২০১৭	-9.15011
▁পরিবেশ	-9.15034
মু	-9.15065
▁গুরুত্ব	-9.15077
রী	-9.15188
কালে	-9.15218
▁চি	-9.15377
▁বয়সে	-9.15409
▁রোগ	-9.1545
ত্ত	-9.1545
▁২০১৮	-9.15517
ফি	-9.1552
▁লাল	-9.15625
▁থাকি	-9.15735
▁যুক্তি	-9.15747
▁ক্ষুদ্র	-9.15817
▁বাহিনী	-9.15847
▁হবার	-9.15874
▁প্রতিরোধ	-9.15935
▁নিজস্ব	-9.15949
▁আয়	-9.1597
▁কষ্ট	-9.15996
▁যত	-9.16048
▁নাই	-9.16094
▁ছিলো	-9.16204
ন্ট	-9.163
ন্দ	-9.16331
ানো	-9.1641
▁গীতসংহিতা	-9.16525
▁ক্যা	-9.16613
▁বিবাহ	-9.1664
▁ভাষার	-9.16643
▁তীমথিয়	-9.16652
▁আসছে	-9.16674
▁প্রতিটি	-9.16676
▁:	-9.16678
▁ভোগ	-9.16752
▁খোলা	-9.16755
▁খ	-9.16801
▁হবেন	-9.16821
▁ভূ	-9.16905
▁এন	-9.16911
▁চালিয়ে	-9.17017
▁অনেকে	-9.17022
▁সন্তানদের	-9.17045
▁সুসমাচার	-9.17055
▁জোর	-9.17265
▁পেয়ে	-9.17284
▁মাথা	-9.17313
▁২০০৭	-9.17345
▁ব্যয়	-9.17647
▁শত	-9.17725
▁মুখোমুখি	-9.17871
▁করিতে	-9.17873
?"	-9.17945
▁সক্ষম	-9.17969
▁সাংস্কৃতিক	-9.1802
▁শতকের	-9.18023
▁স্ব	-9.18032
▁কর্তৃপক্ষ	-9.18237
▁বস্তু	-9.18262
▁প্রভাবিত	-9.18334
▁আসেন	-9.18425
▁স্	-9.18494
পার	-9.18527
▁দেব	-9.18548
▁দৃঢ়	-9.18568
০০	-9.18589
▁৩১	-9.18601
স্ত	-9.18689
▁বোঝা	-9.18803
▁সরবরাহ	-9.18896
িকা	-9.18934
▁পরিষ্কার	-9.18979
▁সফল	-9.18995
▁জগতের	-9.19
▁ব্যবসা	-9.1909
▁খুশি	-9.19099
▁ইংরেজি	-9.19138
▁সম	-9.19194
▁তৈরী	-9.19228
▁সম্পর্কিত	-9.19363
▁সংস্করণ	-9.194
▁দেবে	-9.19497
▁সত্যি	-9.19564
▁রূপ	-9.19667
▁একেবারে	-9.19715
▁যুদ্ধের	-9.19763
▁রচনা	-9.19902
▁দেখানো	-9.19964
জার	-9.20051
▁পরের	-9.20154
▁রোমীয়	-9.20293
▁আমেরিকা	-9.20346
▁সাংবাদিক	-9.20396
▁করিয়ে	-9.20406
▁তবুও	-9.20418
▁বু	-9.20465
▁রেকর্ড	-9.205
▁সন্দেহ	-9.20589
২৯	-9.20598
হার	-9.206
দু	-9.20611
▁ডাক	-9.20681
পত্র	-9.20699
▁বাজার	-9.2088
▁বোধ	-9.20941
▁সঙ্গীত	-9.21027
▁ডলার	-9.21083
▁জিনিস	-9.21225
▁সংযুক্ত	-9.2125
▁গ্রামে	-9.21251
▁ফেলা	-9.21278
▁উদাহরণস্বরূপ	-9.21288
▁নাকি	-9.21337
▁যেভাবে	-9.21441
▁ইন্টারনেট	-9.21474
▁আশীর্বাদ	-9.21803
▁আসবে	-9.21923
▁কমিটি	-9.22353
▁ঘটনার	-9.22507
▁জানে	-9.22516
▁জন্মগ্রহণ	-9.2254
▁নিয়মিত	-9.22543
▁তে	-9.22575
▁সম্পদ	-9.22579
▁পড়তে	-9.2262
▁ভূমি	-9.22693
বু	-9.22693
▁হাই	-9.22698
ুন	-9.22787
▁বাতিল	-9.22878
▁পণ্য	-9.22893
▁সাক্ষিদের	-9.22991
সমূহের	-9.22992
ম্প	-9.23016
▁গড়	-9.23061
▁বিল	-9.23073
▁বিভাগে	-9.2311
▁রকম	-9.23151
▁জানেন	-9.23209
▁গুণ	-9.23255
▁পু	-9.2328
▁রো	-9.23283
▁ব্যক্তিকে	-9.23475
▁চমৎকার	-9.23526
▁ভ্রমণ	-9.23559
▁স্মরণ	-9.23624
৩১	-9.23726
▁কিলোমিটার	-9.23817
▁ন্যায়	-9.23937
▁প্রতীক	-9.23981
ৈ	-9.24025
▁ভবিষ্যদ্বাণী	-9.24032
▁নে	-9.24048
▁অনুভূতি	-9.24085
▁সংযোগ	-9.24107
▁লিখেছেন	-9.2424
▁মন্দ	-9.24298
▁জেনারেল	-9.24315
▁অনুষ্ঠান	-9.24325
▁মতে	-9.24392
▁আপনারা	-9.24409
▁আগ্রহ	-9.24641
▁সর্ব	-9.2469
▁কন	-9.2474
▁শেখ	-9.24773
▁খেলার	-9.24856
▁ফলাফল	-9.24973
▁শাস্তি	-9.25028
▁দখল	-9.25047
▁দৃষ্টিভঙ্গি	-9.25051
▁সভা	-9.25063
▁যেটি	-9.25118
▁আনা	-9.25399
▁কার	-9.25403
▁বিদ্যমান	-9.2562
ঙ	-9.25622
বান	-9.25627
▁থাক	-9.25713
▁যাত্রা	-9.25839
▁অভাব	-9.25888
২৭	-9.25962
▁ব্যাপার	-9.26058
▁বিপক্ষে	-9.26116
▁আগের	-9.26227
▁মিডিয়া	-9.26264
▁প্রতিবাদ	-9.26317
▁সাত	-9.26658
▁যত্ন	-9.26694
▁উৎসাহ	-9.26784
▁অনুসন্ধান	-9.26888
▁বাড়িতে	-9.26946
▁জুড়ে	-9.27077
▁প্রেসিডেন্ট	-9.27238
ৌ	-9.27276
▁ব্যবহারকারী	-9.27311
রূপ	-9.27365
▁গৃহ	-9.2739
▁ঐতিহাসিক	-9.27416
▁কমিশন	-9.27444
▁আমেরিকান	-9.27517
▁প্রক্রিয়া	-9.27538
▁এটাই	-9.27555
▁নির্দেশনা	-9.27621
▁ব্যবহারের	-9.27686
▁বছরে	-9.2776
▁১০০	-9.27776
▁পরাজিত	-9.27802
▁প্রাকৃতিক	-9.27816
▁সেটার	-9.27887
▁আমন্ত্রণ	-9.27924
কল	-9.28054
▁মূল্যবান	-9.28288
▁জাহাজ	-9.28298
▁আয়োজন	-9.28361
▁হারিয়ে	-9.2837
▁উপাদান	-9.28376
্ম	-9.28427
▁শু	-9.28454
ৃ	-9.2846
▁ত্যাগ	-9.2848
▁গেলে	-9.28533
▁প্রতিদিন	-9.28621
▁উন্নতি	-9.28742
▁সো	-9.28749
টু	-9.28881
▁প্রাণ	-9.29027
▁ঘর	-9.29038
ঞ্জ	-9.29108
▁শতাব্দীর	-9.29234
ডা	-9.29236
যা	-9.29262
▁মার্ক	-9.2929
▁বিদ্যুৎ	-9.2933
▁প্রতিবেদন	-9.29433
▁আসুন	-9.29495
▁উন্নত	-9.29602
▁রহমান	-9.29618
▁চোখ	-9.29791
▁সম্পাদক	-9.29798
▁বসবাস	-9.29928
▁ব্যবস্থার	-9.29932
▁কম্পিউটার	-9.29982
এই	-9.30034
▁যোগ্য	-9.30084
▁ভারতে	-9.30102
পো	-9.3019
গঞ্জ	-9.30194
▁হু	-9.30289
▁লীগ	-9.30303
▁গ্রুপ	-9.30329
▁সমাধান	-9.30608
▁টেলিভিশন	-9.30758
▁পৃথক	-9.30807
▁জু	-9.30836
▁বোর্ড	-9.30892
▁থাকলে	-9.30901
▁সংসদ	-9.30945
য়ান	-9.30985
▁পরবর্তীতে	-9.30986
ক্ত	-9.31015
▁ছিলাম	-9.31043
▁অভিনেত্রী	-9.31116
প্রাপ্ত	-9.31246
▁জানায়	-9.31393
▁পক্ষ	-9.31403
ল্ড	-9.31412
িয়ার	-9.31564
▁তোলা	-9.31641
▁বিষয়ক	-9.31686
▁প্রযুক্তি	-9.31788
▁শেষে	-9.32003
▁২০০৬	-9.32009
▁দেত্তয়া	-9.32035
▁গু	-9.32042
▁চলচ্চিত্রে	-9.3207
▁চলতে	-9.32128
থা	-9.3215
▁বেড়ে	-9.32184
▁করিয়া	-9.32198
▁প্রেরণ	-9.32281
▁মুছে	-9.32356
▁সাক্ষরতা	-9.32503
▁অধ্যাপক	-9.32506
▁বিধান	-9.32518
▁নির্বাচনে	-9.32556
▁স্কুলে	-9.32583
▁প্যা	-9.32608
▁প্রচলিত	-9.32645
▁শয়তান	-9.3277
▁অস্ত্র	-9.32813
▁পোশাক	-9.32862
▁পিছনে	-9.32894
▁প্রতিজ্ঞা	-9.32981
▁অনুভব	-9.32983
▁ধারণ	-9.33014
▁উৎসাহিত	-9.33071
▁ওয়েবসাইট	-9.33078
ইংরেজি	-9.33083
▁দেখি	-9.33114
▁ছয়	-9.33144
▁সামান্য	-9.3326
আমার	-9.33316
▁ফর	-9.3367
▁সংস্কৃতি	-9.33715
প্রতি	-9.33753
▁এছাড়া	-9.33876
▁অনুগ্রহ	-9.33943
▁বো	-9.34002
▁চাকরি	-9.34004
িয়ান	-9.34154
▁পাল	-9.342
গার	-9.34324
▁তুলনা	-9.34369
▁নানা	-9.34551
যে	-9.34585
▁রাতে	-9.34611
▁অভিনেতা	-9.34674
▁গিয়েছে	-9.34709
টন	-9.34782
▁শ্রমিক	-9.34782
▁সংশ্লিষ্ট	-9.34967
স্টার	-9.35017
▁কথাগুলো	-9.35213
য়ো	-9.3522
▁আবেদন	-9.3523
▁পারব	-9.35268
▁পেয়েছে	-9.35275
▁কাউকে	-9.35419
য	-9.35481
▁একক	-9.35568
সো	-9.35671
▁সং	-9.35701
৫০	-9.35726
▁গুলি	-9.35733
▁দেখ	-9.35806
এন	-9.35892
▁টা	-9.3604
দান	-9.36058
▁লড়াই	-9.36064
▁নিজে	-9.36069
▁যুবক	-9.36178
▁তাঁহার	-9.36321
▁ডিগ্রি	-9.36517
▁বিক্রি	-9.36573
▁স্টেশন	-9.36658
▁বাকি	-9.36691
্যা	-9.36857
▁কর্মী	-9.36859
▁কিছুটা	-9.36881
▁কার্যকর	-9.36899
▁রাস্তা	-9.36934
▁জানান	-9.36946
▁ক্ষতি	-9.37026
▁বক্তৃতা	-9.37031
▁টুইট	-9.37067
▁সম্প্রতি	-9.37067
▁বেশিরভাগ	-9.37254
▁আদর্শ	-9.37304
▁সতর্ক	-9.37324
▁কৌশল	-9.37346
ডে	-9.37379
▁নং	-9.37452
▁বিভক্ত	-9.37485
▁যোগদান	-9.37567
▁বাদ	-9.3768
▁আছি	-9.37692
▁মুখে	-9.3782
▁বয়সী	-9.37923
▁এশিয়া	-9.37928
৩৩	-9.38009
▁দৃশ্য	-9.38116
▁পৃথিবী	-9.38145
▁খ্রিস্টীয়	-9.38243
▁এক্স	-9.3831
ধারা	-9.38427
▁সমান	-9.38437
▁দা	-9.38495
াস	-9.38507
টাই	-9.38629
▁ভিত্তিতে	-9.38733
▁অপ	-9.38791
▁দেখান	-9.38892
▁আত্ম	-9.38961
▁অনুপ্রাণিত	-9.38975
▁দশকে	-9.39055
▁ভা	-9.39113
▁আম	-9.39162
▁ছাড়াও	-9.39246
▁পাশে	-9.39316
▁লু	-9.39323
▁খেলোয়াড়	-9.39351
জনক	-9.39352
পূর্ব	-9.39371
▁সবার	-9.39373
▁প্রধানমন্ত্রী	-9.39424
▁লূক	-9.39442
▁টু	-9.39459
▁আস্থা	-9.39579
▁বিশিষ্ট	-9.39804
▁সিস্টেম	-9.39804
▁মালিক	-9.39866
▁কল্পনা	-9.39913
▁যুদ্ধে	-9.40008
▁ল্যাংডন	-9.40331
▁দে	-9.40334
করা	-9.40353
▁গণ	-9.40406
লী	-9.4042
।'	-9.40444
▁দেখাতে	-9.40551
▁মনোনীত	-9.40583
▁হও	-9.40631
▁অন	-9.40659
▁ফোল্ডার	-9.40743
▁লক্ষ্যে	-9.4078
▁উপকার	-9.40888
▁পাবে	-9.40956
▁আগেই	-9.41048
▁কঠোর	-9.41315
জাত	-9.41343
▁প্রিয়	-9.41484
▁স্থায়ী	-9.4149
তর	-9.41506
৩৪	-9.41534
▁চিঠি	-9.41561
▁হি	-9.41565
▁চিহ্ন	-9.41648
হু	-9.41684
▁গোল	-9.41747
▁কারা	-9.41789
▁লাইন	-9.41825
▁খরচ	-9.4185
জো	-9.42038
▁মানবাধিকার	-9.42118
▁তাঁরা	-9.4212
বিশেষ	-9.42181
▁দেবেন	-9.42203
▁দেখার	-9.42249
▁আর্থিক	-9.4228
▁নকশা	-9.42369
▁হয়েছেন	-9.42466
▁টুইটার	-9.42539
▁লোকের	-9.42583
▁কবি	-9.42638
▁কারো	-9.42676
▁ব্যক্তিরা	-9.42724
নীয়	-9.42759
▁চট্টগ্রাম	-9.42834
▁সাম্প্রতিক	-9.42943
▁নিহত	-9.42986
▁আয়তন	-9.43167
▁যেকোনো	-9.4325
▁নগর	-9.4328
▁তেল	-9.43346
▁সমালোচনা	-9.43371
৪০	-9.43455
▁কালো	-9.43551
ণ্ড	-9.43562
▁উপায়ে	-9.43635
▁দাঁড়িয়ে	-9.43678
▁যিশাইয়	-9.43768
▁শাসক	-9.43776
▁জগতে	-9.43797
▁হিসাব	-9.43833
▁নারীদের	-9.43837
▁সম্ভাবনা	-9.4397
▁খুলে	-9.441
▁নষ্ট	-9.44168
▁ঘৃণা	-9.44211
▁ফুল	-9.44239
▁ঈশ্বরকে	-9.44327
▁সীমানা	-9.44551
▁শুনতে	-9.44583
▁স্বাভাবিক	-9.44588
▁চৌধুরী	-9.44596
▁এসেছিল	-9.44623
▁মন্ত্রী	-9.44624
▁পরিসংখ্যান	-9.44627
দে	-9.44631
▁তুই	-9.44774
▁উপাত্ত	-9.4478
▁আহমেদ	-9.44816
▁প্রহরীদুর্গ	-9.44868
▁সরিয়ে	-9.44923
▁সমস্যার	-9.44965
ারি	-9.44966
▁কাপ	-9.45001
▁অভিষিক্ত	-9.45026
▁মৌলিক	-9.45049
▁হৃদয়	-9.45106
▁বৌদ্ধ	-9.45242
াম	-9.45251
▁ওহ	-9.45396
ইউ	-9.45452
▁বদলে	-9.45465
▁যাহা	-9.45576
▁বহন	-9.45583
▁জমি	-9.45588
লিন	-9.45602
যোহন	-9.45646
▁খেলায়	-9.45657
▁বাহিনীর	-9.45657
▁গাছ	-9.45695
▁৩২	-9.45706
▁ফে	-9.45765
গু	-9.45788
▁পড়ার	-9.4586
ছা	-9.4586
▁সদস্যদের	-9.4587
নগর	-9.45885
▁হিতোপদেশ	-9.4592
▁সম্পাদন	-9.45992
▁উপাসনা	-9.45999
▁জনগণের	-9.4604
▁পারিবারিক	-9.46084
▁উদ্যোগ	-9.46101
▁দৃষ্টি	-9.46104
▁যুক্তরাষ্ট্র	-9.46127
▁সপ্তাহ	-9.46185
▁সদর	-9.4621
▁অন্যদিকে	-9.46215
▁তুলতে	-9.46359
রাজ	-9.46367
▁কেননা	-9.46388
▁প্রতিনিধি	-9.46536
▁গ্রন্থ	-9.46595
▁তাহা	-9.46613
▁ইঙ্গিত	-9.4666
▁জো	-9.46714
▁দ্যা	-9.46727
▁নিম্ন	-9.46893
▁মোহাম্মদ	-9.46899
▁৩৩	-9.46922
▁সবকিছু	-9.47001
▁চাইতে	-9.47076
৩৫	-9.47121
নিয়া	-9.47143
এফ	-9.47171
ইয়া	-9.47176
োর	-9.47237
▁চ্যানেল	-9.47239
▁অনুকরণ	-9.47309
ষ্ঠ	-9.47345
▁মানুষকে	-9.47417
▁চূড়ান্ত	-9.47436
▁ওয়েব	-9.47456
▁মাছ	-9.4753
▁চরিত্রে	-9.47534
▁মাধ্যম	-9.47598
▁নেটওয়ার্ক	-9.4768
শী	-9.47793
▁নেয়া	-9.47822
জু	-9.47834
▁বিষয়ের	-9.47835
▁দ	-9.47861
▁প্রবন্ধ	-9.47882
▁গিয়েছিলেন	-9.47886
▁সম্প্রদায়ের	-9.47894
▁পো	-9.47911
▁ডা	-9.4793
▁৬০	-9.47972
▁রং	-9.48017
▁এটাকে	-9.48097
▁তোলার	-9.48265
▁১৯৭১	-9.48284
▁আলো	-9.48363
ুক	-9.48419
▁বলছে	-9.48452
▁শো	-9.48464
▁ছবিটি	-9.48537
▁আদালত	-9.48551
▁জাতির	-9.48598
▁কার্য	-9.4861
▁জার্মান	-9.48629
▁ইউরোপীয়	-9.48641
▁এবার	-9.48683
▁শুনে	-9.48855
▁পাতা	-9.48952
▁অধ্যায়	-9.48967
▁চোখে	-9.49075
▁দুজন	-9.49111
এক	-9.49126
▁নিষিদ্ধ	-9.49161
▁পরিপূর্ণ	-9.49216
▁গ্লোবাল	-9.49269
▁তুলনায়	-9.49322
▁বিজয়ী	-9.4938
▁গণ্য	-9.49482
▁সৌদি	-9.49532
▁পুরোপুরি	-9.49537
েশন	-9.4955
▁এরকম	-9.49645
▁চেয়ারম্যান	-9.4969
বাস	-9.49701
এল	-9.49797
বোধ	-9.49875
▁কাহিনী	-9.49899
▁আরেকটি	-9.49936
▁মুদ্রা	-9.49943
▁পরিচর্যায়	-9.49983
▁সুলতান	-9.50041
▁ট	-9.50044
▁মহান	-9.50112
▁আফ্রিকা	-9.50149
ছো	-9.50341
▁বাপ্তিস্ম	-9.50352
▁৩৫	-9.50358
▁সাক্ষ্য	-9.50359
▁চলচ্চিত্রের	-9.5036
▁সকলের	-9.50382
▁শে	-9.50455
▁বিষয়বস্তু	-9.50497
▁কাছাকাছি	-9.50518
৩২	-9.50572
▁ভ	-9.50616
▁মিস	-9.50663
▁নির্	-9.50669
▁বিস্তৃত	-9.50694
বেন	-9.50715
াব	-9.5079
সং	-9.50806
▁আদমশুমারি	-9.50819
▁কারন	-9.50833
▁ইনস্টিটিউট	-9.51007
▁চল	-9.51017
▁বলেছিল	-9.51161
▁সার	-9.51174
বিদ	-9.51217
▁গ্রেফতার	-9.51221
▁খ্রিস্টাব্দে	-9.51306
▁মৃত	-9.51386
িস	-9.51403
▁তত্ত্ব	-9.51433
▁হোসেন	-9.51547
▁খ্রীষ্ট	-9.51653
▁সরকারী	-9.51695
▁উদ্ধার	-9.51734
▁মানসিক	-9.51802
▁ভিতরে	-9.51947
৪৪	-9.51953
পাল	-9.51957
▁প্রোগ্রাম	-9.51987
৩৭	-9.52037
▁সংখ্যক	-9.52081
▁এমনকী	-9.52188
তেই	-9.52202
মন	-9.52257
▁প্রাণী	-9.52265
▁আগ্রহী	-9.52314
মেন্ট	-9.52398
▁বলছি	-9.52457
▁অনলাইন	-9.52464
▁রাম	-9.52474
▁কয়েকজন	-9.52507
▁বলল	-9.52596
▁ভবন	-9.52613
▁আক্রান্ত	-9.52715
▁ক্ষেত্র	-9.5295
▁কোড	-9.52985
▁অবদান	-9.53107
▁ব্যবস্থাপনা	-9.53195
্র	-9.53224
▁যন্ত্র	-9.53292
▁ভে	-9.53294
▁নেতৃত্ব	-9.53446
▁সমগ্র	-9.53518
▁প্রকাশনা	-9.53531
ভিত্তিক	-9.53585
▁বইয়ের	-9.53586
ডো	-9.53653
▁বাংলায়	-9.53668
▁সমাজের	-9.53724
▁ভুলে	-9.53743
গান	-9.53794
পদ	-9.53829
দী	-9.54019
▁পার্থক্য	-9.54358
▁আট	-9.5442
▁২০০০	-9.54437
লিয়া	-9.54438
▁জগৎ	-9.54518
▁শীঘ্রই	-9.54528
ভে	-9.54596
▁স্বাক্ষর	-9.54628
▁প্রতিনিধিত্ব	-9.54675
▁২০০৫	-9.54798
▁লম্বা	-9.54824
▁ত্রুটি	-9.54894
▁দুঃখিত	-9.54898
▁সার্ভিস	-9.54906
ছিলাম	-9.54994
▁বিক্ষোভ	-9.55003
▁বিশ্ববিদ্যালয়ে	-9.55041
▁যাকোব	-9.55075
▁সম্প্রদায়	-9.55093
▁বয়স্ক	-9.55166
▁বাণিজ্য	-9.55178
▁টেস্ট	-9.55363
▁আমেরিকার	-9.55374
▁ফুট	-9.55394
েল	-9.55449
▁প্রদেশের	-9.55497
▁জেনে	-9.55498
ভাগ	-9.55669
▁বিধি	-9.55727
▁তোলে	-9.5575
▁ডান	-9.55916
▁পার্ক	-9.55925
স্ব	-9.56067
ল্লা	-9.5608
▁পত্রিকার	-9.5618
▁তাহার	-9.56203
▁ভবিষ্যৎ	-9.56282
▁একাধিক	-9.56307
▁লিখিত	-9.56313
▁হ্রাস	-9.56388
▁অস্বীকার	-9.56429
▁সম্মেলন	-9.56452
▁এন্ড	-9.5651
ীদের	-9.56571
▁পাঠানো	-9.56572
▁গ্যাস	-9.56652
▁সাদা	-9.5675
▁আরেকটা	-9.56837
গুলিকে	-9.56897
▁করেনি	-9.56968
▁অপর	-9.56977
▁সিনেমা	-9.56992
▁সেটি	-9.57055
ক্ষণ	-9.57067
▁সীমা	-9.57092
▁জমা	-9.57108
▁সমুদ্র	-9.57216
▁শর্ত	-9.57424
▁আরম্ভ	-9.57477
▁ভেবে	-9.57483
▁অফিস	-9.5754
▁মাইল	-9.5762
▁আসন	-9.57623
▁শিল্পী	-9.57687
▁সড়ক	-9.5771
দ্	-9.57733
▁আবিষ্কার	-9.57742
িম	-9.57852
বিদ্যা	-9.57854
▁শোনা	-9.57995
ড়ে	-9.58049
প্ত	-9.58194
ঈশ্বরের	-9.58219
▁মামলা	-9.58221
▁মাল	-9.58279
▁প্রাক্তন	-9.5846
শক্তি	-9.58466
▁মূর্তি	-9.58485
▁%	-9.5856
▁প্রশাসনিক	-9.58575
▁অংশে	-9.58592
▁বাক্স	-9.58693
▁প্রভৃতি	-9.58713
▁পরিষদ	-9.5879
▁বলেছে	-9.58837
▁মর্যাদা	-9.5885
▁উৎসব	-9.58857
▁যাচ্ছি	-9.5899
:-	-9.59063
িল	-9.59077
▁প্রতিযোগিতা	-9.59151
▁স্বীকৃতি	-9.59216
▁আসল	-9.59244
লের	-9.59263
স্তা	-9.59297
▁অস্তিত্ব	-9.59375
▁করতাম	-9.59465
▁সেগুলোর	-9.59474
▁চীনা	-9.59485
বর	-9.59488
▁তরুণ	-9.59509
▁আনন্দিত	-9.59667
▁জীবনযাপন	-9.59735
প্রেরিত	-9.59774
▁দাম	-9.59891
ায়ন	-9.59953
▁সূত্র	-9.59964
ফার	-9.59965
▁দুর্বল	-9.59995
▁আন	-9.60039
ঙ্গা	-9.60122
টাকে	-9.60151
▁টিভি	-9.60219
▁মণ্ডলীতে	-9.6022
▁তু	-9.60232
▁কতই	-9.60302
▁চাহিদা	-9.60422
▁পড়ুন	-9.60433
্ন	-9.60438
▁পিতার	-9.6047
▁কংগ্রেসের	-9.60493
▁প্রশাসন	-9.60507
▁রেল	-9.6056
মের	-9.60563
▁স্বপ্ন	-9.60647
▁প্রদানের	-9.60687
▁ফেলতে	-9.60726
▁রাখেন	-9.60769
▁বাচ্চা	-9.60809
▁ভয়েসেস	-9.60948
▁দুঃখ	-9.60956
▁আত্মার	-9.61001
▁বাস্তব	-9.61057
▁বিশেষভাবে	-9.61106
▁সাক্ষি	-9.61111
ফে	-9.61119
▁হক	-9.61125
নু	-9.61126
গীতসংহিতা	-9.61182
▁উপজেলার	-9.61347
▁সাহায্যে	-9.61456
▁বাণিজ্যিক	-9.61461
▁দশকের	-9.61499
▁সংগীত	-9.61689
▁উত্তরে	-9.61722
▁ইন্ডিয়া	-9.61728
▁অর্থনীতি	-9.61833
▁পূরণ	-9.61835
▁প্রদেশ	-9.61866
▁শিখতে	-9.61962
▁সুখ	-9.61985
▁ঘুম	-9.62036
▁করল	-9.62037
েও	-9.62045
▁যাকে	-9.62131
▁হো	-9.62163
▁নীল	-9.6221
▁করবো	-9.62278
▁ডাক্তার	-9.62374
▁খ্রীষ্টীয়	-9.62432
▁অবশেষে	-9.62436
▁শেয়ার	-9.62454
▁রান	-9.6249
▁চারটি	-9.62531
▁সিদ্ধ	-9.62607
▁নিন	-9.62647
ল্যান্ড	-9.62661
▁স্মৃতি	-9.62891
▁চীনের	-9.62912
পরি	-9.62923
▁উপহার	-9.62929
▁বাংলাদেশী	-9.62992
▁মাধ্যমিক	-9.63166
▁আশ্রয়	-9.63244
▁ঠিকানা	-9.6325
▁পার্টি	-9.63258
▁চরম	-9.63274
▁ধর্মের	-9.63317
▁একইভাবে	-9.63329
▁সংক্ষিপ্ত	-9.63458
নাম	-9.635
▁সাবেক	-9.63503
▁টম	-9.63547
চিত্র	-9.63572
▁যেসব	-9.6363
বন	-9.63682
▁লাগে	-9.63683
▁ক্রমাগত	-9.63777
▁সভাপতি	-9.63805
▁বাছাই	-9.63914
▁করছিল	-9.63958
▁সংস্কার	-9.63963
▁উদ্ভিদ	-9.63988
▁স্বর্গীয়	-9.64016
▁শাস্ত্র	-9.64019
▁রাস্তায়	-9.64053
▁আকর্ষণ	-9.64131
▁সান	-9.64149
▁প্রত্যাখ্যান	-9.64179
▁উপন্যাস	-9.64201
▁কোম্পানির	-9.64415
▁নিয়েছে	-9.6445
▁আদি	-9.64473
▁দলে	-9.64498
▁থানা	-9.64535
কালীন	-9.64584
▁নিরাপদ	-9.64587
▁২০০৪	-9.64719
▁৩৭	-9.64883
▁স্বাধীনতার	-9.64902
▁আন্দোলনের	-9.64932
▁পরিচিতি	-9.64979
▁ওটা	-9.65037
▁চীন	-9.6508
▁সান্ত্বনা	-9.65121
▁প্রকার	-9.65129
▁শিষ্য	-9.65199
▁সহ্য	-9.6525
▁নিয়েছিলেন	-9.65266
▁এড়িয়ে	-9.65294
▁মেলা	-9.65406
▁মডেল	-9.65454
▁বিদেশী	-9.65476
গন	-9.6551
▁শিশুদের	-9.65556
▁রেলওয়ে	-9.65571
▁বংশ	-9.65629
▁জর্জ	-9.65643
▁ম্যাক	-9.65697
রিয়া	-9.6571
▁ফরাসি	-9.65759
▁বাঙালি	-9.65801
দেশ	-9.65822
▁করেননি	-9.6588
থি	-9.65911
▁মুক্তির	-9.65912
শু	-9.66078
▁চলছে	-9.66108
▁নিকটবর্তী	-9.66116
▁পরিস্থিতির	-9.66117
▁ধৈর্য	-9.66202
▁গীত	-9.66205
▁ঘন্টা	-9.66285
▁এ্যা	-9.66293
▁সচেতন	-9.66492
▁দিবস	-9.66505
▁জানানো	-9.66547
▁সভায়	-9.66602
▁জান	-9.66642
▁গুরুতর	-9.66662
▁অধ্যক্ষ	-9.66678
▁ভর্তি	-9.66737
▁প্রদত্ত	-9.6674
▁চরিত্র	-9.66775
নিক	-9.66812
▁আজকের	-9.66829
▁সাড়া	-9.66834
▁আফ্রিকার	-9.66855
▁অবাক	-9.66892
▁আহ্বান	-9.66969
▁রেডিও	-9.6698
▁৩৪	-9.67011
▁দায়ূদ	-9.67052
▁সপ্তাহের	-9.67124
▁উৎসর্গ	-9.67205
▁দেয়ার	-9.67231
▁সুখী	-9.67242
চু	-9.67253
▁দর্শন	-9.67306
▁কাটা	-9.67463
▁অনুচ্ছেদ	-9.67606
▁বিমানবন্দর	-9.67662
ন্ন	-9.67663
৩৬	-9.67813
▁নন	-9.679
▁একদিন	-9.67917
▁শ্রী	-9.6796
র্ন	-9.68
▁মেরে	-9.68015
েজ	-9.68025
▁মোকাবিলা	-9.68076
▁ব্যস্ত	-9.68088
▁সুরক্ষা	-9.68161
▁কাউন্সিল	-9.68211
▁বিরাট	-9.68238
▁বিচ্ছিন্ন	-9.68283
▁পত্র	-9.68303
▁তীব্র	-9.68323
ুয়া	-9.68326
▁ধরণের	-9.68354
এইচ	-9.68367
ঞ্চ	-9.68473
▁অফিসার	-9.68509
▁কাপড়	-9.68542
▁ঢাকার	-9.68551
▁দেশটির	-9.68559
▁নব	-9.68628
িতে	-9.68629
▁নমুনা	-9.68714
৪৫	-9.68754
▁মন্ত্রণালয়	-9.68856
▁আকাঙ্ক্ষা	-9.68973
▁প্রচণ্ড	-9.68994
▁উঠতে	-9.68996
▁অঙ্গ	-9.69034
▁আল্লাহ	-9.69077
ন্ডা	-9.69117
▁পশু	-9.69225
য়াল	-9.69245
▁কোন্	-9.69288
▁বলুন	-9.69297
▁মোবাইল	-9.69406
▁ভেতরে	-9.69462
▁জারি	-9.69488
▁রাজনীতিবিদ	-9.69518
▁চলা	-9.69611
▁অগ্রগামী	-9.69646
▁প্রভু	-9.69688
▁উঠেছে	-9.6969
▁মেইল	-9.69776
▁খুন	-9.69815
্ব	-9.69818
▁গে	-9.69858
▁শহীদ	-9.69911
▁বর	-9.69941
▁পড়েছে	-9.70118
▁কখন	-9.70128
▁মায়ের	-9.7015
▁প্রার্থী	-9.70191
▁ঘটেছে	-9.70257
▁সংশোধন	-9.70298
▁প্রতিষ্ঠানের	-9.70322
▁দাবী	-9.70363
▁স্থির	-9.70396
েস	-9.70439
গি	-9.7051
▁তোর	-9.70524
চন্দ্র	-9.70575
ডার	-9.70612
▁উপস্থাপন	-9.70654
▁ধন	-9.70705
▁কমিটির	-9.70708
▁কোনও	-9.70737
▁শান্ত	-9.70766
আমরা	-9.70849
তাম	-9.70887
▁সিটি	-9.70908
▁দেখিয়ে	-9.70916
▁অনেকেই	-9.7092
▁গতি	-9.70961
▁কর্মজীবন	-9.7118
▁ঐশিক	-9.71225
▁বিস্তারিত	-9.71237
▁ফেসবুক	-9.71263
মত	-9.7128
▁সেন্টার	-9.7131
▁একা	-9.71339
▁শুরুতে	-9.71384
▁নথি	-9.71411
▁ম্যা	-9.71455
▁সম্রাট	-9.71512
▁নামকরণ	-9.7156
▁সপ্তাহে	-9.71597
▁সহযোগিতা	-9.71775
▁৪৫	-9.718
▁কেবলমাত্র	-9.71823
▁উপদেশ	-9.71951
▁আদম	-9.72068
▁খ্রিস্টানদের	-9.72074
▁খা	-9.72116
▁উঁচু	-9.72172
বাসী	-9.72184
▁দক্ষিণে	-9.72235
▁ধান	-9.72281
▁জানার	-9.72356
ঠ	-9.72366
▁সোভিয়েত	-9.72379
▁অ্যাকাউন্ট	-9.72383
▁নাগরিকদের	-9.72457
▁পরিবর্তিত	-9.72587
▁দেহ	-9.72618
▁ধ	-9.7262
তত্ত্ব	-9.72667
▁ন্যাশনাল	-9.72693
▁বিতরণ	-9.72712
াইয়া	-9.72719
▁বার্ষিক	-9.72735
▁পালিয়ে	-9.72736
গণের	-9.728
▁বিশ্বব্যাপী	-9.72804
▁বিজয়	-9.72809
▁ফিরিয়ে	-9.7281
লূক	-9.72844
▁ধারাবাহিক	-9.72872
াই	-9.72933
▁বাই	-9.72947
▁কখনোই	-9.72952
▁আবদুল	-9.73156
▁অনুরূপ	-9.73184
▁শত্রু	-9.73211
▁দেখানোর	-9.73214
▁দিচ্ছে	-9.73245
▁যেত	-9.73337
▁ভেঙে	-9.73338
ক্	-9.73352
▁বন্দর	-9.73427
▁অতিক্রম	-9.73433
▁নিশ্চয়ই	-9.73445
▁হামলা	-9.73458
▁সংরক্ষিত	-9.73506
▁অভি	-9.73548
▁অন্তর্গত	-9.73639
▁বৃহত্তম	-9.73674
▁দক্ষতা	-9.73691
▁উৎপন্ন	-9.73717
▁তেমন	-9.7373
▁পাবলিক	-9.73762
▁করিবে	-9.73819
▁অর্থে	-9.73821
▁এইচ	-9.73829
▁বোমা	-9.73887
▁পাট	-9.739
▁১৯৯০	-9.73967
▁পরিদর্শন	-9.73974
▁সম্ভাব্য	-9.74053
▁ইচ্ছুক	-9.74095
▁ভাববাদী	-9.74162
▁নৈতিক	-9.7421
▁স্নাতক	-9.7422
▁শ্রম	-9.74247
▁৫৯	-9.74316
▁কবিতা	-9.74356
▁পুস্তক	-9.74522
▁বিস্তার	-9.74527
▁সাইট	-9.74568
▁পারত	-9.74577
▁৪৮	-9.74629
▁দুষ্ট	-9.74651
▁মতামত	-9.74688
▁৯০	-9.74708
▁৭০	-9.74766
▁গ্রামের	-9.74794
ার্স	-9.74816
▁মাদ্রাসা	-9.749
▁সংস্থার	-9.74926
▁বিরোধিতা	-9.75003
▁চাও	-9.7504
ন্দা	-9.7506
স্ক	-9.75156
▁শারীরিক	-9.75195
▁সুতরাং	-9.75241
▁বিধানসভা	-9.7544
▁ইয়র্ক	-9.75449
ধা	-9.75557
িস্ট	-9.75672
▁একাডেমি	-9.75736
▁পেছনে	-9.75813
▁দরিদ্র	-9.75898
▁নেতৃত্বে	-9.75898
▁উচ্চতা	-9.75965
▁কন্যা	-9.75996
▁কয়েকটা	-9.76144
▁সাহস	-9.7615
বর্গ	-9.76154
তুমি	-9.76185
রোমীয়	-9.76221
▁কতটা	-9.76254
কর্ম	-9.76308
▁রচিত	-9.76317
▁দায়ী	-9.76358
▁রাষ্ট্রের	-9.76385
▁বললেন	-9.76403
র্থ	-9.7643
বী	-9.76451
▁নির্বাচনের	-9.76467
▁সভার	-9.76487
▁লেখার	-9.76524
▁নর	-9.76603
▁কৃষক	-9.76682
▁খ্রিস্টের	-9.76746
▁এটিকে	-9.76763
লাই	-9.76779
আমাদের	-9.76918
▁গ্রেপ্তার	-9.77181
▁নম্বর	-9.77217
▁চে	-9.77229
▁শিরোনাম	-9.7724
▁অর্পণ	-9.7724
ল্ট	-9.77252
▁সাম	-9.77275
▁পাথর	-9.77286
দো	-9.77334
▁এরা	-9.77414
▁সার্ভার	-9.7742
▁পড়ি	-9.77452
ওয়ে	-9.77575
▁আহত	-9.77584
▁নাটক	-9.77588
▁ঢাকায়	-9.7759
▁কার্	-9.77647
▁ইউরোপ	-9.77719
কারীদের	-9.77719
▁বিশ্বাসের	-9.77721
োয়া	-9.77722
▁রোড	-9.77726
▁হাট	-9.77738
▁গভর্নর	-9.77748
▁সর্বাধিক	-9.77758
▁গ্রিক	-9.77791
▁আঞ্চলিক	-9.77792
াদি	-9.778
▁জিজ্ঞাসা	-9.77813
▁মুহাম্মদ	-9.77854
▁পেয়েছিলেন	-9.7788
▁খ্রীষ্টের	-9.77896
▁চতুর্থ	-9.77898
▁বিন	-9.77951
▁মুসলমান	-9.7805
▁রাত	-9.78091
▁টো	-9.78127
সী	-9.78256
▁শব্দটি	-9.78328
৩৮	-9.78338
▁দ্বীপ	-9.78359
▁দোষ	-9.78361
▁মধ্যেই	-9.78507
▁পল	-9.78508
▁পৌলের	-9.78519
▁দুর্গ	-9.78546
▁তালিকায়	-9.78584
▁ঘন	-9.78584
কুল	-9.78618
▁বিনিয়োগ	-9.78657
▁শয়তানের	-9.78729
ত্র	-9.78824
▁এতটা	-9.78841
▁জরুরি	-9.78848
▁দিই	-9.78858
▁চন্দ্র	-9.78927
▁প্রথা	-9.78973
▁৩৮	-9.78991
মী	-9.7901
▁১৯৯১	-9.79117
াঙ্গ	-9.7912
রাম	-9.79136
▁পাস	-9.79194
▁দরজা	-9.79206
▁পাখি	-9.79246
▁বাইবেলে	-9.79271
▁জীবিত	-9.79291
▁মনোনয়ন	-9.79292
▁তদন্ত	-9.79304
▁৩৬	-9.79306
▁বর্ণ	-9.79308
োস	-9.79392
ঁচ	-9.79436
▁অভ্যাস	-9.79439
▁স্তর	-9.79458
ন্ডার	-9.79503
▁অভিষেক	-9.79515
▁১৯৯৬	-9.79538
▁শতাব্দীতে	-9.7955
▁হঠাৎ	-9.79559
▁অসাধারণ	-9.79719
▁সবাইকে	-9.7975
▁ছবির	-9.7976
▁উন্মুক্ত	-9.79782
▁টে	-9.79851
তন্ত্র	-9.79859
▁রবার্ট	-9.79875
সম্পন্ন	-9.79936
▁অন্তত	-9.79946
▁পাবেন	-9.80103
▁সুর	-9.80118
▁হাসপাতাল	-9.80204
▁পানির	-9.80219
▁ইংরেজ	-9.80285
্যু	-9.8031
▁লোকদের	-9.80334
▁হুমকি	-9.80354
▁খ্রিস্ট	-9.8038
▁২০০৩	-9.80466
▁ওখানে	-9.80509
▁বড়ো	-9.80522
৬০	-9.80574
▁খাওয়া	-9.80702
▁বিচারক	-9.80774
৩৯	-9.80789
▁বাবার	-9.80805
▁তাকিয়ে	-9.80818
▁কার্ড	-9.80836
বদ্ধ	-9.8085
▁নেমে	-9.8089
ব্য	-9.809
▁কর্তৃত্ব	-9.8095
▁পরিষদের	-9.80975
▁সাম্রাজ্যের	-9.8108
▁সেন্ট	-9.81092
▁বৃহৎ	-9.81093
▁লো	-9.81111
▁সম্মুখীন	-9.81224
▁মানচিত্র	-9.81251
▁ওয়ার্ড	-9.81274
মাত্র	-9.81317
▁স্থাপিত	-9.81403
▁পারেনি	-9.8141
▁ল্যা	-9.81412
▁গৃহীত	-9.81428
▁উদ্দেশে	-9.81496
▁বিয়ের	-9.81529
▁নীচে	-9.81544
▁সংবাদপত্র	-9.81569
▁পিটার	-9.81601
▁কর্মচারী	-9.81628
▁এফ	-9.81763
ভূমি	-9.81786
▁কোথাও	-9.81814
কেই	-9.81818
▁জানো	-9.81855
▁সেনা	-9.81954
▁যুক্তরাষ্ট্রে	-9.81972
▁জয়ী	-9.82005
▁বিলুপ্ত	-9.82124
▁উপস্থিতি	-9.82211
▁মাই	-9.82237
▁পদক	-9.8225
▁ইয়া	-9.82252
▁কাটিয়ে	-9.82268
▁পৌঁছে	-9.82285
▁ছোট্ট	-9.82293
▁মানবজাতির	-9.82294
▁মণ্ডলী	-9.82382
▁সকলে	-9.82384
৪৩	-9.82395
▁দৃষ্টান্ত	-9.82453
▁দোকান	-9.82521
▁গোপন	-9.82546
▁ডো	-9.82549
▁রোমান	-9.82593
▁সাই	-9.82607
কম	-9.82625
▁মাথায়	-9.82741
▁জানাতে	-9.82771
▁করছিলেন	-9.82785
শো	-9.82816
গ্রাম	-9.82913
▁মনুষ্য	-9.83086
▁তি	-9.83135
▁তহবিল	-9.83236
▁নিয়োজিত	-9.83283
▁সোনা	-9.83293
ধর্ম	-9.83325
▁বেসরকারি	-9.83329
▁প্রতিযোগিতায়	-9.83345
▁এইসব	-9.83347
▁বাক্যের	-9.83404
▁পদার্থ	-9.83458
▁প্রযোজ্য	-9.83514
▁আকার	-9.83563
▁ধ্যান	-9.83567
▁গুপ্ত	-9.83618
▁হওয়ায়	-9.83622
▁ক্রিকেটার	-9.8373
▁ডিজিটাল	-9.83737
▁আব	-9.83759
▁যুগ	-9.83759
▁পরবর্তীকালে	-9.83771
▁শস্য	-9.83826
▁সেতু	-9.83958
▁হইয়া	-9.83967
▁জটিল	-9.84042
▁উই	-9.84113
▁পশ্চিমে	-9.84115
▁সম্পত্তি	-9.84118
প্রতিদ্বন্দ্বিতা	-9.84161
▁সংগ্রাম	-9.8419
▁স্থাপত্য	-9.84212
▁প্রত্যাশা	-9.84223
▁চলচ্চিত্রটি	-9.84237
মেন	-9.8433
▁অস্ট্রেলিয়া	-9.84341
▁লোকজন	-9.84345
▁স্বরূপ	-9.84394
▁প্রধানত	-9.8443
গে	-9.84481
▁উল্লিখিত	-9.84493
▁২০০২	-9.84549
▁চুরি	-9.84569
▁সাক্ষাৎ	-9.84717
ফল	-9.84719
ওয়ার	-9.84753
▁জীবনকে	-9.84779
▁গোষ্ঠী	-9.84827
কেও	-9.84969
উল	-9.85013
▁পশ্চিমবঙ্গ	-9.85024
▁সাব	-9.8506
▁সম্মেলনে	-9.85066
▁স্প	-9.85121
▁লাইসেন্স	-9.85167
িনী	-9.85176
▁দেখেন	-9.85192
▁সাক্ষিরা	-9.85215
তায়	-9.85217
▁বৃদ্ধির	-9.85227
▁রাগ	-9.85239
▁বুদ্ধি	-9.8528
▁সোসাইটি	-9.85365
▁সিলেট	-9.8537
▁কলা	-9.85378
▁পেশাদার	-9.85397
▁কান	-9.85419
▁নই	-9.85452
▁প্রশ্নের	-9.85452
কান	-9.85505
▁পরিবর্তনের	-9.85512
▁কমিশনের	-9.85555
হো	-9.8559
"-	-9.85614
▁মহ	-9.85648
▁সংঘটিত	-9.85673
িতা	-9.85765
▁ধরন	-9.85809
পর	-9.85833
▁ইহা	-9.85846
▁ব্লক	-9.85853
▁অবসর	-9.85883
▁বাঁধ	-9.85957
চ্ছ	-9.86036
▁স্যা	-9.86059
▁২০১৯	-9.86155
▁বেল	-9.86156
▁ট্রেন	-9.86216
▁বইটি	-9.86218
রাও	-9.86237
৭০	-9.86279
▁ক্রীড়া	-9.86297
▁ব্লগে	-9.86407
▁সহজেই	-9.86468
পু	-9.86531
▁কাঠামো	-9.86556
▁লাখ	-9.86618
▁সদাপ্রভু	-9.86649
▁ঝ	-9.86738
▁উল্লেখিত	-9.86751
য়েন	-9.86756
সব	-9.86845
▁তাড়াতাড়ি	-9.86862
▁কমান্ড	-9.86867
রাই	-9.86901
মিন	-9.86918
▁প্রমাণিত	-9.86924
▁জেলায়	-9.86937
রত	-9.86977
▁আপ	-9.87001
▁বিজ্ঞাপন	-9.87054
▁অভিযান	-9.87068
▁অন্যায়	-9.8707
▁ব্যাপারটা	-9.87159
▁ছবিতে	-9.87189
▁ফসল	-9.87191
▁আলি	-9.87192
!"	-9.87233
▁উইকেট	-9.87252
▁যুগের	-9.87256
▁কারনে	-9.87263
▁১৯৯৯	-9.87325
▁ভালবাসা	-9.87341
▁আওতায়	-9.87343
▁ক্যাথলিক	-9.87344
▁রাষ্ট্রীয়	-9.87371
▁বস	-9.87383
৮০	-9.87388
িয়	-9.87484
▁পৌরসভা	-9.87488
▁বিদ্রোহ	-9.87538
ভো	-9.87667
▁খ্রীষ্টান	-9.87703
▁ইস্রায়েলের	-9.87715
▁ইতিহাসের	-9.87729
▁র্যা	-9.87744
▁অভিহিত	-9.87783
▁দ্বি	-9.87843
▁অন্যেরা	-9.87916
পাত	-9.87933
▁প্রা	-9.8796
▁মিলিত	-9.87973
▁কেটে	-9.88
▁দেখিয়েছিলেন	-9.88039
▁সীমিত	-9.88068
▁বিপরীতে	-9.88114
▁ঝুঁকি	-9.88151
▁নির্বাহী	-9.88216
▁সুস্থ	-9.88229
▁মাংস	-9.88244
▁হোন	-9.8825
▁পেয়েছি	-9.88257
টিক	-9.88268
▁মিলে	-9.88278
▁পর্যবেক্ষণ	-9.88311
দল	-9.88344
▁সাম্রাজ্য	-9.88423
▁অবস্থার	-9.88433
হিত	-9.88434
▁কল্যাণ	-9.88487
দ্ধ	-9.88493
▁সিং	-9.88524
▁অলিম্পিক	-9.88652
ানু	-9.88729
▁অন্তর	-9.88811
স্থান	-9.88889
▁কমে	-9.88948
▁স্বল্প	-9.88999
▁মিশন	-9.89016
▁জানিয়ে	-9.89073
▁বিশ্লেষণ	-9.89076
▁ইরানের	-9.89083
▁চুল	-9.89116
▁সর্বশেষ	-9.89149
▁লাগবে	-9.89153
▁বন্ধুত্ব	-9.89169
▁ভর	-9.89178
▁এনে	-9.89206
▁ইসলামী	-9.89288
ঈশ্বর	-9.893
▁ভিত্তিক	-9.89329
ইব্রীয়	-9.89422
▁প্রতিষ্ঠাতা	-9.89426
▁অবৈধ	-9.89436
▁প্রকল্পের	-9.89489
▁মৌসুমে	-9.89499
▁চেয়েও	-9.89515
আপ	-9.89615
▁চেয়েছিলেন	-9.89619
▁শিষ্যদের	-9.8962
হ্	-9.89672
▁ঘটেছিল	-9.89682
▁ছাত্রদের	-9.89697
▁আজ্ঞা	-9.89747
▁বিপদ	-9.89766
▁বেন	-9.89766
▁বিকল্প	-9.89771
▁যাজক	-9.89804
▁খো	-9.89816
েড	-9.89822
▁রপ্তানি	-9.89828
▁একসঙ্গে	-9.89979
▁আস	-9.90003
▁জ্যাক	-9.90013
▁কর্তৃপক্ষের	-9.90049
▁ফ্রি	-9.90062
▁কাট	-9.90147
▁৮০	-9.90165
▁ইউনিয়নের	-9.90186
▁পরিমাণে	-9.90203
▁সাফল্য	-9.9021
▁বার্ন	-9.90287
▁প্রকৃতপক্ষে	-9.90326
▁কার্যভার	-9.90348
▁চাষ	-9.90356
▁ক্ষতিগ্রস্ত	-9.90384
▁কলেজে	-9.90397
▁শিখ	-9.90466
লেট	-9.90483
▁গ্রহণের	-9.90503
▁চলেছে	-9.90504
দিকে	-9.90505
▁দমন	-9.90518
▁জিন	-9.90587
রণ	-9.90619
র্ক	-9.90691
▁পুলিশের	-9.90748
নেট	-9.90755
▁১৯৭০	-9.9078
▁বৈধ	-9.90811
দেরকে	-9.90817
▁অনা	-9.90827
▁ছাড়াই	-9.90863
▁রস	-9.90936
▁বক্তব্য	-9.91023
▁নিচের	-9.91024
▁অসুস্থ	-9.91103
▁বেতন	-9.91108
াত	-9.91113
▁ওরা	-9.91202
▁আহমদ	-9.91375
▁রাজস্ব	-9.9139
▁পতাকা	-9.91426
▁সাবধান	-9.91432
▁শাসনের	-9.91611
▁শ্রদ্ধা	-9.91632
▁যোগ্যতা	-9.91634
▁গুরু	-9.91646
▁এখান	-9.91677
▁১৯৪৭	-9.91765
▁কিন্ত	-9.91817
▁ওয়ার্ল্ড	-9.91826
০৭	-9.91846
▁শক্তির	-9.91875
▁প্রজাতির	-9.91882
োপ	-9.91883
▁প্রণয়ন	-9.91899
▁করলেন	-9.91901
▁কপি	-9.91919
ান্ত	-9.91973
▁পাত্র	-9.92043
▁ম্যাচ	-9.9206
স্বরূপ	-9.92074
মুক্ত	-9.92089
▁পরিশ্রম	-9.92111
▁সাক্ষাৎকার	-9.92149
▁লিঙ্গ	-9.92171
▁অপারেশন	-9.92198
দ্র	-9.92232
▁ফু	-9.92242
▁মিশনারি	-9.92289
য়েল	-9.92326
▁শনাক্ত	-9.92332
▁এসেছিলেন	-9.92358
▁শমূয়েল	-9.92434
▁ইতিহাসে	-9.92449
▁পরীক্ষার	-9.92469
▁৪৭	-9.92634
▁বেরিয়ে	-9.92641
▁প্রজ্ঞা	-9.92664
▁প্রদর্শিত	-9.92686
▁স্বর্গে	-9.927
গ্রস্ত	-9.92704
▁বিশেষজ্ঞ	-9.92709
জান	-9.9271
▁নাও	-9.92773
▁অসংখ্য	-9.92844
▁কংগ্রেস	-9.92852
▁কাম	-9.92855
▁সরে	-9.92864
▁আমদানি	-9.92869
▁হেই	-9.92892
▁পরিশোধ	-9.92905
▁আনন্দের	-9.92916
▁পারো	-9.9292
▁আবারও	-9.92949
স্প্যানিশ	-9.9295
▁ওকে	-9.93031
▁আহ	-9.93035
▁বুক	-9.93043
▁বিক্রয়	-9.93053
▁সুপারিশ	-9.9307
▁আকারে	-9.93076
▁সংগঠিত	-9.93095
▁পদ্ধতিতে	-9.93111
▁বিতর্ক	-9.93168
▁প্রেমের	-9.93171
▁১৯৮০	-9.93191
সেন	-9.93224
▁দিলে	-9.93337
▁সহায়ক	-9.93357
▁১৯৭২	-9.93393
▁দেখেছি	-9.93426
▁ঘনিষ্ঠ	-9.93516
▁শীর্ষ	-9.93529
▁কৃষ্ণ	-9.93555
▁সমন্বয়	-9.93618
▁অভিযুক্ত	-9.93621
▁ঘনত্ব	-9.93633
▁বোঝায়	-9.93657
▁আবু	-9.93723
▁মুগল	-9.93774
▁আদিপুস্তক	-9.93776
▁কোর্স	-9.93801
▁সৈন্য	-9.93821
%)	-9.93851
▁ইউনিভার্সিটি	-9.93863
▁দিল	-9.93922
▁১৯৯৮	-9.93943
▁অনুষ্ঠানে	-9.93943
▁নিন্দা	-9.93946
▁মিশরীয়	-9.9396
▁৪২	-9.93984
▁ড্র	-9.94087
▁একত্রিত	-9.94099
▁সহযোগী	-9.9412
▁দায়	-9.94135
▁ভার	-9.94149
মাস	-9.94186
▁নিজেই	-9.94246
েট	-9.94279
▁নিষেধাজ্ঞা	-9.94326
▁ইস্রায়েল	-9.94334
▁চিরকাল	-9.94354
িও	-9.94425
▁বাড়ির	-9.94463
▁মঙ্গল	-9.94516
াকার	-9.94645
▁বৈজ্ঞানিক	-9.94662
▁লীগের	-9.9467
▁প্রেস	-9.94737
▁টুইটারে	-9.94753
েন্ট	-9.94756
▁স্কুলের	-9.94759
▁প্রস্তুতি	-9.94764
▁পদের	-9.94766
▁তাহাদের	-9.94829
▁গানের	-9.94886
▁বিশ্বকাপ	-9.94899
▁রুশ	-9.95
▁উদযাপন	-9.95001
▁ঐতিহ্য	-9.95006
▁থাকত	-9.95017
৪২	-9.95026
ীন	-9.95027
▁জেলে	-9.95047
লাইন	-9.95055
▁চলার	-9.95066
▁ব্যাপকভাবে	-9.9508
▁তৈরির	-9.95081
বিশিষ্ট	-9.95217
▁মৎস্য	-9.95261
বর্ণ	-9.95283
▁সেনাবাহিনী	-9.95302
▁এইধরনের	-9.95307
▁একসাথে	-9.95365
▁বায়ু	-9.95371
▁ঘুরে	-9.95427
কী	-9.95428
▁পারছি	-9.95445
▁পুন	-9.95533
▁হস্ত	-9.95543
▁পরিস্থিতিতে	-9.95595
সিন	-9.9564
▁পুনঃ	-9.95664
▁সূচনা	-9.95679
▁রেখেছে	-9.957
▁চলো	-9.95714
▁আওয়ামী	-9.95731
▁সমাজে	-9.95789
▁কাঠ	-9.95804
▁পরিবারে	-9.95864
▁পার্শ্ব	-9.95866
পন	-9.95939
▁এগুলি	-9.9598
▁অনুশীলন	-9.96046
▁বললে	-9.96056
▁প্রবণতা	-9.961
▁থ	-9.96102
▁ইস্ট	-9.96118
▁ব্যক্তিত্ব	-9.96236
ক্যা	-9.96255
নীতি	-9.96262
▁মাঠ	-9.96297
▁শ্রেণী	-9.96322
▁পুরনো	-9.96327
▁নৌকা	-9.96329
▁বলো	-9.96346
▁আবেগ	-9.96412
▁প্রচারণা	-9.96484
▁প্রকৌশল	-9.96525
▁করলাম	-9.9654
▁সাধন	-9.96579
▁পেরেছিলেন	-9.9665
▁বেশির	-9.96653
▁নারীর	-9.96658
৪৭	-9.96716
▁জাপানের	-9.96865
▁প্রকৃতি	-9.96868
▁সঙ্গী	-9.96881
▁ধনী	-9.96886
▁শুভ	-9.96936
▁বিবেচিত	-9.96943
▁রীতি	-9.96958
▁সচিব	-9.96972
▁সংগঠনের	-9.96994
▁প্রবন্ধে	-9.97014
০৮	-9.9702
▁কারখানা	-9.97021
▁সিংহ	-9.97023
▁খেয়ে	-9.97074
▁কুমার	-9.97075
▁পড়েন	-9.97187
▁প্রতিষ্ঠার	-9.97203
বিহীন	-9.97212
▁তম	-9.97285
▁মেরি	-9.97305
▁বার্তার	-9.97409
▁মহিলাদের	-9.97613
ম্ব	-9.97618
▁ঘরের	-9.97792
▁বন্দি	-9.97848
মিল	-9.97918
▁অনুমান	-9.97927
পতি	-9.97979
▁একমত	-9.97989
▁বিপরীত	-9.98013
▁সরল	-9.98043
▁দেখো	-9.98104
▁হোম	-9.9811
▁খেতে	-9.98126
▁জোরালো	-9.98174
ীকরণ	-9.98178
▁ক্ষমতার	-9.98217
▁ইতিবাচক	-9.98225
▁ধরতে	-9.9825
তোমরা	-9.98271
▁ইন্টারন্যাশনাল	-9.98279
▁প্রজাতি	-9.98391
▁দৈনিক	-9.9844
০৫	-9.98442
▁জানতেন	-9.98532
▁আচ্ছা	-9.98562
ুল্লাহ	-9.98635
▁অসম্ভব	-9.98655
▁মুদ্রণ	-9.98655
▁শেষের	-9.9873
▁৫১	-9.98757
▁করায়	-9.98757
▁সূর্য	-9.98777
▁ব্যুরো	-9.98871
▁হাল	-9.98886
▁গৌরব	-9.98933
▁রুম	-9.9894
▁শরীর	-9.9894
▁৩৯	-9.9897
▁পেয়েছিল	-9.99034
▁সিরিয়া	-9.99063
▁অক্ষর	-9.9907
▁আ্য	-9.99074
▁অব্যাহত	-9.99264
ক্রম	-9.99281
▁সকালে	-9.99334
▁এয়ার	-9.99342
▁অতএব	-9.99359
▁যাবার	-9.99359
ম্	-9.99368
▁৫২	-9.99373
পক্ষ	-9.99451
▁আটক	-9.99463
▁নো	-9.99469
▁রাখি	-9.99493
▁মদ	-9.99523
▁উজ্জ্বল	-9.99528
নাথ	-9.99536
▁ম্যান	-9.99562
▁শ্রেণীর	-9.99568
▁ক্রি	-9.99583
রান	-9.99623
তী	-9.9968
▁টাওয়ার	-9.99698
▁তাল	-9.99729
▁বাড়িয়ে	-9.9973
াতে	-9.99745
▁সুপার	-9.99763
▁সমর্থ	-9.99779
▁রঙ	-9.99808
▁খালি	-9.99824
▁সহকারে	-9.99832
▁মিশর	-9.99845
▁মার্	-9.99847
▁পরিত্যাগ	-9.99855
▁ছ	-9.99873
জির	-9.99887
▁কলকাতার	-9.99912
পাড়া	-9.99978
▁কথাবার্তা	-9.9999
▁আগুন	-10.0002
▁জরিপ	-10.0007
▁পাশ	-10.001
াক	-10.0013
▁মেয়েদের	-10.0013
▁গরম	-10.0016
▁সৈয়দ	-10.0016
▁১৯৯৭	-10.0016
সান	-10.0032
জের	-10.0036
ানোর	-10.0037
▁নেপাল	-10.0038
▁লিপিবদ্ধ	-10.0046
▁প্রতিরক্ষা	-10.0049
ভেন	-10.0055
▁একাডেমী	-10.0056
▁চিন্তাভাবনা	-10.0056
▁কিছুদিন	-10.006
▁পরিবহন	-10.0062
▁ভবিষ্যতে	-10.0064
▁ওষুধ	-10.0066
▁অনেকটা	-10.0068
▁লিখে	-10.0069
ায়িত	-10.0071
▁উচিৎ	-10.0073
▁সাক্ষী	-10.0077
▁স্ত্রীর	-10.0079
ত্	-10.0082
▁সন্তানের	-10.0084
▁চু	-10.0085
▁শতাব্দী	-10.0087
▁ওয়েস্ট	-10.0087
▁বীজ	-10.009
হিতোপদেশ	-10.009
৪৮	-10.009
▁পরিণতি	-10.0097
▁পাহাড়	-10.0108
▁আসি	-10.0111
▁ভাড়া	-10.0113
উই	-10.0117
▁ক্ষেত্রের	-10.0118
▁সহকারী	-10.012
▁রাখুন	-10.0123
▁সীমান্ত	-10.0126
▁চিৎকার	-10.0128
▁পণ্ডিত	-10.0128
▁তখনই	-10.0131
▁সবুজ	-10.0134
▁ডিস্ক	-10.0135
▁তখনও	-10.0136
▁সেন	-10.0136
▁সংস্কৃতির	-10.0136
▁এটার	-10.0148
▁জনগণ	-10.0153
?'	-10.0157
▁৪৯	-10.0157
▁লাগা	-10.0159
৬৬	-10.0165
▁কিংডম	-10.0167
▁সমৃদ্ধ	-10.0167
▁দক্ষ	-10.017
খানা	-10.0174
▁মর	-10.0184
▁জানিয়েছেন	-10.0185
▁৫৫	-10.0188
৯০	-10.0189
▁বলছেন	-10.019
▁নিয়েছিল	-10.0193
▁দেবী	-10.0194
ত্য	-10.0197
▁উদ্যান	-10.0206
▁লোককে	-10.0208
লাল	-10.0208
▁মন্ত্রণালয়ের	-10.0219
▁ভাইদের	-10.0222
▁সমিতি	-10.0222
▁শক্ত	-10.0224
▁জেমস	-10.0225
▁সকাল	-10.0233
▁এশিয়ার	-10.0238
দিক	-10.0239
▁ব্যান্ড	-10.0245
িজ	-10.0247
▁অনন্ত	-10.0251
▁পাসওয়ার্ড	-10.0262
সম	-10.0262
▁বিশেষত	-10.0263
▁যৌথ	-10.0264
▁পেরে	-10.0268
▁বিকাশ	-10.0269
▁ব্যবহূত	-10.0273
▁রূপান্তর	-10.0279
সংক্রান্ত	-10.0281
▁জাপান	-10.0283
ভুক্ত	-10.0283
▁রাখ	-10.0288
▁অধিকারী	-10.0291
▁যেকোন	-10.0294
▁রাজশাহী	-10.0296
উপ	-10.0298
▁রয়েছেন	-10.0301
▁ক্যাপ্টেন	-10.0305
▁কাগজ	-10.0306
▁সেখান	-10.0308
▁রাশিয়ার	-10.0308
▁প্রতিবেশী	-10.0309
সিয়া	-10.0312
▁দম্পতি	-10.0313
অ্যা	-10.0318
▁রাজার	-10.032
▁ভালভাবে	-10.0324
▁মতবাদ	-10.0325
▁আসাম	-10.0326
▁বাইরের	-10.0326
▁হাসি	-10.0326
▁স্টেট	-10.0338
▁খ্রীষ্টানদের	-10.0343
▁দিয়া	-10.0343
▁পার্টির	-10.0349
▁নিবন্ধ	-10.035
▁দলটি	-10.0351
▁পড়াশোনা	-10.0352
ষা	-10.0352
েন্স	-10.0355
রিক	-10.0355
▁সৃষ্ট	-10.0364
ব্যবস্থা	-10.0365
ণী	-10.0365
▁ইংল্যান্ড	-10.0366
মুখী	-10.0368
▁ফিল্ম	-10.0369
▁হাসপাতালে	-10.0379
▁এসেছি	-10.0385
▁আনতে	-10.0388
▁উইলিয়াম	-10.0392
▁ধরার	-10.0392
ক্রমে	-10.0393
▁বাঁধা	-10.0393
▁দপ্তর	-10.0397
▁উপস্থাপনা	-10.0398
▁ইয়োব	-10.0399
▁কাজগুলো	-10.0401
▁উদ্	-10.0406
▁আসলেই	-10.0406
▁দানিয়েল	-10.0407
▁মনের	-10.0415
▁উল	-10.0422
▁দশক	-10.0422
ারের	-10.0424
▁যুগে	-10.0426
▁অপসারণ	-10.0432
▁পড়	-10.0432
▁উঠেছিল	-10.0441
▁ইবনে	-10.0443
▁১৯৯৫	-10.0446
▁ভু	-10.0447
▁হাস	-10.0448
▁বৃদ্ধ	-10.0449
▁নিকটে	-10.0454
▁ধু	-10.0454
▁পেয়েছেন	-10.0455
▁আর্কাইভ	-10.046
ডেন	-10.0461
জ্ঞ	-10.0463
গীত	-10.0465
কিছু	-10.0467
০৯	-10.047
▁ইতিমধ্যেই	-10.0473
▁গির্জা	-10.0475
৭৫	-10.0481
▁অদ্ভুত	-10.0483
ন্	-10.0486
জ্জা	-10.0491
▁৪৩	-10.0495
▁লঙ্ঘন	-10.0496
▁রঙের	-10.0502
▁যাক	-10.0503
▁উনি	-10.0504
▁পারবো	-10.0519
▁বাম	-10.0524
▁প্রকাশক	-10.0525
▁বাল	-10.0527
▁ইতোমধ্যে	-10.0529
▁অনুগত	-10.0531
▁আরোপ	-10.0536
গড়	-10.0543
আদিপুস্তক	-10.0556
▁সত্যের	-10.0559
▁বিবেক	-10.056
▁পরিচালনার	-10.0564
▁বৈ	-10.0565
▁করুক	-10.0565
বাজার	-10.057
নোর	-10.0574
ন্না	-10.0574
▁স্পষ্টভাবে	-10.0578
▁হোটেল	-10.0579
টের	-10.058
▁বন্ধন	-10.0584
▁প্রেমময়	-10.0587
▁মৃত্তিকা	-10.0589
বিজ্ঞান	-10.059
র্ণ	-10.0596
▁ভালোবাসা	-10.0598
▁]	-10.0604
▁ব্যতীত	-10.0604
▁বন্দী	-10.0606
▁সহিত	-10.0611
▁/	-10.0612
যোগ	-10.0615
▁নিউজ	-10.0617
▁নির্মাণের	-10.0621
▁ছাড়	-10.0625
▁গি	-10.0626
বাড়ি	-10.0627
সমস্ত	-10.0636
▁লন্ডন	-10.0636
৪৬	-10.0637
০৬	-10.0638
▁খামার	-10.0649
▁য	-10.0649
▁নিমিত্ত	-10.0657
▁তৎকালীন	-10.0657
▁শতকে	-10.0657
▁কিশোর	-10.0661
▁বিহার	-10.0664
াংশ	-10.0668
▁মেলামেশা	-10.0668
মুখ	-10.067
▁সংগৃহীত	-10.068
লিক	-10.0687
▁ডেভিড	-10.0698
▁হাসান	-10.071
▁আদ	-10.0716
▁আন্তরিক	-10.0724
▁কৃতজ্ঞ	-10.0729
▁শুরুর	-10.0735
পশ্চিম	-10.0742
িনা	-10.0744
▁অভ্যন্তরীণ	-10.0745
▁ক্যামেরা	-10.0752
লোক	-10.0754
▁ফিফা	-10.0757
▁করিলেন	-10.0761
▁করলো	-10.0768
▁৪৬	-10.0772
▁স্পর্শ	-10.0773
▁পূর্ববর্তী	-10.0777
▁ঘটনায়	-10.0781
টুকু	-10.0783
্যান	-10.0783
▁নোট	-10.0786
▁জনের	-10.0788
▁যাব	-10.0792
▁খে	-10.0797
▁পাঁচটি	-10.0809
কেন্দ্র	-10.0811
▁অনুমোদিত	-10.0816
▁ঘ	-10.0822
▁ইউনিট	-10.0823
▁কবর	-10.0824
▁বয়ে	-10.0824
র্ড	-10.0827
ংক	-10.0834
তন	-10.0835
▁ভেঙ্গে	-10.0839
▁ওঠা	-10.0842
▁কেহ	-10.0842
▁৪৪	-10.0844
▁আদিবাসী	-10.0844
▁সৎ	-10.0846
▁কলেজের	-10.0859
▁দ্রব্য	-10.086
▁জীব	-10.0861
পড়ুন	-10.0863
▁ব্যথা	-10.087
াশ	-10.0871
▁চাল	-10.0872
▁৪১	-10.0874
▁ঘণ্টা	-10.0877
▁সেকেন্ড	-10.0887
▁অথচ	-10.0887
▁মিশরের	-10.0898
জীবন	-10.0899
▁জনতা	-10.0903
▁সেনাবাহিনীর	-10.0905
▁চালানো	-10.0907
োল	-10.0911
শেষ	-10.0913
▁সেখানকার	-10.0914
৫৮	-10.0927
▁পরিষেবা	-10.0929
▁৬৫	-10.0935
▁ধারার	-10.0937
▁প্রকাশের	-10.0941
ষধ	-10.0943
▁নিবন্ধন	-10.0943
▁হব	-10.095
▁জমিদার	-10.0952
▁লিমিটেড	-10.0953
▁এদিকে	-10.0955
▁সিরিজ	-10.0956
দাস	-10.0957
▁১৯৬০	-10.0963
▁কলকাতায়	-10.0968
গম	-10.0969
▁প্রবাহ	-10.0979
▁এটির	-10.0983
▁সামগ্রী	-10.0983
▁১৯৫০	-10.0984
ভাব	-10.0984
▁বিপ্লব	-10.0985
▁খানের	-10.0991
▁পুরুষদের	-10.0991
▁চার্চ	-10.0993
▁ঠাকুর	-10.1001
▁আলোচনার	-10.1005
্যাল	-10.1006
▁আফগান	-10.1006
▁লিপি	-10.1007
▁নাচ	-10.1007
▁চালা	-10.1011
▁পলি	-10.1012
▁বিশ	-10.1019
▁স্পষ্টতই	-10.1026
াইল	-10.1029
▁বাজারে	-10.1029
▁আবশ্যক	-10.1032
▁প্রাদেশিক	-10.1032
▁ত্রি	-10.1038
▁রাজি	-10.104
▁অন্ধ	-10.1043
▁যথা	-10.1044
▁লাইব্রেরি	-10.1044
▁প্রো	-10.1044
▁উন্নয়নের	-10.1045
▁লাভের	-10.1047
▁জানিয়েছে	-10.1047
▁আইনে	-10.1056
▁চেক	-10.1059
▁অগ্রগতি	-10.108
▁ভালোভাবে	-10.1084
জাতীয়	-10.1087
▁অনুষ্ঠানের	-10.109
▁ইরান	-10.1094
ন্ধ	-10.1099
▁দো	-10.1105
▁মেয়াদ	-10.1114
▁দুইটি	-10.1118
▁অর্ধ	-10.1121
েশ	-10.1125
▁মাতা	-10.1126
▁চুক্তির	-10.1126
▁পেশা	-10.1127
▁সফটওয়্যার	-10.1129
▁স্বতন্ত্র	-10.113
▁ক্রয়	-10.1133
▁কর্মসূচি	-10.1137
উন	-10.1144
▁অফিসে	-10.1156
▁আর্ট	-10.1158
▁কার্যালয়	-10.116
▁রেড	-10.1163
▁বিন্যাস	-10.117
জী	-10.1173
▁আদালতে	-10.1177
ক্ষেপ	-10.1177
▁সাহায্যের	-10.1179
লাভ	-10.1191
্ল	-10.1191
▁টন	-10.1196
▁অস	-10.1201
▁গভীরভাবে	-10.1205
▁আসো	-10.1206
▁লিখতে	-10.1207
ধি	-10.1212
▁অধ্যয়নের	-10.1213
▁অন্ধকার	-10.122
▁ব্রা	-10.122
র্জ	-10.1224
মন্ত্রী	-10.1225
▁অতঃপর	-10.1227
▁ওয়াল	-10.1232
▁সংবিধান	-10.1232
▁বন্যা	-10.1233
▁পরিচর্যার	-10.1234
▁উপাসনার	-10.1235
▁ডু	-10.1236
▁প্রান্ত	-10.1237
টেন	-10.124
৪১	-10.1247
▁নিয়মিতভাবে	-10.1252
▁পটভূমি	-10.1253
▁স্থানান্তর	-10.1255
বার্গ	-10.1257
▁অগ্রসর	-10.1259
সাম	-10.126
০৪	-10.1266
▁বিবাহিত	-10.1269
▁শিশুর	-10.1271
▁পরিমাপ	-10.1271
▁ওজন	-10.1272
বাই	-10.1273
ণের	-10.1278
িশ	-10.128
হান	-10.1283
▁১৯৯২	-10.1284
▁মাটি	-10.1285
▁চুপ	-10.1292
োন	-10.1301
▁প্রতিশ্রুতি	-10.1302
র্ত	-10.1304
পথ	-10.1309
▁বর্ণিত	-10.131
▁রুট	-10.131
▁অনলাইনে	-10.131
▁আগ	-10.1316
নির	-10.1323
▁মন্দিরের	-10.1326
▁দলিল	-10.1329
▁এখনই	-10.1334
▁খ্রিস্টানরা	-10.1334
▁৫৩	-10.1339
▁খাল	-10.1344
▁শিব	-10.1344
▁যিরমিয়	-10.1345
▁ফাঁকা	-10.1354
▁জাতিসংঘের	-10.1359
▁হচ্ছিল	-10.1364
▁থা	-10.1365
▁জামা	-10.1371
▁নৃত্য	-10.1373
▁যেমনটা	-10.1381
▁চেহারা	-10.1384
কোন	-10.1395
▁দুর্যোগ	-10.1396
▁অর্ধেক	-10.1397
▁পরেই	-10.1398
▁মজা	-10.1405
▁রোগের	-10.1411
▁আক্রমণের	-10.1413
▁বিবৃতি	-10.1416
▁কারাগারে	-10.1419
০১	-10.142
▁কোর	-10.142
▁গণনা	-10.1422
▁তাছাড়া	-10.1427
▁হস্তান্তর	-10.1428
▁চিত্রিত	-10.1443
▁ক্ষতিকর	-10.1444
▁উপেক্ষা	-10.1446
৬৫	-10.1447
▁ব্যক্তিগতভাবে	-10.1448
▁কারও	-10.1452
বহ	-10.1456
▁দেবার	-10.1463
▁চোখের	-10.1469
▁বোকা	-10.1477
▁লর্ড	-10.148
▁জড়িয়ে	-10.1481
▁রাজনীতি	-10.1483
▁জনসাধারণের	-10.1484
▁নজর	-10.1486
▁খ্যাতি	-10.1489
▁ছোটো	-10.149
▁ফেলার	-10.1497
▁থাম	-10.1499
▁দূত	-10.1499
বাহ	-10.1503
▁গাছের	-10.1505
▁সংগ্রহের	-10.1513
▁বোর্ডের	-10.1516
▁২০০	-10.1516
▁ন্যায়বিচার	-10.1516
▁লোড	-10.1521
▁ব্যবসায়ী	-10.1526
▁লোকটা	-10.1528
▁জলবায়ু	-10.1535
▁একদম	-10.1536
▁দুধ	-10.1539
▁মাত্রা	-10.1539
▁বলবে	-10.154
উদ্দিন	-10.1541
▁বস্ত্র	-10.1542
▁ফাউন্ডেশন	-10.1554
▁পাঠিয়ে	-10.1555
▁পর্যায়ের	-10.1562
▁শাস্ত্রীয়	-10.1562
ক্ষা	-10.1565
ম্যা	-10.1567
▁চ্যালেঞ্জ	-10.1567
▁বিনোদন	-10.1567
▁ছাপ	-10.1568
▁পারতেন	-10.157
▁ক্রিকেটে	-10.1571
▁সদস্যরা	-10.1574
্ত	-10.1574
▁যিশুকে	-10.1574
▁বাচ্চাদের	-10.1591
▁তাহারা	-10.1592
ইল	-10.1592
▁হস্তক্ষেপ	-10.1593
▁কাব্য	-10.1593
ঘা	-10.1594
শান	-10.1594
▁নির্যাতন	-10.1595
▁বাগ	-10.16
ন্য	-10.1605
ব্যা	-10.1606
▁পরিচারক	-10.1612
▁বিপুল	-10.1614
▁পুরষ্কার	-10.1618
▁দাঁড়ায়	-10.162
কন	-10.1622
▁পুনর্	-10.1623
▁থিয়েটার	-10.1626
৫৫	-10.1629
▁সন্ধান	-10.163
৮৪	-10.1631
গ্রহ	-10.1633
▁হৃদয়ে	-10.1634
▁জানানোর	-10.1634
▁শোক	-10.1634
ঝ	-10.164
ইট	-10.1642
▁অ্যালবাম	-10.1646
▁যতক্ষণ	-10.1646
▁কর্পোরেশন	-10.1647
ঘাট	-10.1655
▁অগ্নি	-10.1661
▁মেশিন	-10.1664
▁বেড়া	-10.1664
▁প্রতিযোগিতার	-10.1667
থে	-10.1669
৯৩	-10.167
▁টিকে	-10.167
রোগ	-10.1676
প্রকাশিত	-10.1676
▁স্বার্থ	-10.1683
▁বরাবর	-10.1689
ল্য	-10.1693
▁মেডিকেল	-10.1696
▁প্রজা	-10.1697
▁আকাশ	-10.1697
▁১৯৯৩	-10.1698
প্রিয়	-10.1699
▁থাকায়	-10.17
▁জাদুঘর	-10.1702
র্ট	-10.1705
▁জবাব	-10.1706
▁মতোই	-10.1706
▁সৃষ্টির	-10.171
▁দৈর্ঘ্য	-10.1717
▁পালা	-10.1717
▁সম্	-10.173
▁জনগোষ্ঠীর	-10.1732
▁কোম্পানী	-10.1743
▁আনার	-10.1744
▁ইন্ডিয়ান	-10.1751
ক্ষেত্রে	-10.1751
▁আরবি	-10.1752
▁ভাগ্য	-10.1759
ধু	-10.1759
▁দায়ূদের	-10.1761
ৃত	-10.1761
▁বিনিময়	-10.1764
▁কাঠের	-10.1767
▁নিদর্শন	-10.1769
▁মাঝামাঝি	-10.1774
▁সেটাকে	-10.1777
তলা	-10.1777
▁উষ্ণ	-10.1781
▁শুন	-10.1783
স্প	-10.1784
▁পর্যাপ্ত	-10.1787
▁প্রবল	-10.1788
দাতা	-10.1788
▁পাকিস্তানে	-10.1788
▁লুকিয়ে	-10.1795
▁মানুষদের	-10.1796
▁স্টার	-10.1814
▁যাত্রী	-10.1815
▁বিরত	-10.1816
▁গ্যা	-10.1817
▁ইন্টার	-10.1819
▁প্রাসাদ	-10.182
▁অভিনয়ের	-10.182
▁স্বামীর	-10.182
▁মাইকেল	-10.1821
হর	-10.1821
▁মুখ্য	-10.1822
▁সোফি	-10.1824
▁৫৪	-10.1826
▁উপাধি	-10.1827
▁ছেলেমেয়েদের	-10.1827
▁মুসলমানদের	-10.1829
▁অন্যের	-10.1839
▁অপূর্ব	-10.1843
▁মালিকানা	-10.1847
▁শহরটি	-10.1851
▁তীম	-10.1857
▁টেনে	-10.1858
▁এসো	-10.1859
সেল	-10.1864
▁জমির	-10.187
▁সার্টিফিকেট	-10.1872
জ্জ	-10.1873
▁স্বর্ণ	-10.1874
▁পাচ্ছি	-10.1876
ক্কা	-10.1878
▁স্বর্গ	-10.1878
▁অজানা	-10.1881
ত্তা	-10.1884
▁যথার্থ	-10.1886
▁গায়ে	-10.1888
▁সম্পর্কের	-10.1889
▁১৯৯৪	-10.1889
লান	-10.1889
▁সম্পর্কযুক্ত	-10.1892
▁অল	-10.1893
▁প্রথমবারের	-10.1893
▁আঁকা	-10.1893
▁সেগুলি	-10.19
▁১৯৮২	-10.1902
▁পেট	-10.1903
▁রাতের	-10.1905
▁মশীহ	-10.1905
▁ব্যবসায়	-10.1906
রিন	-10.1907
▁প্রতিটা	-10.1909
জল	-10.191
▁গণিত	-10.1912
▁এজেন্ট	-10.1914
▁প্লিজ	-10.1919
▁বৃষ্টি	-10.1922
সাই	-10.1922
▁হতাশা	-10.1922
৭২	-10.193
▁ঘোড়া	-10.1931
▁বিদেশি	-10.1932
▁মুক্তিযুদ্ধের	-10.1933
পন্থী	-10.1936
▁পরিবেশন	-10.194
▁চাইলে	-10.1941
▁শিক্ষার্থী	-10.1945
▁জানুয়ারী	-10.1952
▁ভক্তি	-10.1954
▁দৃষ্টিতে	-10.196
পূ	-10.1962
▁প্রবাহিত	-10.1972
▁ভবিষ্যতের	-10.1972
৮৭	-10.1973
▁চাঁদ	-10.1974
▁বাস্তবতা	-10.198
▁জেগে	-10.1988
▁বাস্তবায়ন	-10.1988
▁বোঝার	-10.1989
▁বেঙ্গল	-10.1993
▁বসু	-10.2007
▁ভূমিকম্প	-10.2007
▁আয়ের	-10.2019
▁কথায়	-10.2022
▁সমাবেশ	-10.2025
▁আরেক	-10.2028
▁মিত্র	-10.203
▁অনুলিপি	-10.2033
▁ধার্মিক	-10.2033
▁রহস্য	-10.2037
ক্ষেত্র	-10.205
▁যথাযথ	-10.2054
▁আটকে	-10.2058
৫৬	-10.2059
▁পেন	-10.206
▁ইস্রায়েলীয়দের	-10.2064
শিল্প	-10.2065
▁সম্পাদনা	-10.2066
▁এমনটা	-10.2068
ফো	-10.2084
বছর	-10.2086
▁কণ্ঠ	-10.2086
কার্য	-10.2089
▁চলাচল	-10.2093
▁গঙ্গা	-10.2095
▁দেরি	-10.2101
▁সিল	-10.2107
ওয়াল	-10.2107
▁মনো	-10.2107
▁মঞ্চ	-10.2108
▁চর্চা	-10.2111
▁মাটির	-10.2112
▁সৌন্দর্য	-10.2119
▁পেশ	-10.2122
▁খেয়াল	-10.2127
▁কোর্ট	-10.2139
ক্র	-10.214
▁মুহূর্তে	-10.2141
বর্তী	-10.2142
▁বিদেশে	-10.2143
▁সর্বোত্তম	-10.2146
উদ্দীন	-10.2146
▁হচ্ছেন	-10.2148
মূল	-10.2154
দিয়া	-10.2156
ভী	-10.216
▁থাকবেন	-10.2163
▁বীর	-10.2165
শাস্ত্র	-10.2167
▁কার্য্য	-10.2171
তল	-10.2172
▁রেখা	-10.2174
▁সংস্কৃত	-10.2176
▁বিদায়	-10.2177
▁শতক	-10.2177
▁ব্যাক	-10.2181
▁জাল	-10.2188
াবলী	-10.2189
কারীরা	-10.2196
▁চ্যাম্পিয়নশিপ	-10.2201
▁ডিগ্রী	-10.2202
▁ওদের	-10.2207
৫৯	-10.221
৭৭	-10.2214
▁উদ্বেগ	-10.2214
▁বিশ্বে	-10.2216
▁তেমনি	-10.2216
▁যাবেন	-10.2217
▁আইনজীবী	-10.2217
৪৯	-10.2221
▁অপরাধের	-10.2225
▁সৈনিক	-10.2228
ার্থ	-10.2228
▁নু	-10.2229
▁ভাবতে	-10.2236
▁সমাধি	-10.2236
▁আফগানিস্তানের	-10.2238
▁চির	-10.2239
▁সম্প্রচার	-10.2243
▁থাকো	-10.225
▁সেল	-10.2251
▁ট্রে	-10.2252
▁পাগল	-10.2253
▁ফির	-10.2253
▁বিন্দু	-10.2257
▁অধি	-10.2259
▁ফো	-10.226
▁পরিবারকে	-10.226
▁ধর	-10.2261
স্কি	-10.2261
▁উত্তেজনা	-10.2269
বিরোধী	-10.2271
▁তাপমাত্রা	-10.2276
▁রাশিয়া	-10.2279
▁মারাত্মক	-10.2281
▁কোষ	-10.2284
▁অস্ট্রেলিয়ার	-10.2287
এসসি	-10.2293
▁দর	-10.2295
িউ	-10.2296
ীকৃত	-10.2297
▁রাস্তার	-10.2298
▁সাপ্তাহিক	-10.2301
৬৮	-10.2302
৭৮	-10.2303
▁কোরিয়া	-10.2304
তিনি	-10.2304
▁১৯৭৭	-10.2308
▁অতিথি	-10.2311
▁সদাপ্রভুর	-10.2313
▁উপকৃত	-10.2318
▁আধা	-10.232
▁বিলিয়ন	-10.2322
রোধ	-10.2324
গ্	-10.2325
৮৯	-10.2326
ধর	-10.2327
▁খেলেন	-10.2329
০৩	-10.2331
েক্ট	-10.2332
▁একসময়	-10.2333
▁গ্রামীণ	-10.2338
কায়	-10.2338
▁ফ্রান্স	-10.234
করণের	-10.2342
▁তিনজন	-10.2346
▁এমনভাবে	-10.2355
▁ফেডারেশন	-10.2359
▁খণ্ড	-10.2365
▁কারণেই	-10.2368
▁কর্মীদের	-10.2374
▁সঠিকভাবে	-10.2377
তোমার	-10.2378
▁রোজ	-10.2384
▁১৯৮৯	-10.2385
৫৪	-10.2385
▁ফেলেছে	-10.2392
▁বঙ্গ	-10.2396
৭৪	-10.2398
গ্রহণ	-10.24
▁শতকরা	-10.2401
াবাদ	-10.2404
▁আব্দুল	-10.2408
▁গলা	-10.2408
িদ	-10.2411
▁১৯৭৫	-10.2411
যিশাইয়	-10.2412
▁শব্দের	-10.2412
ণা	-10.2414
▁আদালতের	-10.2415
▁কক্ষ	-10.2417
▁কমিশনার	-10.2418
শিক্ষা	-10.2425
▁আত্মিক	-10.2431
▁সিরিয়ার	-10.2434
সির	-10.2434
ডু	-10.2437
▁প্রি	-10.2438
▁গেম	-10.2439
▁পুরস্কারের	-10.2444
▁পড়েছিল	-10.2447
▁দূতাবাস	-10.2448
▁কোচ	-10.2448
▁আবদ্ধ	-10.2448
▁পদ্ধতির	-10.245
জ্ঞান	-10.2454
▁ভয়াবহ	-10.2456
টায়	-10.2457
াহ	-10.2459
▁ঘা	-10.2469
▁পর্ব	-10.247
▁হালকা	-10.2471
▁বৃক্ষ	-10.2472
▁বিশ্বযুদ্ধের	-10.2472
▁বিশ্রাম	-10.2473
৯৪	-10.2475
▁প্রয়োজনীয়তা	-10.2476
▁দিবে	-10.2477
▁বিশুদ্ধ	-10.2479
মেইল	-10.2481
▁পাকিস্তানি	-10.2483
▁..	-10.2484
৬৪	-10.2485
হাম	-10.2495
▁তাড়না	-10.2499
▁মোশির	-10.2501
▁একত্রে	-10.2502
▁উপযোগী	-10.2505
▁প্রত্যক্ষ	-10.251
▁পর্বত	-10.2513
▁আবহাওয়া	-10.2514
▁নিজেদেরকে	-10.2525
▁মেহ	-10.2526
▁যন্ত্রণা	-10.2527
৬৯	-10.2527
▁ইউরোপের	-10.2532
▁ন্যা	-10.2534
ার্ড	-10.2542
▁ব্যবস্থায়	-10.2544
▁ডিম	-10.2547
▁সফর	-10.2548
▁উদ্বিগ্ন	-10.2551
▁সন্তুষ্ট	-10.2563
▁কিনে	-10.257
▁ক্রিয়া	-10.2571
▁শেখা	-10.2576
▁সংসদের	-10.2577
▁রাসায়নিক	-10.2581
পুরুষ	-10.2584
▁শাস্ত্রপদ	-10.2585
▁সীমাবদ্ধ	-10.2586
▁করিও	-10.2587
৫৩	-10.2594
পূর্বক	-10.2595
৯৯	-10.2599
▁৩০০	-10.2608
▁নিউজিল্যান্ড	-10.2611
লিং	-10.2612
▁১৯৮৪	-10.2617
▁কালে	-10.2618
▁খেল	-10.2619
▁১৯৬২	-10.2625
▁চিকিৎসক	-10.2627
▁ফ্যা	-10.263
▁স্টেডিয়াম	-10.2634
▁গেছেন	-10.2635
▁প্রজাতন্ত্র	-10.2636
▁১৯৮৭	-10.2638
▁পয়েন্ট	-10.264
▁করবার	-10.2643
▁সাহসী	-10.2651
▁১৯৮৩	-10.2651
▁সুরক্ষিত	-10.2654
▁বৈষম্য	-10.2656
য়াত	-10.2657
▁নম্র	-10.2657
▁বসতি	-10.266
▁সম্বন্ধীয়	-10.2661
তেও	-10.2667
▁গ্রহ	-10.267
▁আচার	-10.2674
▁প্রতিফলিত	-10.2675
▁আনুষ্ঠানিক	-10.2676
বের	-10.2679
▁চর	-10.2681
▁আখ	-10.2683
▁চিনি	-10.2684
▁আইসিসি	-10.2684
▁খু	-10.2687
▁ফেরত	-10.2688
▁সৌজন্যে	-10.2695
▁পোর্ট	-10.2696
▁অপরের	-10.27
ব্রা	-10.2703
▁তীরে	-10.2707
▁এখানকার	-10.2708
আল	-10.271
▁গায়ক	-10.2712
ীরা	-10.2716
▁মেট্রো	-10.272
▁সম্প্রসারণ	-10.2725
▁পাঠক	-10.2725
▁স্প্যানিশ	-10.2731
▁নওয়াব	-10.2733
০২	-10.2733
▁দোষী	-10.2734
▁হতাশ	-10.2735
▁প্রসারিত	-10.2745
▁শূন্য	-10.2746
▁এনজিও	-10.2747
▁থাকুন	-10.275
▁নির্বাচনী	-10.2755
ুস	-10.2759
্তি	-10.276
▁বিজ্ঞ	-10.2762
▁জোট	-10.2763
কট	-10.2767
▁এইভাবে	-10.2772
▁দাসদের	-10.2773
▁রাজকীয়	-10.2776
▁কর্মরত	-10.2786
▁বিনিময়ে	-10.2788
ভাল	-10.2795
▁অগ্রগামীর	-10.2796
▁বার্	-10.2796
▁ভৌগোলিক	-10.2797
▁কম্প	-10.2802
▁ঢ	-10.2802
▁নেতাদের	-10.2802
▁ফেল	-10.2803
▁আদায়	-10.2803
▁ভাইরাস	-10.2809
▁শিল্পের	-10.281
▁কেন্দ্রীভূত	-10.2821
▁ডাল	-10.2825
▁এশিয়ান	-10.2826
▁গিয়েছিলাম	-10.2828
▁নাম্বার	-10.2831
▁বিষ	-10.2833
▁অংশের	-10.2836
▁নৌ	-10.2838
ভয়	-10.284
▁সংকট	-10.284
িয়াস	-10.2847
৬৭	-10.2847
ঘর	-10.285
শ্রেণীর	-10.2853
▁ক্রোধ	-10.2856
▁নিয়েছেন	-10.2857
৭৩	-10.286
▁খন্ড	-10.286
▁যথাক্রমে	-10.2863
৮৫	-10.2864
যাত্রা	-10.2865
▁নাইট	-10.2867
▁এতো	-10.2873
▁সম্পূর্ণরূপে	-10.2875
▁সেটাই	-10.2876
▁যোষেফ	-10.2877
▁মোশি	-10.2882
▁অডিও	-10.2885
▁করুণা	-10.2889
ঠা	-10.289
বুদ্ধি	-10.2891
▁সশস্ত্র	-10.2892
▁পুরাতন	-10.2892
▁দিকের	-10.2893
প্রধান	-10.2899
▁পুরোনো	-10.2905
▁লাগিয়ে	-10.2909
▁উদ্ভাবন	-10.2914
▁হাঁস	-10.2916
দিগকে	-10.2921
▁যন্ত্রপাতি	-10.2921
▁গ্রীক	-10.2922
▁হাউস	-10.2926
▁প্রণীত	-10.2928
▁লাগছে	-10.293
▁গর্ব	-10.2932
▁সর	-10.2936
▁ডিজাইন	-10.294
▁সেগুলোকে	-10.2942
▁একদল	-10.2948
▁মাহমুদ	-10.2958
▁ঘিরে	-10.2958
▁পঞ্চম	-10.2963
▁টেক্সট	-10.2963
▁পার্বত্য	-10.2965
▁ভিয়েতনাম	-10.2965
ালি	-10.297
▁১৯৮৮	-10.297
বর্ষ	-10.297
▁করতো	-10.2971
▁নিম্নলিখিত	-10.2973
রকম	-10.2974
সেই	-10.2976
জেন	-10.2988
ভাগে	-10.2992
▁গুগল	-10.3003
▁খনন	-10.301
▁শিলা	-10.301
▁গ্রহণযোগ্য	-10.3011
▁পালক	-10.3015
▁ডাকা	-10.3023
▁উদ্ধৃতি	-10.303
▁রূপান্তরিত	-10.3031
▁পরিবহণ	-10.3032
▁সমা	-10.3032
▁দিচ্ছি	-10.3039
৫২	-10.3041
ফর	-10.3043
▁কৃত	-10.3044
▁মস্তক	-10.3047
কালের	-10.3048
৮৩	-10.3048
াধীন	-10.3051
▁ইংল্যান্ডের	-10.3058
েক	-10.3063
▁আরেকজন	-10.3064
▁স্বর	-10.3068
▁প্রত্যাহার	-10.3069
▁অলৌকিক	-10.3075
▁ওয়াচ	-10.3081
কিউ	-10.3085
গ্র	-10.3087
বিল	-10.3088
▁বাবামা	-10.3089
▁হ্যালো	-10.3091
▁ম্যাগাজিন	-10.3091
▁সমীক্ষা	-10.3091
দেব	-10.3092
▁আল্লাহর	-10.3092
▁মেজর	-10.3092
▁চৌ	-10.3096
কুমার	-10.3102
▁ইফিষীয়	-10.3103
▁যিহুদি	-10.3105
▁আনুগত্য	-10.3106
▁কুকুর	-10.3107
▁কমিউনিটি	-10.3109
▁ফিলিপ	-10.3111
ধর্মী	-10.3111
▁উদার	-10.3112
▁অস্থায়ী	-10.3116
▁বিরক্ত	-10.3117
যেমন	-10.3125
▁পশ্চিমবঙ্গের	-10.3126
য়ী	-10.3128
▁বাগান	-10.3133
ট্রা	-10.3135
▁স্টে	-10.3137
▁তত	-10.3139
▁চার্লস	-10.3141
▁সহজে	-10.3144
▁লিখেছে	-10.3145
▁ভিডিওটি	-10.3152
▁সরকারকে	-10.3152
▁পৃষ্ঠায়	-10.3156
▁লাগানো	-10.3159
স্ট্র	-10.316
▁মধ্যবর্তী	-10.3161
▁বীমা	-10.3165
▁উঠ	-10.317
▁গণতান্ত্রিক	-10.3174
▁দূরত্ব	-10.3174
▁ব্য	-10.3175
▁সত্যিকারের	-10.3177
৬৩	-10.318
োদ	-10.3182
▁আগামী	-10.3186
ভাবেই	-10.3189
▁প্রশান্ত	-10.3192
স্টি	-10.3194
▁ওপরে	-10.3194
▁টাইমস	-10.3197
▁১৯৬৯	-10.3197
▁নেট	-10.3199
য়াং	-10.32
মার্ক	-10.3201
▁প্রসার	-10.3202
▁উন্নীত	-10.3203
▁নেতিবাচক	-10.3203
▁সৃষ্টিকর্তা	-10.3204
▁রূপে	-10.3211
▁চো	-10.3211
▁দেবতা	-10.3215
▁রাজ্যে	-10.3216
জিন	-10.3217
▁প্লা	-10.3218
ক্সি	-10.322
▁তথ্যের	-10.3221
ভাষী	-10.3222
▁আমরাও	-10.3228
▁(;	-10.3229
▁বৈদেশিক	-10.3233
্টি	-10.3234
▁বেগম	-10.3245
▁অপশন	-10.3246
▁ছুটি	-10.3249
▁হ্রদ	-10.3249
▁বিচারের	-10.3252
▁গ্রন্থাগার	-10.3257
▁লেখেন	-10.3257
৮৬	-10.3262
৬২	-10.3263
▁হিন্দি	-10.3265
মাল	-10.3266
▁জাপানি	-10.3268
▁ভূমিকায়	-10.3272
▁পদত্যাগ	-10.3273
▁নোহ	-10.3276
▁দেখাশোনা	-10.3287
▁শ্রোতাদের	-10.3296
জনিত	-10.3296
▁টাকার	-10.3298
▁১৯৮৬	-10.3302
▁উৎপত্তি	-10.3302
▁বলেছি	-10.3304
▁গবেষণার	-10.3309
প্রেম	-10.3311
▁আকারের	-10.3311
এটা	-10.3312
▁ডেকে	-10.3314
▁করছ	-10.3317
▁আফ্রিকান	-10.3321
▁গম	-10.3323
▁মেয়ের	-10.3324
▁ইন্দোনেশিয়া	-10.3324
গল	-10.3328
▁দেখেছিলেন	-10.3329
▁উনিশ	-10.333
▁রাখবেন	-10.3332
▁পুনরুদ্ধার	-10.334
▁গঠনের	-10.3342
▁পাচ্ছে	-10.3343
▁ক্ষয়	-10.3348
▁ভাস্কর্য	-10.3349
▁নিয়ন্ত্রিত	-10.3349
ভিন	-10.3353
কথা	-10.3357
▁দিত	-10.3357
▁পুকুর	-10.3362
▁ক্যালেন্ডার	-10.3363
▁ভেতর	-10.3366
গর	-10.3367
▁গির্জার	-10.3369
▁পার্থিব	-10.337
▁আমলে	-10.3373
মালা	-10.338
▁ঘটা	-10.3381
▁সমন্বয়ে	-10.3384
▁ব্যাংকের	-10.3386
▁তারকা	-10.3388
ফোর্ড	-10.3388
▁জাতীয়তাবাদী	-10.3391
▁শিরোনামের	-10.3392
▁সংকেত	-10.3395
▁অপরাধী	-10.3396
▁মূল্যায়ন	-10.3396
▁কেন্দ্রে	-10.3397
সকল	-10.3398
▁ডিফল্ট	-10.3401
▁যাইহোক	-10.3401
য়েট	-10.3403
▁পড়বে	-10.3403
ানি	-10.3405
▁নাট্য	-10.3407
্ট	-10.3408
▁করিব	-10.3409
কাজ	-10.3416
▁উপদেষ্টা	-10.3416
▁খনি	-10.3417
▁খাবারের	-10.3418
▁আশ্বাস	-10.3426
▁অভিব্যক্তি	-10.3431
▁রাজত্ব	-10.3435
▁দর্শক	-10.3437
▁সন্ধ্যা	-10.3441
▁আধ্যাত্মিকভাবে	-10.3442
▁নির্মাতা	-10.3448
৫৭	-10.3448
তারা	-10.3451
▁হয়েছি	-10.3456
▁মৃত্যুবরণ	-10.3456
▁অত্যাচার	-10.3463
▁টাইপ	-10.3472
▁ঠ	-10.3473
▁প্রাচীনদের	-10.3474
▁ভারসাম্য	-10.3476
▁পরীক্ষায়	-10.3479
▁গ্রা	-10.3479
▁দিয়েছি	-10.3488
▁শান্তিপূর্ণ	-10.3488
▁নির্ণয়	-10.3491
▁বৃহত্তর	-10.3494
▁কাউন্টি	-10.3494
▁মিনিটের	-10.3497
র্দ	-10.3498
সিসি	-10.35
▁১৯৭৩	-10.3501
▁আত্মীয়	-10.3503
▁কর্মকর্তাদের	-10.3508
▁বিদ্যা	-10.3508
কিন্তু	-10.3508
▁দুর্নীতি	-10.3514
▁বেসামরিক	-10.3518
▁জয়লাভ	-10.3519
▁ফেলবে	-10.3521
▁জাতিসংঘ	-10.3524
▁বরাদ্দ	-10.3525
তঃ	-10.3526
ওয়ান	-10.3531
▁পতন	-10.3532
▁ইহুদি	-10.3533
প্যা	-10.3541
▁বিশ্বাসী	-10.3542
▁১৯৭৪	-10.3546
▁দত্ত	-10.3548
ানা	-10.3552
▁বন্দুক	-10.3556
▁এড	-10.3559
ল্লি	-10.3564
▁ভাইয়ের	-10.3565
প্রাণ	-10.3568
▁গল	-10.3571
▁খেলে	-10.3574
৯৮	-10.3575
▁বরফ	-10.3576
▁বিষয়গুলোর	-10.3577
▁ইজরায়েল	-10.3578
▁৭৫	-10.3578
▁অবশিষ্ট	-10.3579
ডিয়া	-10.3583
৭৬	-10.3587
ন্ডি	-10.3588
▁সাগর	-10.3588
৫১	-10.3595
▁ঐতিহ্যবাহী	-10.3595
▁তথা	-10.3596
▁মসজিদের	-10.3597
▁থাকলেও	-10.3598
▁প্রচারিত	-10.36
▁ট্রান্স	-10.3604
▁ওঠার	-10.3613
▁শোনার	-10.3616
▁ছা	-10.3616
▁চক্র	-10.3616
▁সকলেই	-10.3617
লায়	-10.3618
▁হামলার	-10.362
ধারী	-10.3626
▁জন্যই	-10.3626
▁জেল	-10.3626
▁প্রতারণা	-10.3626
▁আমিও	-10.3627
বিশ্বাস	-10.3629
৯৭	-10.3633
পথে	-10.3634
▁জোড়া	-10.3646
▁চেয়েছিল	-10.3651
৫০০	-10.3652
▁বন্ধুদের	-10.3653
▁শ্বাস	-10.3668
▁প্লে	-10.3671
▁ছায়া	-10.3671
▁রেলপথ	-10.3672
চ্যুত	-10.3675
▁যুব	-10.3682
▁বিজ্ঞানী	-10.369
▁বিগত	-10.3693
৯৫	-10.3699
রেন	-10.3704
▁প্রিমিয়ার	-10.3705
▁সাধারণভাবে	-10.3708
▁শিক্ষিত	-10.3708
▁কেন্দ্রের	-10.3717
বতী	-10.372
▁একেবারেই	-10.3722
প্ট	-10.3726
▁পরমদেশ	-10.3732
ফ্	-10.3736
্যান্ট	-10.3737
▁পাথরের	-10.3737
মাই	-10.3738
▁সমতল	-10.3746
▁জোরে	-10.3751
▁ট্র্যাক্ট	-10.3754
▁এসেছেন	-10.3755
▁শপথ	-10.3756
▁পাঞ্জাব	-10.3758
▁পেলে	-10.3762
▁১৯৮৫	-10.3762
▁খুলনা	-10.3762
▁সারি	-10.3763
▁মিছিল	-10.3764
▁বাজে	-10.3766
''	-10.3767
▁দিল্লি	-10.377
খে	-10.3771
▁করেই	-10.3771
▁কৃতজ্ঞতা	-10.3774
▁ব্রোশার	-10.3777
▁করলেও	-10.3779
▁স্ট্র	-10.3783
▁১৯৬৭	-10.3792
পট	-10.3793
▁রান্না	-10.3793
▁দলকে	-10.3798
▁ভূষিত	-10.3801
াবলি	-10.3805
এবং	-10.3808
▁কার্যক্রমের	-10.3808
▁নজরুল	-10.3811
চ্ছি	-10.3817
▁রাশিয়ান	-10.3819
ধার	-10.3821
স্তি	-10.3822
▁আলু	-10.3824
▁৫০০	-10.3824
▁কমিউনিস্ট	-10.3825
▁দ্বন্দ্ব	-10.3828
▁আকর্ষণীয়	-10.3835
▁মিলিয়ে	-10.3836
▁ক্রম	-10.3836
▁ইউরোপে	-10.3841
▁হংকং	-10.3843
▁খাওয়ার	-10.3844
▁ব্যাগ	-10.3848
টী	-10.3849
বেল	-10.3852
▁কেউই	-10.3852
▁উত্	-10.3854
শত	-10.3857
▁বিরোধ	-10.3858
▁আলম	-10.3858
▁বইয়ে	-10.3862
▁পরস্পর	-10.3863
মূল্য	-10.3863
▁স্থানান্তরিত	-10.3864
▁আর্	-10.3864
▁গবেষক	-10.3869
▁দেখছি	-10.387
কারি	-10.3876
▁প্রারম্ভিক	-10.3883
▁ঝড়	-10.3885
ভাই	-10.3885
▁কুল	-10.3886
▁নিঃসন্দেহে	-10.3889
বলি	-10.389
▁স্মরণার্থ	-10.3891
▁জনপ্রিয়তা	-10.3892
▁হাতের	-10.3894
লিস	-10.3894
▁হোমস	-10.3895
▁স্বীকৃত	-10.3898
▁থাকুক	-10.39
বির	-10.3911
▁প্রাপ্তবয়স্ক	-10.3914
▁মল	-10.3923
লির	-10.3926
▁রাই	-10.3928
▁গ্রাহক	-10.3934
▁নিই	-10.3939
▁বিষয়গুলি	-10.394
▁বস্তুগত	-10.3942
▁তোমাদিগকে	-10.3946
▁এক্ষেত্রে	-10.3948
▁নিশ্চয়	-10.3948
গুণ	-10.3952
▁এজন্য	-10.3955
সেট	-10.3963
▁গন্ধ	-10.3965
▁উদ	-10.3968
▁বানানো	-10.3969
▁অ্যাসোসিয়েশন	-10.397
▁জিয়া	-10.3971
▁রোম	-10.3975
৮১	-10.398
▁কর্মসূচির	-10.3985
▁নিষ্ক্রিয়	-10.3987
▁পূজা	-10.3988
▁কমান্ডার	-10.3994
কিং	-10.4002
▁ধর্মঘট	-10.4003
▁দারুণ	-10.4003
▁সেবায়	-10.4004
৯১	-10.4006
▁বিধবা	-10.4011
▁এগুলোর	-10.4012
ভু	-10.4017
▁কর্	-10.4018
▁প্রার্থনার	-10.4021
▁পশ্চিমা	-10.4022
ইস	-10.4024
▁আউট	-10.4024
▁ঘটতে	-10.4026
▁ধারনা	-10.4026
▁ট্রি	-10.4027
▁শুনি	-10.4028
▁ক্লাস	-10.4029
▁বিপ্লবের	-10.4042
ওয়ালা	-10.4043
▁দিলেন	-10.405
▁কারাদণ্ড	-10.4052
▁লক্ষণ	-10.4055
▁উইল	-10.4057
▁পরা	-10.406
▁সংজ্ঞা	-10.4062
▁নীতির	-10.4067
▁ব্ল্যাক	-10.4068
আপনি	-10.407
▁উত্তরাধিকার	-10.4075
▁ভারী	-10.408
▁নামেও	-10.4081
▁ইঞ্জিন	-10.4083
▁গোয়েন্দা	-10.4085
▁জরুরী	-10.4085
▁ইসলামিক	-10.4085
মস	-10.4088
▁মধ্যকার	-10.4091
▁রেখেছিলেন	-10.4093
জাতি	-10.4094
▁ঘটবে	-10.4095
সময়	-10.4096
▁সদস্যের	-10.4106
দ্দ	-10.411
▁চাওয়া	-10.4114
▁শরীরের	-10.4116
▁লগ	-10.4119
▁সামনের	-10.4121
▁বেলা	-10.4125
▁আন্দোলনে	-10.4125
▁পারা	-10.4126
▁গম্বুজ	-10.4129
৭১	-10.4131
বৃত্ত	-10.4133
▁সাক্ষীদের	-10.4136
ট্র	-10.4137
ন্দ্র	-10.414
▁পর্য্যন্ত	-10.4142
▁ইল	-10.4147
▁ফ্রান্সের	-10.4148
▁পত্রিকায়	-10.4154
সাধন	-10.4155
▁ব্লগের	-10.4158
▁স্বয়ং	-10.4159
▁সংক্ষেপে	-10.4159
▁ইয়েমেন	-10.4162
▁নোবেল	-10.4168
িফ	-10.4169
▁আগমন	-10.4172
▁সম্মেলনের	-10.4181
▁কাতার	-10.4183
▁বংশের	-10.4185
▁কাজটি	-10.4189
য়ন	-10.419
▁দণ্ড	-10.4191
▁এখানেই	-10.4192
▁প্রবর্তন	-10.4193
▁মেঘ	-10.4194
েশ্বর	-10.4195
▁পরম	-10.4197
▁উঠা	-10.4202
▁অদৃশ্য	-10.4203
▁পুরুষের	-10.4204
▁মারিয়া	-10.4204
আপনার	-10.4205
▁অগ্র	-10.4211
শার	-10.4211
▁উৎ	-10.4213
▁মেষ	-10.4218
▁বেলায়	-10.4219
▁বক্স	-10.4219
▁সমষ্টি	-10.422
▁বিচারপতি	-10.422
▁ইউটিউব	-10.4224
▁করিবার	-10.4225
কাম	-10.4233
▁৫৬	-10.4233
▁পর্যটন	-10.4234
▁তুর্কি	-10.4234
▁উদ্যাপন	-10.4234
▁অর্ডার	-10.4234
▁দাগ	-10.4236
৮৮	-10.4236
▁ওয়াই	-10.4238
দায়ক	-10.4239
▁ক্লিক	-10.4241
▁নম্রতা	-10.4241
▁চিন্তাধারা	-10.4243
৬১	-10.4243
▁গোষ্ঠীর	-10.4244
▁জলের	-10.4246
▁শ্রমিকদের	-10.4247
▁১৯৭৯	-10.4254
▁মালয়েশিয়া	-10.4255
▁জন্মগ্রহণকারী	-10.4257
সত্য	-10.4261
▁১৯৩০	-10.4262
▁স্তম্ভ	-10.4264
▁হরি	-10.4265
৯৬	-10.4273
▁বলিয়া	-10.4273
▁সেট	-10.428
▁উপজেলায়	-10.4281
শ্র	-10.4292
▁ত্রাণ	-10.4293
▁টান	-10.43
▁মোড়	-10.4305
▁লেগে	-10.4308
▁বিদ্রোহী	-10.4308
িব	-10.431
▁সুনির্দিষ্ট	-10.4318
▁আনুমানিক	-10.4325
▁আত্মহত্যা	-10.4327
▁দেয়াল	-10.4327
▁সবসময়ই	-10.4332
▁অল্পবয়সি	-10.4335
▁আসন্ন	-10.4337
ফু	-10.4341
ঢ়	-10.4342
▁কয়লা	-10.4343
▁শ্রেণি	-10.4346
র্ম	-10.4347
উড	-10.4358
▁নেয়ার	-10.4362
▁জানালা	-10.4362
ান্তর	-10.4364
সিস	-10.4365
▁নিশ্চয়তা	-10.4369
িয়াম	-10.437
পের	-10.437
বাজ	-10.4371
▁বারো	-10.4376
টিভি	-10.4379
▁১৯১৪	-10.438
▁সন্ত্রাসী	-10.4385
▁মুক্তিযোদ্ধা	-10.4385
▁মহাসড়ক	-10.4385
াপ	-10.4386
▁যাচাই	-10.4386
▁হাম	-10.4389
▁এইরূপ	-10.439
গাঁও	-10.4392
▁স্থগিত	-10.4394
▁অনুধাবন	-10.4394
ব্যক্তি	-10.4394
জিত	-10.4395
তুল	-10.4395
▁গণতন্ত্র	-10.4397
ক্রিয়া	-10.4398
▁প্রদর্শনের	-10.4404
৯২	-10.4407
▁গ্রে	-10.441
▁যতটা	-10.441
▁সাপেক্ষে	-10.4411
বন্ধ	-10.4411
▁কর্তব্য	-10.4412
▁উপকরণ	-10.4414
▁পোষণ	-10.4414
ভিল	-10.4415
ম্বা	-10.4417
্যাট	-10.442
▁হেনরি	-10.4422
▁লিখ	-10.4428
▁নীতিগুলো	-10.4428
▁দেখাই	-10.4428
লিপি	-10.4432
▁যেটার	-10.4435
র্ধ্ব	-10.4436
▁ঘু	-10.4438
পরায়ণ	-10.4444
▁কমিয়ে	-10.4444
▁তুল	-10.4445
ষ্	-10.4445
নাল	-10.4446
▁প্রদর্শনী	-10.4446
▁প্রাচীর	-10.4449
▁সোসাইটির	-10.4449
▁রাজাবলি	-10.4449
▁বিস্ফোরণ	-10.4453
▁মুর	-10.4453
▁ইয়ে	-10.4457
▁পাব	-10.4458
▁রোধ	-10.4464
▁আশ্চর্য	-10.4465
▁বলেছিলাম	-10.4469
▁সাপ	-10.4471
▁পানীয়	-10.4473
▁সিভিল	-10.4474
▁জানতাম	-10.4481
▁দুর্বলতা	-10.4487
▁দৌড়	-10.4487
ল্প	-10.4488
▁সুপরিচিত	-10.4488
▁১৯৪৮	-10.4489
▁কার্যকারী	-10.449
যুদ্ধ	-10.4491
▁ডাই	-10.4492
▁পূ	-10.4494
ট্রি	-10.4498
▁অবধি	-10.4501
▁লিগ	-10.4506
▁অর্	-10.4507
▁প্রফেসর	-10.4513
▁মাঠে	-10.4514
অব	-10.4515
▁মিষ্টি	-10.4515
▁ওয়াশিংটন	-10.4522
▁গুণাবলি	-10.4523
▁কলাম	-10.4525
▁প্রাধান্য	-10.4531
▁ঘোষ	-10.4536
যুগ	-10.4538
▁অপব্যবহার	-10.454
▁প্রকৃতির	-10.454
▁শ্রেণির	-10.4543
▁মজার	-10.4543
কর্তা	-10.4545
▁চলবে	-10.4546
▁ওয়ার	-10.4549
স্থল	-10.4552
▁ধর্ষণ	-10.4556
বিন	-10.4556
▁ডাটা	-10.4557
▁কাজকর্ম	-10.4557
াইড	-10.4563
▁বিনা	-10.4569
ঘাত	-10.4571
তাকে	-10.4572
তান্ত্রিক	-10.4572
▁অস্বাভাবিক	-10.4575
▁অপমান	-10.4575
▁পন্ডিত	-10.4582
▁গেট	-10.4583
▁সিপিআই	-10.4583
বৃন্দ	-10.4583
▁আওয়াজ	-10.4584
ভেদ	-10.4586
▁বদ	-10.4589
▁১৯৬৫	-10.4589
স্তর	-10.4596
▁গাড়ির	-10.4596
▁ইতিমধ্যে	-10.4597
▁চেতনা	-10.4599
মানের	-10.4599
ভিয়া	-10.4603
▁চিন	-10.4603
মিটার	-10.4604
▁৫৭	-10.4605
▁১৯৭৬	-10.4607
▁স্বাদ	-10.4612
▁ফর্ম	-10.4614
▁ডিরেক্টরি	-10.4616
▁লিখুন	-10.4618
নান	-10.4619
▁ব্যক্ত	-10.4619
▁হ্যারি	-10.4625
▁হাজির	-10.4627
▁বিদ্যালয়ে	-10.4628
▁নিক্ষেপ	-10.4632
▁অনূর্ধ্ব	-10.4634
▁মাথার	-10.4635
▁ক্লান্ত	-10.4639
▁পর্যালোচনা	-10.4643
▁জৈব	-10.4647
▁রক্ষার	-10.4649
▁ন্যায্য	-10.4652
চিত	-10.4653
▁মানের	-10.4654
▁শলোমন	-10.4657
▁হইল	-10.4659
▁সামুদ্রিক	-10.466
▁কোরিয়ার	-10.4662
ক্তি	-10.4663
চক	-10.4667
▁হর	-10.4669
▁এলিয়	-10.4669
লাস	-10.4669
▁কৃতিত্ব	-10.4678
▁জার্নাল	-10.4678
▁অসম	-10.468
▁সর্ব্ব	-10.4682
▁ম্যানেজার	-10.4687
▁শ্র	-10.4693
্রু	-10.4693
▁চারপাশে	-10.4693
▁বিশ্বযুদ্ধ	-10.4694
▁যিহূদী	-10.4696
▁অব্রাহাম	-10.4701
সিক	-10.4701
▁গিল	-10.4706
▁বেতার	-10.4707
▁ভয়ে	-10.4709
▁নির্ভরযোগ্য	-10.4709
▁মিশ্র	-10.4711
▁খিলান	-10.4716
শালী	-10.4716
▁ইরাক	-10.4717
▁গেলো	-10.4717
উত্তর	-10.472
নামা	-10.4721
সমূহে	-10.4726
▁পাপের	-10.4728
▁বাজেট	-10.473
েন্দ্র	-10.4735
বস	-10.4737
ীতে	-10.4737
▁পুনরুত্থিত	-10.4739
▁টেলিফোন	-10.4739
▁সংখ্যার	-10.474
▁তালিকাভুক্ত	-10.4744
▁নিরাপত্তার	-10.4746
▁হাতিয়ার	-10.4747
▁যাচ্ছেন	-10.4751
▁হারে	-10.4753
▁পর্যায়	-10.4755
▁পুষ্টি	-10.4758
▁সম্পৃক্ত	-10.4761
কল্প	-10.4762
▁নাগরিকরা	-10.4766
▁বিস্ময়কর	-10.4767
▁অতীত	-10.4769
▁হাইকোর্ট	-10.4774
াত্মক	-10.4776
▁অনি	-10.4778
▁১৯৭৮	-10.4788
বৃত্তি	-10.4791
ৎস	-10.4795
পী	-10.48
▁পিতামাতা	-10.4803
য়ি	-10.4804
▁লোকেদেরকে	-10.4805
▁আস্তে	-10.4805
টিং	-10.4809
▁ইতালি	-10.4809
দ্বিতীয়	-10.4816
▁সকলকে	-10.4818
▁গান্ধী	-10.4819
▁সভাগুলোতে	-10.482
▁আকৃষ্ট	-10.482
▁তরল	-10.4823
▁ক্যাথরিন	-10.4828
▁কূটনৈতিক	-10.4836
▁গোল্ডেন	-10.484
্টন	-10.4845
▁কুমিল্লা	-10.4845
▁দূষণ	-10.4845
▁গার্ড	-10.4846
▁চিন্তার	-10.4848
▁টাই	-10.4848
ঁজ	-10.4851
রেট	-10.4857
▁ভাইবোনদের	-10.4857
▁চালায়	-10.4858
▁গ্রেট	-10.4861
▁প্রায়শই	-10.4862
▁পুনরালোচনা	-10.4863
▁করিবেন	-10.4864
▁বাসায়	-10.4865
▁অবস্থানে	-10.4869
▁বলব	-10.487
ক্ল	-10.4874
▁তর্ক	-10.4878
সূচক	-10.4885
▁রেখেছিল	-10.489
▁মৃত্যুদণ্ড	-10.4891
ধরনের	-10.4894
▁বুদ্ধিমান	-10.4896
খান	-10.4897
▁কাশ্মীর	-10.4899
▁হিল	-10.4901
▁খ্রিস্টাব্দের	-10.4903
▁আলা	-10.4906
নাস	-10.4909
▁খাতে	-10.4909
▁জানাচ্ছে	-10.4912
▁বোঝাতে	-10.4914
▁ওয়ে	-10.4915
▁দাঁত	-10.4917
▁আনুষ্ঠানিকভাবে	-10.4919
▁ম্যাচে	-10.4923
▁মাপ	-10.4923
▁দার্শনিক	-10.4925
য়েভ	-10.4925
▁সংযোজন	-10.4926
▁বানিয়ে	-10.4927
▁বুঝে	-10.4927
নির্	-10.4934
▁অধিদপ্তর	-10.4934
বাগ	-10.4935
▁যোদ্ধা	-10.4936
▁১৯৫২	-10.4937
▁আচরণের	-10.494
▁দেখলে	-10.4946
▁চলমান	-10.495
▁ডিভাইস	-10.4952
েন্দ্রনাথ	-10.4955
চর	-10.4957
▁যিরূশালেম	-10.4963
▁ইস্রায়েলীয়রা	-10.4964
▁সেবার	-10.4964
▁ইসলামের	-10.4964
▁অর্জনের	-10.4972
▁১৯৫১	-10.4977
▁অ্যাপ্লিকেশন	-10.4979
▁আপত্তি	-10.4981
▁মোকাবেলা	-10.4988
কস	-10.4992
▁নিচু	-10.4995
ম্পা	-10.4998
▁মাটিতে	-10.5001
▁উপরের	-10.5002
▁দ্বার	-10.5008
রিস	-10.5011
▁সমর্থক	-10.5014
▁টার্মিনাল	-10.5015
▁সমর্থিত	-10.5015
শূন্য	-10.5021
▁মর্	-10.5021
▁ছাদ	-10.5022
▁যাত্তয়া	-10.5024
স্তান	-10.5025
▁বৎসর	-10.5026
▁গেছি	-10.5026
টস	-10.503
▁খায়	-10.5032
▁১৯৫৭	-10.5035
▁পোপ	-10.5038
খু	-10.5039
▁নারীরা	-10.5041
পল	-10.505
▁উর্দু	-10.5051
▁গণমাধ্যম	-10.5052
▁চাবি	-10.5052
▁কাজী	-10.5059
▁নীচের	-10.5061
▁কর্মকান্ড	-10.5063
▁রুটি	-10.5067
▁ফেসবুকে	-10.5069
▁কফি	-10.5069
▁চিন্তিত	-10.507
▁দুঃখকষ্ট	-10.507
▁ক্যান্সার	-10.507
র্গ	-10.507
▁হেঁটে	-10.507
▁মাস্টার	-10.5071
▁অন্তর্	-10.5073
▁করান	-10.5077
্ড	-10.5083
▁তিনটে	-10.5087
▁টুকরো	-10.5088
লস	-10.5088
▁ইংরেজী	-10.5088
গী	-10.5088
▁যাবো	-10.5095
▁অধিকন্তু	-10.5097
বাদের	-10.5101
▁কখনই	-10.5107
▁ভার্	-10.5109
▁ফার্ম	-10.511
▁সমাপ্ত	-10.5111
▁করিনি	-10.5111
িট	-10.5115
৭৯	-10.5123
▁সিঙ্গাপুর	-10.5127
লন	-10.5129
▁টাইম	-10.514
৮২	-10.5145
▁প্রাথমিকভাবে	-10.5149
▁ক্যাম্প	-10.5149
▁অর্থনীতির	-10.515
▁নিশ্চিতভাবেই	-10.5151
▁কমপক্ষে	-10.5152
▁নেতারা	-10.5152
▁জাতিগত	-10.5157
ইয়ের	-10.5161
ংশ	-10.5162
ুম	-10.5163
ষে	-10.5165
▁উৎপাদনের	-10.5167
ঞ্জি	-10.5169
▁ক্যালিফোর্নিয়া	-10.517
▁ট্রা	-10.517
গৃহ	-10.5171
▁জ্ঞানের	-10.5172
▁অবরোধ	-10.5183
▁কাউন্সিলের	-10.5185
▁ঈ	-10.5185
▁উচ্চারণ	-10.5188
▁মিউজিক	-10.5188
বিভাগ	-10.5193
▁ছড়া	-10.5195
ধ্বনি	-10.5196
▁সম্পদের	-10.5196
▁অন্বেষণ	-10.5197
২০১১	-10.52
▁ভোজ	-10.52
▁আইনগত	-10.5203
▁বসন্ত	-10.5205
▁বিনামূল্যে	-10.5207
▁মহৎ	-10.5208
▁জিও	-10.521
▁রক	-10.5213
);	-10.5215
▁ধার	-10.5217
▁জীবন্ত	-10.5217
েদ	-10.5218
▁অসিদ্ধ	-10.5222
▁অভিযোগে	-10.5223
▁খ্রি	-10.5225
▁প্রকল্পটি	-10.5227
্যান্ড	-10.5233
▁কোমল	-10.5236
ভ্র	-10.5237
▁সফলভাবে	-10.5252
মহা	-10.5258
তৃ	-10.5258
▁চলুন	-10.5265
▁দুঃখজনক	-10.5273
▁ভিতর	-10.5275
▁১৯৮১	-10.5277
▁১৯৪০	-10.5277
দর্শন	-10.528
লক	-10.5284
▁কালি	-10.5285
▁সংবিধানের	-10.5286
▁পঞ্চায়েত	-10.529
▁স্থল	-10.5291
▁ব্রি	-10.5292
▁রিচার্ড	-10.5299
▁স্তরের	-10.53
▁অবকাঠামো	-10.53
▁বাতাস	-10.5301
প্রায়	-10.5305
▁৬৬	-10.5308
▁পারমাণবিক	-10.5308
যদি	-10.5309
প্রা	-10.5312
▁টানা	-10.5315
াংশে	-10.5316
কর্মী	-10.5318
▁প্রভুর	-10.532
কাস	-10.532
▁১৯২০	-10.5322
ফট	-10.5325
▁একত্র	-10.5328
▁ইমাম	-10.5329
▁ইস্যু	-10.5329
▁সহকর্মী	-10.533
▁হত্যার	-10.533
▁বাসা	-10.5332
গতভাবে	-10.5335
▁ওভার	-10.5336
▁দাঙ্গা	-10.5336
▁কিং	-10.5337
ট্ট	-10.5337
▁বিকৃত	-10.5338
▁ব্যবহারিক	-10.534
▁রক্তের	-10.5342
▁শেখার	-10.5342
▁ব্যবহারকারীর	-10.5344
▁বালক	-10.5345
▁তারপরও	-10.5347
▁দায়িত্বে	-10.5351
▁সংসদে	-10.5358
▁বালিকা	-10.5361
অনু	-10.5362
▁নির্ভরশীল	-10.5363
▁ব্রে	-10.5364
▁অপরিহার্য	-10.5364
াগার	-10.5368
▁অযোগ্য	-10.5372
▁টাকাপয়সা	-10.5374
▁গর্ভ	-10.5374
▁ইয়ো	-10.5377
▁৬৩	-10.5378
▁ঘোষিত	-10.538
▁অধিনায়ক	-10.538
▁পারলে	-10.538
▁প্রশস্ত	-10.5383
দিনের	-10.5384
▁শুষ্ক	-10.5384
▁লজ্জা	-10.5385
▁ক্ষমতায়	-10.5388
▁মালা	-10.5388
▁গুলো	-10.5392
▁ইঞ্জিনিয়ারিং	-10.5392
▁স্বভাব	-10.5393
▁ছেলের	-10.5396
▁করেছ	-10.5397
▁জড়	-10.5401
▁রত্ন	-10.5405
বর্ত	-10.5406
▁নির	-10.5407
▁স্বেচ্ছায়	-10.5408
▁দুইজন	-10.5413
ব্যাপী	-10.5415
মল	-10.5417
▁অংশগ্রহণকারী	-10.5418
দর	-10.542
▁সংখ্যায়	-10.5421
▁মার্টিন	-10.5422
াচ্ছে	-10.5423
▁আবুল	-10.5424
▁ছাপা	-10.5425
চ্ছে	-10.5426
▁পৌঁছানোর	-10.5432
▁প্রভাবশালী	-10.5433
▁তারাও	-10.5434
▁ফ্লা	-10.5436
▁ভাইয়েরা	-10.5438
▁প্রতিদ্বন্দ্বী	-10.5439
▁বিরতি	-10.5441
▁নেবে	-10.5442
▁ঢুকে	-10.5446
রাত	-10.5448
▁গীতরচক	-10.5449
▁সিনিয়র	-10.5449
▁প্রেরণা	-10.546
ফাই	-10.5461
▁মোহ	-10.5467
সপ্তাহ	-10.5468
▁ব্যবহারকারীদের	-10.547
▁সোজা	-10.5472
াইজ	-10.5479
▁ভক্ত	-10.548
▁এভাবেই	-10.5482
▁রাষ্ট্রপতির	-10.5483
▁কেন্দ্রটি	-10.5485
রাস	-10.5486
▁সাউথ	-10.5487
▁হউক	-10.5487
▁দিচ্ছেন	-10.5487
▁আক	-10.5488
▁চালানোর	-10.549
ঙ্গল	-10.5491
▁থি	-10.5493
▁মিঃ	-10.5494
ঈ	-10.5496
▁ফেব্রুয়ারী	-10.5496
▁ক্রা	-10.5498
▁খেলতে	-10.5499
▁পাঠান	-10.55
▁টিম	-10.5504
▁গেমস	-10.5507
▁পর্দা	-10.5513
গামী	-10.5519
▁দুর্ঘটনা	-10.5522
▁বাঁচা	-10.5523
▁পুর	-10.5524
▁ধাতু	-10.5525
▁সর্বপ্রথম	-10.5525
▁রেখেছেন	-10.5529
▁পূর্বের	-10.5533
▁কাঁচা	-10.5534
▁আগত	-10.5541
টেল	-10.5542
▁শের	-10.5542
্টার	-10.5543
▁ইউএস	-10.5544
▁৬৪	-10.5548
▁পৃষ্ঠ	-10.5548
নেস	-10.555
▁ভিডিওতে	-10.5551
▁চালক	-10.5555
▁জাহাজের	-10.5556
▁রত	-10.5557
▁তুলেছেন	-10.5562
▁বিপ্লবী	-10.5563
▁১৯৫৬	-10.5565
▁শীত	-10.5567
তির	-10.5569
▁সরঞ্জাম	-10.5571
▁সুস্পষ্ট	-10.5572
▁সমকামী	-10.5573
▁দেও	-10.5574
▁কাদের	-10.5575
▁পরও	-10.5575
▁দুর	-10.5578
্ক	-10.5582
▁বক	-10.5588
▁সমালোচক	-10.5593
▁অতীতে	-10.5598
▁নিখুঁত	-10.5599
▁ভাইস	-10.5599
ার্থে	-10.5599
সদাপ্রভু	-10.5602
▁বারবার	-10.5606
▁বললো	-10.5608
▁৭২	-10.561
▁চাপের	-10.5615
▁শর	-10.5616
ষি	-10.5621
▁অধিকাংশই	-10.5621
▁তাপ	-10.5623
▁বাহু	-10.5624
▁পাক	-10.5625
▁সেশন	-10.5626
▁ইট	-10.5628
▁উপত্যকা	-10.5629
গ্রন্থ	-10.5631
▁ওয়ান	-10.5638
সম্মত	-10.5643
▁ক্লাবের	-10.5646
▁জন্মদিন	-10.565
▁হাউজ	-10.5655
▁পয়সা	-10.5658
ভেল	-10.5659
▁বলবেন	-10.5659
▁হইয়াছে	-10.5659
▁অত	-10.566
▁দূরবর্তী	-10.566
▁জার্মানির	-10.5662
াঙ্ক	-10.5662
▁কুয়েত	-10.5665
▁ইউরো	-10.5667
▁কিছুর	-10.5667
▁ট্র্যাক	-10.5668
▁উদ্ভব	-10.5668
▁ঘটনাগুলো	-10.5672
▁জনাব	-10.5683
▁বিবর্তন	-10.5684
▁স্থাপনা	-10.5687
▁হান	-10.5687
▁কপিরাইট	-10.5688
▁ক্ষতিপূরণ	-10.5688
▁মাইক্রো	-10.5688
▁উভয়ের	-10.5688
▁তাহাদিগকে	-10.5688
স্টে	-10.569
▁পতিত	-10.5694
▁লাগল	-10.5704
▁পরিত্রাণ	-10.5706
▁ওঠেন	-10.5708
▁মূল্যবোধ	-10.5711
াধিকার	-10.5712
▁নকল	-10.5712
বিষয়ক	-10.5714
▁কার্যকলাপ	-10.5717
▁সময়কালে	-10.5718
▁তুলেছে	-10.5718
মণি	-10.5719
▁ছয়টি	-10.572
▁গেমসে	-10.572
▁দ্বীপে	-10.5725
▁শিকাগো	-10.5726
▁সম্পাদিত	-10.5726
▁শরণার্থী	-10.5728
▁আন্তঃ	-10.5729
▁উঠবে	-10.5731
ক্রি	-10.5731
▁বালি	-10.5732
▁শুল্ক	-10.5733
ম্ম	-10.5735
▁দুঃখের	-10.5735
▁''	-10.574
▁হাড়	-10.5742
▁দেহের	-10.5745
▁দৌরাত্ম্য	-10.5746
▁হলুদ	-10.5746
▁মাদক	-10.5747
▁সেদিন	-10.5752
ড্	-10.5753
▁১৯৪৬	-10.5758
কিন	-10.576
▁আইস	-10.5762
▁অসুস্থতা	-10.5763
▁সংরক্ষণের	-10.5764
▁বললাম	-10.5764
▁মারি	-10.5766
র্ষ	-10.5766
▁কাজকে	-10.5768
▁সংঘ	-10.5769
বিয়া	-10.5772
▁ট্রাইব্যুনাল	-10.5775
▁সমিতির	-10.5775
▁কর্ণ	-10.5778
▁জনতার	-10.578
▁জার্মানি	-10.5782
▁অনুদান	-10.5782
▁হ্যাশট্যাগ	-10.5784
▁পরিশেষে	-10.5784
▁অনুষদ	-10.5785
শিয়া	-10.5787
▁যেগুলোর	-10.5788
▁পানিতে	-10.5789
▁মোটা	-10.579
▁প্রান্তে	-10.579
▁বস্তুতপক্ষে	-10.5804
▁সেচ	-10.5807
▁সেসব	-10.581
▁বয়	-10.5814
একটি	-10.5815
▁গবাদিপশু	-10.5824
▁সম্মিলিত	-10.5824
▁শ্রীলঙ্কা	-10.5825
▁পাইলট	-10.5825
▁শিক্ষার্থীদের	-10.5825
▁পারতাম	-10.583
হাই	-10.5833
▁নামটি	-10.5836
খানে	-10.5839
▁চালিত	-10.5839
্বা	-10.5844
▁হয়েছিলো	-10.5849
উস	-10.5849
▁ক্রমশ	-10.5851
▁ইভেন্ট	-10.5853
▁ল্যাটিন	-10.5854
গের	-10.5856
▁দুর্	-10.5856
▁প্রতিশোধ	-10.5858
▁অধ	-10.5859
▁পাহাড়ের	-10.5862
▁ভো	-10.5863
▁ভেসে	-10.5864
▁খাজা	-10.5864
▁চালান	-10.5864
ুদ	-10.5865
▁বাক	-10.5873
▁পড়ছে	-10.5873
ন্দু	-10.5875
্রি	-10.5876
▁ক্যান	-10.5877
▁প্রযোজক	-10.5882
▁অঙ্গীকার	-10.5882
▁জুনিয়র	-10.5883
▁অংশীদার	-10.5883
▁স্তরে	-10.5887
য়ু	-10.5891
▁আক্ষরিক	-10.5892
▁প্রাচীনরা	-10.5895
▁১৫০	-10.5895
ঙ্গার	-10.5895
▁১৯৫৮	-10.5896
▁ঢাল	-10.5898
পিত	-10.5899
▁উয়েফা	-10.5902
▁উদ্বোধন	-10.5905
▁গতকাল	-10.5909
▁ভরা	-10.5909
বেলা	-10.591
▁কমপ্লেক্স	-10.5912
▁স্ট্রিট	-10.5913
▁সেমি	-10.5915
▁আজিজ	-10.5919
ঁট	-10.592
▁জাগিয়ে	-10.5921
▁ফার	-10.5921
▁ফেলেছিল	-10.5926
▁প্যারা	-10.5926
▁দুশ্চিন্তা	-10.5932
▁বিপর্যয়	-10.5935
▁বিংশ	-10.5938
▁মানবিক	-10.5938
▁অভিবাসী	-10.5944
▁অনুসারীদের	-10.5945
কেল	-10.595
▁ভঙ্গ	-10.5952
▁উদ্ভূত	-10.5952
▁পুনরুত্থান	-10.5955
াউ	-10.5955
▁পপ	-10.5961
পাদ	-10.5961
▁স্যাটেলাইট	-10.5962
সভা	-10.5965
▁১৯৪৫	-10.5966
▁মুহম্মদ	-10.5968
▁আফগানিস্তান	-10.5978
▁প্রদেশে	-10.5981
▁বরিশাল	-10.5981
মিয়া	-10.5983
যাকোব	-10.5985
▁ক্রস	-10.5992
▁কর্মসূচী	-10.5992
স্থিত	-10.5996
▁উপনিবেশ	-10.5996
▁সপ্তম	-10.6001
▁প্রচলন	-10.6001
▁প্রাচ্য	-10.6001
দুর	-10.6002
য়েড	-10.6002
শিপ	-10.6004
▁অভ্যন্তরে	-10.6004
▁রবিবার	-10.6006
▁বলেই	-10.6006
▁সূক্ষ্ম	-10.6007
▁শান্তির	-10.6007
▁প্রত্যেকটা	-10.601
▁প্রচারের	-10.6017
▁সিসি	-10.6019
▁গ্রুপের	-10.602
▁যাদেরকে	-10.6022
▁সাহসের	-10.6023
▁পোস্টে	-10.6026
ঙ্গি	-10.6026
▁লিংক	-10.6031
▁ক্রমবর্ধমান	-10.6031
▁ক্ষেত্রেই	-10.6034
▁স্ট্যা	-10.6034
শিল্পী	-10.6037
▁দেখাচ্ছে	-10.6039
▁সঞ্চয়	-10.6041
▁দায়ের	-10.6043
▁প্রচেষ্টার	-10.6044
▁বাসস্থান	-10.6047
িদের	-10.6049
▁১লা	-10.6052
▁তেমনই	-10.6059
▁বিশ্বাসকে	-10.606
▁চাপা	-10.6063
স্টা	-10.6066
বাংলা	-10.6068
▁নবাব	-10.6068
▁পত্রিকাটি	-10.6069
বায়	-10.6073
▁সচেতনতা	-10.6074
▁স্নেহ	-10.6077
▁বাজ	-10.6079
মন্ডল	-10.6084
▁বিজ্ঞানের	-10.6084
গ্ন	-10.6084
▁একইরকম	-10.6087
▁ধীর	-10.6092
য়ানা	-10.6093
▁টেবিল	-10.6094
▁কানাডা	-10.6097
▁পেয়েছিলাম	-10.6099
▁ফ্লিকার	-10.6102
▁শাসনামলে	-10.6102
▁জন্যও	-10.6102
▁সংঘর্ষ	-10.6105
▁ব্যবসায়িক	-10.6108
▁ধাপ	-10.6109
▁সাহেব	-10.611
▁ড্যা	-10.6111
▁সিরিজের	-10.6112
▁অধিকতর	-10.6116
▁কৃত্রিম	-10.6122
▁নোংরা	-10.6132
্যে	-10.6133
▁স্থাপনের	-10.6134
▁সার্	-10.6135
▁৫৮	-10.6135
▁রুপ	-10.6136
▁হৃদয়কে	-10.6138
▁ব্রিজ	-10.614
▁যিহূদা	-10.614
▁লিস্ট	-10.6144
▁উপজাতি	-10.6145
▁গমন	-10.6149
▁খুঁ	-10.615
্মা	-10.6154
▁প্রথমত	-10.6156
মনা	-10.6161
▁ভরে	-10.6164
িটি	-10.6168
ইংরাজি	-10.6172
▁সনাক্ত	-10.6175
▁মহাসাগর	-10.6178
▁অন্ত	-10.6179
▁রকমের	-10.618
▁সরা	-10.6181
▁বিলুপ্তপ্রায়	-10.6183
▁ক্ষেত্রেও	-10.6191
▁মিস্টার	-10.6192
▁পাত	-10.6192
▁ষড়যন্ত্র	-10.6193
▁এডমন্ড	-10.6193
মতো	-10.6193
▁সাক্ষীরা	-10.6194
▁থিষলনীকীয়	-10.6197
▁মূল্যের	-10.6197
▁ব্রিটেন	-10.62
▁যিরূশালেমে	-10.6202
▁স্টক	-10.6202
▁স্টুডিও	-10.6203
▁রবীন্দ্রনাথ	-10.6203
ন্টি	-10.6203
▁প্রশ্নগুলো	-10.6204
▁দুর্দশা	-10.6205
ওয়াই	-10.6206
▁জিনিসপত্র	-10.6207
▁দিয়াবল	-10.6212
▁প্রযুক্তির	-10.6213
▁পরিপ্রেক্ষিতে	-10.6223
▁রংপুর	-10.6226
▁মাসিক	-10.6227
▁মহাদেশ	-10.623
▁অসুবিধা	-10.6238
▁আয়োজিত	-10.6243
▁চাকুরি	-10.6244
▁আসছি	-10.6247
▁বয়সের	-10.6248
▁গৃহে	-10.6248
▁জিত	-10.625
বোর্ড	-10.6253
জিয়া	-10.6253
▁পর্তুগিজ	-10.6254
▁জঙ্গল	-10.6255
▁ফটো	-10.6255
▁ভেবেছিলাম	-10.6256
▁প্রাক	-10.6256
▁১৯৬১	-10.6258
্না	-10.6259
▁সম্মানিত	-10.6261
▁চালাতে	-10.6264
▁ঘড়ি	-10.6267
স্কা	-10.6268
▁রানী	-10.627
▁থাইল্যান্ড	-10.6273
▁ঘন্টার	-10.6283
▁ফিলিপাইন	-10.6283
থু	-10.6283
▁পর্বে	-10.6283
▁আবদুল্লাহ	-10.6284
▁যানবাহন	-10.6284
▁হয়েছিলাম	-10.6286
▁গ্রীষ্মকালীন	-10.6295
▁বিপদজনক	-10.6296
▁বর্	-10.6297
▁১ম	-10.63
শালা	-10.6306
জীবী	-10.6306
▁রাখবে	-10.6306
▁আর্মি	-10.6309
▁প্রত্যয়	-10.6309
▁লোভ	-10.631
▁বেগ	-10.631
▁সতর্কতা	-10.6312
চো	-10.6314
▁বন্ধুবান্ধব	-10.6316
▁পারিনি	-10.6319
শ্চ	-10.632
▁পারেননি	-10.632
▁দিতেন	-10.6324
▁অকার্যকর	-10.6325
মির	-10.6326
▁১৯৫৪	-10.6326
▁ঘটছে	-10.6328
▁ভান	-10.633
স্তু	-10.633
কির	-10.6342
▁নরম	-10.6343
▁জন্মের	-10.6343
▁ভ্যা	-10.6344
▁জ্বল	-10.6344
সুর	-10.6344
▁পেরেছি	-10.635
▁শিবির	-10.6351
▁দাদা	-10.6351
▁লন্ডনে	-10.6352
বীর	-10.6354
▁মরিয়ম	-10.6354
চ্ছা	-10.6355
▁উইন্ডো	-10.6361
▁থেকেও	-10.6365
▁আর্থ	-10.6365
▁অলিম্পিকে	-10.6367
▁ডাউনলোড	-10.6367
▁বুদ্ধ	-10.6368
▁রয়ে	-10.6368
হিতো	-10.637
ত্ত্ব	-10.6371
জম	-10.6377
▁তাইওয়ান	-10.638
▁নিষ্ঠুর	-10.6382
▁দ্বীপের	-10.6382
আদি	-10.6387
▁দাখিল	-10.6388
▁ধাক্কা	-10.6388
▁বিবিসি	-10.6388
নাই	-10.6389
যন্ত্র	-10.6389
▁লোকসভা	-10.6392
▁চিত্ত	-10.6396
সংখ্যা	-10.6397
▁ক্লিনিক	-10.6399
▁মস্কো	-10.64
▁দফা	-10.6401
▁ওপেন	-10.6403
▁দিব	-10.6403
▁ধা	-10.6405
ইফিষীয়	-10.6405
্রো	-10.6405
▁ভাবনা	-10.6406
▁জাম	-10.6408
▁মাদ্রিদ	-10.6408
ভান	-10.6408
▁বঙ্গবন্ধু	-10.6408
হল	-10.6411
▁ওয়েল	-10.6414
মোহন	-10.6416
▁ছুটির	-10.6418
▁যোগাযোগের	-10.642
বাংলাদেশ	-10.642
ন্থ	-10.6423
▁মেক্সিকো	-10.6425
▁সোনার	-10.6428
▁সুপ্রিম	-10.6429
তুর	-10.643
▁নিরপেক্ষ	-10.6432
▁ঘোষণাবলি	-10.6432
▁উত্তরাধিকারী	-10.6435
▁সমসাময়িক	-10.6439
▁গ্রীষ্ম	-10.6441
▁কথাটা	-10.6444
খ্রীষ্ট	-10.6447
▁মঠ	-10.6448
▁নিবন্ধিত	-10.6449
▁ইউনাইটেড	-10.645
▁সনাতন	-10.645
▁দারিদ্র্য	-10.6453
াদ	-10.6455
▁বেস	-10.6457
চ্ছেদ	-10.6458
▁রাজনীতিতে	-10.6458
▁ব্লগাররা	-10.6459
▁ট্রাস্ট	-10.6459
▁পল্লী	-10.646
▁কারিগরি	-10.6463
াবে	-10.6466
▁আমায়	-10.6471
▁টেক	-10.6476
ভোগ	-10.6478
▁দ্বীপপুঞ্জ	-10.6481
▁অপেক্ষাকৃত	-10.6485
▁ত্রিশ	-10.649
▁টাউন	-10.649
কুই	-10.6491
▁ময়মনসিংহ	-10.6491
▁হেল	-10.6494
▁পরিবেশের	-10.6495
▁শৈলী	-10.6495
▁যাচ্ছিল	-10.6496
▁প্রজাতন্ত্রের	-10.6498
▁জীবনধারা	-10.6499
▁বিস্ময়	-10.65
▁অবি	-10.6504
▁কামনা	-10.6507
ভূ	-10.6507
▁একদিনের	-10.6507
▁মিয়া	-10.6509
রুপ	-10.6509
গ্রে	-10.6515
▁সূ	-10.6518
▁সিন	-10.6519
্সের	-10.6523
▁ফিলিপীয়	-10.6523
▁ভাষণ	-10.6524
▁হাঁ	-10.6527
▁সুসমাচারের	-10.6529
▁বাঘ	-10.6531
কেট	-10.6532
▁সংঘাত	-10.6533
▁একাউন্ট	-10.6534
▁চক্ষু	-10.6538
▁সাহিত্যের	-10.6543
▁অ্যাওয়ার্ড	-10.6545
▁মৌসুম	-10.6546
▁প্রদানকারী	-10.6553
▁তাহাতে	-10.6554
▁মালদ্বীপ	-10.6555
▁দেই	-10.6557
▁ব্যাঙ্ক	-10.6557
পোর্ট	-10.6562
▁৬২	-10.6563
▁১৯৬৪	-10.6564
▁অবলম্বন	-10.6564
▁৬১	-10.6564
▁চিত্রগুলো	-10.6567
গ্রামে	-10.6568
▁পার্স	-10.6568
দ্রা	-10.657
▁নল	-10.6572
▁চলি	-10.6573
▁হৃদয়ের	-10.6573
▁প্রয়োজনে	-10.6573
কুর	-10.6574
ুত	-10.6579
▁কৌতুক	-10.6582
▁পণ্যের	-10.6592
য়ার্স	-10.6593
▁ইরানী	-10.6593
▁বঙ্গীয়	-10.6594
▁মধ্যপ্রাচ্য	-10.6597
▁হিউম্যান	-10.6598
পুরে	-10.6598
▁অন্যদেরকে	-10.66
▁সীমাবদ্ধতা	-10.6604
▁প্রতিষ্ঠানে	-10.6604
▁উত্থাপন	-10.6607
▁নিষ্পত্তি	-10.6607
▁অতিবাহিত	-10.6608
▁সর্বত্র	-10.661
িয়াল	-10.6611
▁বাহরাইন	-10.6612
▁ঘটায়	-10.6615
▁১৯৬৮	-10.6616
▁জাপানে	-10.6616
▁দৃঢ়ভাবে	-10.6617
▁প্রিন্স	-10.6617
▁প্রচারক	-10.662
এক্স	-10.6622
▁ক্লা	-10.6624
সন্তান	-10.6625
▁বাণী	-10.6625
▁গজ	-10.6625
▁সমবেদনা	-10.6628
▁এশীয়	-10.6629
▁কাঁ	-10.6629
▁উন্নয়নে	-10.6632
▁রসায়ন	-10.6634
▁থাকাকালীন	-10.6637
▁ভবনের	-10.6637
সদাপ্রভুর	-10.6638
গ্রা	-10.6638
▁মেমো	-10.6639
▁শাস্ত্রের	-10.6641
বাহিনী	-10.6645
▁এও	-10.6647
▁সংখ্যাগরিষ্ঠ	-10.665
▁পরিবেশে	-10.6651
▁দম	-10.6652
▁ইচ্ছে	-10.6656
▁ব্লগারদের	-10.666
▁জলাশয়	-10.666
▁জ্যা	-10.6667
▁টেস্টে	-10.6669
▁অণু	-10.667
চী	-10.6678
িজম	-10.6679
▁হোস্ট	-10.668
▁মীর	-10.6684
▁চোর	-10.6685
▁২য়	-10.6685
▁ছো	-10.6689
ন্টা	-10.669
▁বাপ্তাইজিত	-10.6693
▁লিঙ্ক	-10.6703
▁মির্জা	-10.6703
▁লাহোর	-10.6703
▁পুরানো	-10.6707
▁বসবাসকারী	-10.6711
▁ক্যারিয়ার	-10.6716
▁শিয়া	-10.6718
হীনতা	-10.6719
▁পরই	-10.6721
▁পাকা	-10.6723
▁প্রশ্নগুলোর	-10.6729
▁দেখেছেন	-10.6729
▁অবসান	-10.6731
▁সাংবাদিকতা	-10.6733
বাহী	-10.6733
দূর	-10.6734
▁অঙ্ক	-10.6735
প্রবণ	-10.6736
▁সর্বদা	-10.6737
▁যো	-10.6737
▁আবাসিক	-10.6739
ষ্টি	-10.6742
▁বিশ্বকাপের	-10.6745
▁ঠাণ্ডা	-10.6746
▁দার	-10.6749
▁গোলাপ	-10.6754
▁যীশুকে	-10.6757
▁স্ত্রীকে	-10.6758
▁তরঙ্গ	-10.6762
▁আমিরাত	-10.6762
▁সম্মতি	-10.6764
▁তীর	-10.6768
▁স্নাতকোত্তর	-10.6768
▁জেলাটি	-10.6774
▁মতই	-10.6774
সিল	-10.6778
▁রূপক	-10.678
▁ক্ষত	-10.678
▁বন্ধুরা	-10.6781
]:	-10.6783
▁সার্ভারের	-10.6785
▁প্রজনন	-10.6789
▁ছাপানো	-10.6789
বন্দ	-10.6792
▁খাত	-10.6798
▁হেড	-10.6803
▁আজারবাইজান	-10.6805
্যাপ	-10.6805
▁আলাপ	-10.6808
▁সাময়িকী	-10.681
▁সেক্টর	-10.6813
▁চীনে	-10.6813
▁রাখো	-10.6815
▁দ্বিধা	-10.6816
▁মুজিব	-10.6819
▁মস্তিষ্ক	-10.6823
▁করছিলাম	-10.6825
নিজ	-10.683
বিসি	-10.683
▁আকবর	-10.6833
▁জ্ঞাত	-10.6835
রেখা	-10.684
▁পদার্থবিজ্ঞান	-10.6842
▁আয়ারল্যান্ড	-10.6843
▁ল্যাট্রিন	-10.6843
▁আপীল	-10.6843
▁ফেলি	-10.6844
▁সম্মুখে	-10.6847
▁দৈনন্দিন	-10.6854
▁চাক	-10.6861
▁ইন্দোনেশিয়ার	-10.6861
▁অভিজ্ঞ	-10.6861
বর্তমান	-10.6863
▁বিতর্কিত	-10.6866
গুন	-10.6866
▁১৯৬৩	-10.6866
▁উইন্ডোর	-10.6869
ভের	-10.6874
▁উদ্যোগের	-10.6874
▁১১৯	-10.6875
তিন	-10.6877
▁অনুপস্থিত	-10.6877
▁অতীতের	-10.688
▁লক্ষণীয়	-10.6883
▁পুত্ত্র	-10.6885
▁ভাগে	-10.6885
▁দুর্ভিক্ষ	-10.6886
▁জাদু	-10.6886
পাস	-10.6888
▁অভিজাত	-10.6889
▁পট	-10.6889
▁ভালবাসি	-10.6891
▁পরস্পরের	-10.6893
াভি	-10.6893
▁মন্ত্র	-10.6893
উট	-10.6899
▁ফন্ট	-10.69
▁নূতন	-10.6901
▁ঘাটতি	-10.6903
গাল	-10.6904
▁সেইজন্য	-10.6907
▁অধিষ্ঠিত	-10.6908
▁চামড়া	-10.691
▁দেওয়াল	-10.691
▁জীবনী	-10.6914
ানন্দ	-10.6914
▁ইউক্রেন	-10.6916
▁মন্দিরে	-10.6917
▁কার্যকরী	-10.6919
▁আবিষ্কৃত	-10.6919
▁শুক্রবার	-10.6919
▁ঘটনাটি	-10.6921
▁প্রবন্ধটি	-10.6923
▁ফাইলের	-10.6924
স্টিক	-10.6926
▁প্রত্যেকের	-10.6931
▁বংশধর	-10.6933
▁বিশপ	-10.6934
▁শেখানো	-10.6936
▁যেটাকে	-10.6938
গতি	-10.6939
▁আহবান	-10.6943
োয়ার	-10.695
▁শৃঙ্খলা	-10.6951
▁মহিলার	-10.6953
িংয়ের	-10.6958
▁হিউ	-10.6959
▁পাতায়	-10.6961
▁নিয়ন্ত্রণে	-10.6961
▁প্রতিস্থাপন	-10.6961
▁মালিকানাধীন	-10.6961
▁রাজনীতির	-10.6966
▁সাফল্যের	-10.6967
▁বুঝি	-10.6968
ল্ল	-10.6968
▁ওয়েবসাইটে	-10.6969
র্ব	-10.697
▁জর্ডান	-10.6971
▁অ্যাল	-10.6972
পার্	-10.6973
▁সম্বলিত	-10.6974
▁বঞ্চিত	-10.6974
▁সাইকেল	-10.6975
▁গন	-10.6975
ফের	-10.6977
▁১৯৬৬	-10.698
▁কর্মকাণ্ড	-10.698
▁অনেকগুলো	-10.6981
প্ল	-10.6984
▁শনিবার	-10.6985
▁চেয়ার	-10.6989
খানি	-10.6991
▁ওয়ার্ক	-10.6995
▁নোটিশ	-10.6997
▁বংশাবলি	-10.6997
সম্পদ	-10.6998
▁বর্ধিত	-10.7
▁সময়ই	-10.7004
▁উদ্যোক্তা	-10.7007
▁ষষ্ঠ	-10.7007
গমন	-10.7008
▁পরিপূর্ণতা	-10.7011
▁উপকূলীয়	-10.7012
▁ফাইলটি	-10.7012
▁সম্মাননা	-10.7013
ত্বের	-10.7015
▁সাহায্যকারী	-10.7016
বড়	-10.7016
▁কালী	-10.7018
▁টুয়েন্টি২০	-10.7018
▁নিষ্	-10.7019
▁সন্তানরা	-10.7021
▁স্নায়ু	-10.7029
ার্ট	-10.703
▁হেক্টর	-10.703
ধান	-10.7038
▁মেয়েকে	-10.7038
▁ছাত্ররা	-10.7039
▁তুলেছিল	-10.704
▁ম্যাজিস্ট্রেট	-10.704
▁উপদেশক	-10.7043
▁লেবীয়	-10.7046
ডের	-10.7047
▁উভয়ই	-10.7047
ণি	-10.7048
▁ডেপুটি	-10.7051
▁উত্থান	-10.7051
▁শিক্ষাদান	-10.7052
▁বাঁশ	-10.7054
▁পিতৃ	-10.7054
▁চারজন	-10.7058
▁পাকিস্তানী	-10.706
▁রক্ষণাবেক্ষণ	-10.7062
▁খসড়া	-10.7062
▁অবিবাহিত	-10.7062
▁অ্যাড	-10.7062
▁কিউ	-10.7063
জাই	-10.7063
▁পরিধান	-10.7063
গাছ	-10.7065
▁ছাড়িয়ে	-10.7065
▁গ্লোব	-10.7071
▁পরেও	-10.7071
যান	-10.7073
▁সন্তানকে	-10.7078
▁সমাপ্তি	-10.708
▁ফ্রা	-10.7083
▁ঐক্য	-10.7084
▁বিদ্যুত	-10.7084
▁আবর্জনা	-10.7084
▁এরূপ	-10.7084
▁অনেকের	-10.7085
▁মুহূর্ত	-10.7086
▁আছ	-10.7086
▁চলাকালীন	-10.7086
▁নীতিমালা	-10.7087
▁ক্যাম্পাস	-10.7088
টিয়া	-10.7091
▁পাঠানোর	-10.7103
▁অনুতপ্ত	-10.7107
▁প্রাতিষ্ঠানিক	-10.7107
▁লবণ	-10.7107
▁উচ্চতর	-10.7107
▁মুখের	-10.7108
▁ট্রাক	-10.7108
▁নিয়ন্ত্রণের	-10.711
২০১২	-10.7111
▁ট্যা	-10.7112
▁ফেলো	-10.7112
▁কোণ	-10.7113
▁স্বাগত	-10.7113
▁জনকে	-10.7118
▁মেরামত	-10.7118
▁জানিয়েছিলেন	-10.7121
ম্ভ	-10.7124
▁অগ্রাধিকার	-10.7129
দায়	-10.7135
▁তোলেন	-10.7137
ধন	-10.7137
▁প্রাণীর	-10.714
শাসন	-10.7143
▁অব্রাহামের	-10.7144
▁মায়া	-10.7147
ট্টা	-10.7154
▁ডুবে	-10.7154
▁অনুসারী	-10.7155
পনিবেশিক	-10.716
▁লুইস	-10.7162
▁অপেক্ষায়	-10.7168
▁ডলারের	-10.7168
▁স্বা	-10.7169
▁হায়	-10.7172
▁সেখানেই	-10.7176
▁লাইফ	-10.7178
▁লন্ডনের	-10.7184
▁নিরীক্ষা	-10.7185
▁থামা	-10.7185
▁সাক্ষ্যদান	-10.7195
▁লাফ	-10.7195
▁আকস্মিক	-10.7196
▁ঝামেলা	-10.7196
▁বৃত্তি	-10.7197
▁বাবিল	-10.7197
▁বাধ্যতামূলক	-10.7198
লেস	-10.72
▁৮৯	-10.7211
▁সমুদ্রের	-10.7213
▁দিনাজপুর	-10.7213
▁উপকূল	-10.7214
▁উদ্যোগে	-10.7214
▁সুনাম	-10.7215
ীম	-10.7218
▁সাম্প্রদায়িক	-10.7218
▁জেন	-10.7219
▁ডিস	-10.7219
▁মিশরে	-10.722
▁পারস্য	-10.722
▁রইল	-10.722
সাহিত্য	-10.7221
মোর	-10.7221
▁ব্যতিক্রম	-10.723
▁লেফটেন্যান্ট	-10.723
▁গুজব	-10.723
▁অফিসিয়াল	-10.7231
▁দেখেছে	-10.7232
পেন	-10.7235
▁আলোর	-10.724
▁১৯১৯	-10.7242
▁পার্শ্ববর্তী	-10.7242
▁সংসদীয়	-10.7249
▁মাঝ	-10.725
মন্ড	-10.7251
▁নূর	-10.7254
পাদটীকা	-10.7254
▁ঘটনাবলি	-10.7256
▁বশীভূত	-10.7264
▁হার্ট	-10.7264
▁বাড়তে	-10.7264
▁দেশটি	-10.7266
▁ফিলিস্তিনি	-10.7272
▁প্রস্তাবিত	-10.7272
মৃত্যু	-10.7278
▁কিছুক্ষণ	-10.7278
▁কার্ল	-10.728
▁বক্তা	-10.728
তুল্য	-10.7281
ক্ষিত	-10.7283
হূ	-10.7284
▁পায়ের	-10.7284
মতি	-10.7285
▁গানটি	-10.7286
বুল	-10.7288
▁গর্ত	-10.7291
▁থাই	-10.7293
▁আমেরিকায়	-10.7296
▁পারস্পরিক	-10.7298
▁তর	-10.7298
ষণ	-10.7298
ঙ্কার	-10.7299
▁প্রস্তর	-10.73
▁অধিবাসী	-10.7301
▁রেগে	-10.7302
▁ইন্ডিজ	-10.7302
▁খ্রীষ্টানেরা	-10.7303
▁সাজানো	-10.7304
▁সী	-10.7306
▁দৃশ্যমান	-10.7308
▁গৃহকর্তা	-10.731
নিষ্ঠ	-10.7315
▁আমা	-10.7315
িরা	-10.7316
▁সৈন্যদের	-10.7319
▁নিউইয়র্ক	-10.732
▁সজ্জিত	-10.732
▁ধারণার	-10.7323
▁শরীরে	-10.7326
▁সুফি	-10.7327
▁ক্রে	-10.7329
▁জানাই	-10.7329
হারা	-10.7333
টান	-10.7335
▁লাইট	-10.7336
▁পুনরাবৃত্তি	-10.7343
▁বিল্ডিং	-10.7346
▁দুপুর	-10.7347
▁দেখলাম	-10.7348
▁নও	-10.735
▁তারপরে	-10.7355
খো	-10.7355
চাল	-10.7356
▁সবগুলো	-10.7357
▁গুরুত্বের	-10.7358
জ্ঞা	-10.7358
ডেল	-10.736
▁বুঝা	-10.736
বোনদের	-10.7366
চর্চা	-10.7369
মেট	-10.7374
পাদটীকাগুলো	-10.7375
▁দরজার	-10.7376
▁পেরেছিল	-10.7377
▁গবেষণায়	-10.7378
▁কায়	-10.738
▁ফরাসী	-10.7385
▁আছো	-10.7386
▁অধিকারের	-10.7389
▁ঝা	-10.7391
▁অধিবেশন	-10.7392
▁নেপালের	-10.7396
বিধি	-10.7396
ীভূত	-10.74
▁উৎপাদিত	-10.74
েটর	-10.7403
তাই	-10.7403
▁সাজা	-10.7408
▁কড়া	-10.7411
নায়ক	-10.7412
▁সমন্বিত	-10.7412
▁অধ্যায়ে	-10.7416
▁বেথেল	-10.7416
▁পরিপক্ব	-10.7423
▁শুদ্ধ	-10.7428
▁বাসিন্দা	-10.7429
▁ওবামা	-10.7431
▁মানুষেরা	-10.7433
▁এডি	-10.7433
▁করিয়াছেন	-10.7433
▁সংজ্ঞায়িত	-10.7435
▁বিদ্যালয়ের	-10.7435
▁আসর	-10.744
▁প্রতিভা	-10.7441
▁ট্রেড	-10.7443
▁কলসীয়	-10.7444
▁একতা	-10.7445
▁লেখ	-10.7445
▁স্পেন	-10.7446
▁অনুকূল	-10.7447
▁অনধিক	-10.7447
▁অক্ষাংশ	-10.7447
▁মরে	-10.7448
▁ত্রিপুরা	-10.7449
▁প্রক্রিয়ার	-10.7449
▁সফরে	-10.7452
▁বহুল	-10.7461
▁৭৩	-10.7462
▁অটো	-10.7462
▁যিরূশালেমের	-10.7464
▁বহির্	-10.7464
▁ব্যবধানে	-10.7466
▁ব্যবহারকারীরা	-10.7468
▁দাঁড়	-10.7469
▁যথাসাধ্য	-10.747
▁বৃষ্টিপাত	-10.747
২০০৬	-10.747
▁যাত্রাপুস্তক	-10.7473
▁স্বাস্থ্যকর	-10.7474
ড়িয়া	-10.7474
▁অসন্তুষ্ট	-10.7481
ভারত	-10.7483
▁মামলার	-10.7484
▁জলদি	-10.7484
▁খোঁজ	-10.7486
▁উপলক্ষে	-10.7488
▁কমন	-10.749
দেখ	-10.749
কোষ	-10.749
▁অমর	-10.7491
▁প্যারিস	-10.7491
▁হিম	-10.7491
▁উম	-10.7493
▁ধরুন	-10.7494
দেশের	-10.7497
▁ভ্যান	-10.7498
োম	-10.7498
▁রিয়াল	-10.7499
▁১৯৪৯	-10.7502
▁কিনতে	-10.7509
▁৬৭	-10.7511
▁সুদান	-10.7512
্যান্স	-10.7513
▁নাগাদ	-10.7514
▁চ্যা	-10.7515
ষ্টা	-10.7515
লাইট	-10.7518
▁মূলধন	-10.7518
▁অনুপাত	-10.752
নিউ	-10.752
স্য	-10.7522
▁অভিজ্ঞতার	-10.7522
বন্ধন	-10.7523
▁মেয়র	-10.7524
রুদ্ধ	-10.7525
▁দানের	-10.7526
▁খ্রিস্টাব্দ	-10.7527
পত্রিকা	-10.7527
শ্রী	-10.7527
▁কর্মীরা	-10.7528
কোট	-10.7532
▁করছো	-10.7533
ঙা	-10.7534
▁হিতো	-10.7538
▁তামিল	-10.754
স্ত্র	-10.7541
▁বন্ধুর	-10.7542
▁মধ্যেও	-10.7542
▁নদীতে	-10.7549
▁দশম	-10.755
▁স্বেচ্ছাসেবক	-10.755
মতে	-10.755
▁জর্জিয়া	-10.7553
ফুল	-10.7556
▁অধ্যাদেশ	-10.7562
▁ফোর্স	-10.7565
ন্সি	-10.7567
▁বাজারের	-10.757
▁অভিভাবক	-10.7574
▁নলকূপ	-10.7574
▁বাবু	-10.7574
▁বর্জন	-10.7577
▁মাকে	-10.7579
▁ফ্ল	-10.7585
▁দাসত্ব	-10.7586
ন্দি	-10.7588
▁পেরু	-10.759
বাড়ী	-10.7594
▁ব্যভিচার	-10.7595
ালয়	-10.7596
▁কথিত	-10.7597
কাত	-10.76
▁প্রতিজ্ঞাত	-10.7602
▁জ্বালানি	-10.7604
হাদ	-10.7606
ঘু	-10.7607
▁ফোল্ডারের	-10.7607
▁হ্যান্ড	-10.7609
▁অক্ষম	-10.7612
▁যৌনতা	-10.7615
▁করিম	-10.7616
াট	-10.7618
▁আলোক	-10.762
▁সংখ্যালঘু	-10.762
▁মাইন	-10.7622
▁পাঠাতে	-10.7624
▁যাহারা	-10.7624
▁বাহিরে	-10.7627
▁পায়ে	-10.7627
ইয়োব	-10.7631
▁নগরী	-10.7632
▁মৃতদেহ	-10.7633
▁উঠল	-10.7633
▁কালের	-10.7633
▁পুরা	-10.7635
▁ডক	-10.7637
▁ভীত	-10.7638
প্রকাশ	-10.764
▁১৯৫৯	-10.7644
▁ফোরাম	-10.7646
মানুষ	-10.7646
হন	-10.7647
▁গালাতীয়	-10.7651
▁অবদানের	-10.7655
▁মেডিক্যাল	-10.7656
ফিল্ড	-10.7657
▁নড়	-10.7666
গ্রি	-10.7667
মেল	-10.7667
▁এলি	-10.7673
দম	-10.7674
ত্রি	-10.7676
▁মসজিদটি	-10.7677
ম্মা	-10.7677
▁পরিকল্পনার	-10.7679
▁শৈশব	-10.7679
▁গ্র্যান্ড	-10.7681
▁৮৫	-10.7684
▁যিহিষ্কেল	-10.7687
▁বোলিং	-10.7688
ক্ক	-10.7688
▁ভীষণ	-10.7691
▁হিংস্র	-10.7691
▁গোপনীয়তা	-10.7694
▁থাকব	-10.7701
▁উইকিপিডিয়া	-10.7703
▁১৯৫৫	-10.7703
▁প্রকৌশলী	-10.7704
▁শৌল	-10.7707
▁পাচার	-10.7709
▁জোসেফ	-10.771
প্রভু	-10.7712
▁দুনিয়া	-10.7712
শের	-10.7713
ুই	-10.7715
▁হামিদ	-10.7718
▁প্রমুখ	-10.7721
▁সহিংসতা	-10.7721
▁ক্রমে	-10.7723
াঞ্চল	-10.7723
▁খাপ	-10.7724
▁মোর	-10.7727
পান	-10.7728
▁দিয়েছিলাম	-10.773
▁ভদ্র	-10.7734
▁স্ক	-10.7737
▁ঘূর্ণিঝড়	-10.7738
▁এডওয়ার্ড	-10.7739
ডিং	-10.774
চ্চ	-10.7741
▁আরবের	-10.7742
রিয়	-10.7743
▁ভালোবাসি	-10.7752
▁শত্রুদের	-10.7758
য়ার্ড	-10.7758
▁জিতে	-10.7765
▁দ্রাঘিমাংশ	-10.7774
▁আপলোড	-10.7774
▁কর্মসংস্থান	-10.7774
হানি	-10.7777
▁ভাবা	-10.778
▁জাতিকে	-10.7781
▁কাজেই	-10.7782
▁বিনষ্ট	-10.7782
জুর	-10.7783
আজ	-10.7784
▁জনগোষ্ঠী	-10.7786
ত্যাগ	-10.7787
▁আত্মপ্রকাশ	-10.7792
▁ফারসি	-10.7793
আউট	-10.7795
▁তালিকার	-10.7797
▁উদ্যোগী	-10.7798
▁রাষ্ট্রদূত	-10.7798
▁তিনিই	-10.7799
▁১২০	-10.7804
▁আফ	-10.7805
▁মুম্বাই	-10.7808
▁পঞ্চাশ	-10.7811
সীমা	-10.7814
▁সাতটি	-10.7814
প্প	-10.7815
▁১০০০	-10.7815
▁কেস	-10.7816
▁রোগী	-10.7819
▁গোটা	-10.7819
▁রৌপ্য	-10.7822
▁দীর্ঘদিন	-10.7823
▁১৯৫৩	-10.7823
▁গ্রি	-10.7826
▁ফলস্বরূপ	-10.7826
▁গাড়ী	-10.7835
▁পৌঁছাতে	-10.7839
পুরের	-10.784
ারী	-10.7843
▁লাগাতে	-10.7846
▁ক্যাল	-10.7847
কারীর	-10.7853
▁গল্পের	-10.7854
▁সত্যিকার	-10.7855
দন	-10.7857
▁শাখার	-10.786
▁ভোর	-10.7862
▁সাদ	-10.7864
▁সফলতা	-10.7867
এসএ	-10.7867
▁মেটা	-10.7871
▁এটাও	-10.7872
▁প্রবিধান	-10.7872
▁প্রার্থনায়	-10.7873
▁স্ত্রীলোক	-10.7875
▁প্রজন্ম	-10.7876
▁১৯৪৩	-10.7876
চল	-10.7877
▁বৈচিত্র্য	-10.7877
বিচার	-10.7881
▁অংশগ্রহণের	-10.7885
▁লিপ্ত	-10.7887
▁বেঁধে	-10.7894
▁প্রত্যেকটি	-10.7895
▁জমিদারি	-10.7901
▁ভূমির	-10.7904
▁পরাজয়	-10.7906
▁স্মরণে	-10.7911
হী	-10.7913
▁পররাষ্ট্র	-10.7915
▁কর্নেল	-10.7918
▁উপসংহারে	-10.7919
▁স্বস্তি	-10.7919
▁সহায়তায়	-10.7926
▁শিরোনামে	-10.7927
▁শুনেছি	-10.7929
▁১৯৪২	-10.793
▁ফ্যাশন	-10.7932
▁গাওয়া	-10.7932
▁শিল্পকলা	-10.7933
▁সাথি	-10.7933
▁অনন্য	-10.7934
▁চিকিৎসার	-10.7935
▁মহাসাগরীয়	-10.7935
▁ফুটবলার	-10.7937
▁পৃথিবীকে	-10.794
▁আওতাধীন	-10.7942
ক্ট	-10.7942
▁প্রশাসক	-10.7943
▁ইন্টারনেটে	-10.7946
ুনি	-10.7948
▁যতই	-10.7949
▁কয়	-10.7951
বার্ট	-10.7953
▁সবই	-10.7953
▁অত্যধিক	-10.7954
ন্টো	-10.7954
▁লস	-10.7955
▁৭১	-10.796
▁গর্বিত	-10.7963
▁লুকা	-10.7967
▁ছেলেমেয়েরা	-10.7971
▁অনৈতিক	-10.7971
কারণে	-10.7975
যো	-10.7977
▁যুক্তরাজ্য	-10.7981
▁ভ্রমণের	-10.7981
▁রম	-10.7982
▁৬৮	-10.7984
২০১৩	-10.7985
▁বিবাহের	-10.7988
▁বিস্মিত	-10.799
▁সায়	-10.7995
▁মাত্রায়	-10.7997
▁ইসরায়েল	-10.7998
▁জাত	-10.8
▁বোনের	-10.8004
▁ফাঁক	-10.8004
জ্	-10.8006
কাশ	-10.8006
▁প্রণালী	-10.8008
২০১০	-10.8009
য়েস	-10.801
▁পুত্রের	-10.8012
এখন	-10.8013
▁তাঁহাকে	-10.8015
▁প্রযোজনা	-10.8015
▁পারছে	-10.8018
গোষ্ঠী	-10.8024
▁উল্লেখ্য	-10.8026
▁পাঠকদের	-10.8026
▁রাস্তাটি	-10.8026
▁কার্টুন	-10.8028
▁বাজানো	-10.8028
▁কোনটা	-10.8029
▁স্ক্র	-10.8033
▁সঙ্কট	-10.8038
▁এইচআইভি	-10.8039
▁প্রস্ত্তত	-10.8039
িমা	-10.8039
▁এড়াতে	-10.804
▁সিঁড়ি	-10.8041
যি	-10.8042
▁প্রক্রিয়ায়	-10.8043
▁গঠনমূলক	-10.8043
▁জনগণকে	-10.8045
▁বহি	-10.8045
ল্যা	-10.8046
▁হোয়াইট	-10.8047
▁জানত	-10.805
ওয়েল	-10.8053
▁লেবেল	-10.8053
▁দেশীয়	-10.8054
▁মিসেস	-10.8057
▁অপরকে	-10.8057
▁গোলাম	-10.8058
ম্বর	-10.806
▁বানান	-10.806
▁তলা	-10.8062
িলা	-10.8063
নীর	-10.8064
▁রাইটস	-10.8064
▁প্রকৃতই	-10.8064
▁হুম	-10.807
▁কানে	-10.8073
▁তথ্যসূত্র	-10.8073
মানব	-10.8076
মাংস	-10.8077
▁বাহ	-10.8085
িভ	-10.8086
চিত্ত	-10.8087
ইয়ে	-10.8094
স্কো	-10.8094
▁পুনরুত্থানের	-10.8097
▁নাগরিকের	-10.8098
▁পথের	-10.8098
▁সর্বমোট	-10.81
▁লেনদেন	-10.81
▁মিথ	-10.8101
▁খি	-10.8103
▁৪০০	-10.8106
▁বাহাদুর	-10.8112
▁কোয়া	-10.8116
▁জিনিষ	-10.8116
▁দৌড়ে	-10.8118
▁গেলেন	-10.8119
▁সনদ	-10.812
▁কাজটা	-10.8121
▁আনে	-10.8122
▁অপহরণ	-10.8125
গোল	-10.8128
▁সাময়িক	-10.8129
▁বুঝিয়ে	-10.8133
▁১৯৪৪	-10.8134
▁বিক্ষোভের	-10.8135
▁আঁক	-10.8137
▁আসবেন	-10.8142
রেজ	-10.8143
▁প্রথমদিকে	-10.8144
▁মেয়েরা	-10.8144
▁মিডিয়ার	-10.8145
▁অ্যাক্ট	-10.8155
▁এগুলির	-10.8155
▁অফিসের	-10.8156
▁মোটামুটি	-10.8162
এটি	-10.8162
▁লড়	-10.8168
▁প্রেরিতদের	-10.817
▁অনন্তজীবন	-10.8172
▁কথোপকথন	-10.8172
▁প্রলোভন	-10.8174
▁বিষয়গুলোকে	-10.8175
▁নিরুৎসাহিত	-10.8187
এসপি	-10.8187
▁বাস্তবে	-10.819
সমাজ	-10.8194
▁ইসলামি	-10.8195
▁রব	-10.8197
▁সেন্ট্রাল	-10.8199
▁সাফ	-10.8199
▁ঝু	-10.8201
জাল	-10.8205
ডব্লিউ	-10.8208
▁পাশ্চাত্য	-10.8212
▁বৈদ্যুতিক	-10.8212
▁কিউবা	-10.8212
▁সিন্ধু	-10.8212
▁জৈন	-10.8213
▁অভ্যুত্থান	-10.8215
▁লেক	-10.8219
সঙ্গীত	-10.8224
▁৮৮	-10.8234
▁কণ্ঠস্বর	-10.8238
হাট	-10.8238
▁প্রশাসনের	-10.8238
▁স্বার্থপর	-10.8239
▁মেয়েটা	-10.8245
▁মৃত্যুতে	-10.8248
টল	-10.8248
▁হাইস্কুল	-10.8249
▁সময়কাল	-10.825
▁থেমে	-10.8251
▁অ্যান	-10.8251
ওয়ার্ড	-10.8253
নিয়ার	-10.8255
▁গাড়িতে	-10.8257
▁বিবেচনায়	-10.826
▁ইংলিশ	-10.8261
▁কৌ	-10.8262
▁উৎসবে	-10.8263
▁টুল	-10.8264
▁জলে	-10.8269
নারী	-10.8271
▁সিদ্ধান্তের	-10.8272
▁সন্	-10.8272
▁নাইজেরিয়া	-10.8274
▁ফ্র	-10.8275
রিও	-10.8276
▁ঠা	-10.8277
▁তাহাকে	-10.8281
▁তোকে	-10.8282
▁জরিমানা	-10.8286
্বে	-10.8287
ধূ	-10.8289
▁বাড়ী	-10.8295
▁ব্র	-10.83
▁আড়	-10.8305
▁সৌর	-10.8306
▁ঝাড়	-10.8307
বেশ	-10.8308
▁শাকসবজি	-10.8312
▁বোঝানো	-10.8313
বিধান	-10.8318
▁দেখিয়েছিল	-10.8319
▁আরাম	-10.832
▁ক্ষুধা	-10.8324
▁পরমাণু	-10.8324
▁প্রবেশের	-10.8332
▁আঁ	-10.8335
▁গুড	-10.8336
▁৯১	-10.8339
▁গুণগত	-10.8339
ফ্রে	-10.834
ব্বা	-10.8342
ীয়দের	-10.8343
▁কর্মকর্তারা	-10.8346
▁অন্যকে	-10.8347
▁পিট	-10.8347
▁হট	-10.8349
▁তথাপি	-10.8354
▁সবক	-10.8356
▁ধারায়	-10.8357
চক্র	-10.8364
▁ডায়	-10.8365
▁পাশের	-10.8365
▁স্ট	-10.8365
......	-10.8367
▁দাঁড়াও	-10.8368
ডোর	-10.8369
▁মার্কেট	-10.8374
▁ঘট	-10.8374
প্রদান	-10.8374
াইন	-10.8376
ন্যা	-10.8378
▁মেক্সিকোর	-10.8378
ক্ষু	-10.8379
▁তুলনামূলকভাবে	-10.838
▁টিন	-10.8381
▁ভিক্টোরিয়া	-10.8387
্জি	-10.8387
▁গ্রন্থে	-10.8387
ালী	-10.839
▁খুঁজতে	-10.84
▁স্মারক	-10.84
▁যশোর	-10.84
পাশে	-10.8404
ব্র	-10.8408
▁নিষেধ	-10.8409
▁অন্যরা	-10.8409
▁পেরেছে	-10.8412
▁মাঝখানে	-10.8413
সময়ের	-10.8419
▁তত্ত্বাবধান	-10.842
্রে	-10.8421
▁প্রকা	-10.8423
▁শিরোপা	-10.8425
▁হত্যাকাণ্ড	-10.8425
▁বণিক	-10.8425
▁প্রতাপ	-10.8426
▁ঠান্ডা	-10.8428
▁বটে	-10.8429
▁ছাত্রী	-10.8433
▁ঘোড়ার	-10.8442
▁বাবাকে	-10.8443
▁কানাডার	-10.8446
▁প্রসব	-10.8446
▁আগ্রহের	-10.8447
▁স্বয়ংক্রিয়	-10.8451
▁ডকুমেন্ট	-10.8451
▁রিসার্চ	-10.8451
▁সোশ্যাল	-10.8451
▁পিরামিড	-10.8451
▁মহামারী	-10.8451
▁শোনেন	-10.8455
ম্বল	-10.8457
▁উৎসবের	-10.8459
▁ক্লো	-10.8462
▁ব্লু	-10.8462
▁বেশীরভাগ	-10.8463
▁সাহিত্যে	-10.8467
▁মাতৃ	-10.847
▁প্লেট	-10.8472
▁মুজিবুর	-10.8477
▁শীঘ্র	-10.8478
▁অভাবে	-10.8478
স্কার	-10.848
▁বর্ষ	-10.8481
▁গড়া	-10.8481
্রা	-10.8482
▁মিনার	-10.8484
চ্ছিল	-10.8486
▁আশেপাশের	-10.8488
▁গোত্র	-10.8489
▁ব্যাটসম্যান	-10.8489
▁ভয়ঙ্কর	-10.8489
▁পাল্টা	-10.849
▁লাইভ	-10.8496
ীত	-10.8499
▁৮৬	-10.8501
▁রোগে	-10.8502
▁পঞ্চ	-10.8503
▁পতনের	-10.8504
▁সরবরাহের	-10.8507
▁সম্পর্ককে	-10.8509
▁পেজ	-10.8513
▁সংক্রমণ	-10.8514
▁আরোগ্য	-10.8515
▁দৌড়া	-10.8523
▁মিনি	-10.8523
▁সম্পত্তির	-10.8524
▁স্বত্ব	-10.8526
▁প্রস্থ	-10.8528
▁নগরের	-10.8528
▁অপ্রত্যাশিত	-10.8529
▁মৌল	-10.8535
▁প্রেমপূর্ণ	-10.8535
কোর	-10.8536
ক্রে	-10.8537
দেশীয়	-10.8537
▁বুল	-10.8538
▁ধ্বনি	-10.8541
▁সত্তা	-10.8546
▁সন্ধ্যায়	-10.8547
▁ঠিকই	-10.8548
▁শিশুরা	-10.8552
▁এক্সচেঞ্জ	-10.8553
▁ব্রাজিল	-10.8557
কলা	-10.8558
▁আসনে	-10.8559
▁দেখিয়েছেন	-10.8563
▁৬৯	-10.8563
▁খোদা	-10.8564
▁গিয়া	-10.8565
▁নেবেন	-10.8566
▁উত্তেজিত	-10.8566
▁অনন্তকাল	-10.8568
▁রুমে	-10.8569
▁মিশ্রণ	-10.8569
▁বিভাগীয়	-10.8573
▁ব্লা	-10.8573
▁পর্যটক	-10.8573
দেহ	-10.8575
পাট	-10.8583
▁ভিড়	-10.8583
রাহ	-10.8583
ড়ী	-10.8583
▁নবী	-10.8586
▁নিচ্ছে	-10.8587
▁বদ্ধ	-10.8588
▁করানো	-10.8589
▁শিল্পকর্ম	-10.859
▁অবহেলা	-10.8592
▁পৌর	-10.8592
▁শিখেছি	-10.8593
▁দলীয়	-10.8594
▁মুন	-10.86
▁ক্ষ	-10.86
▁ল্যাংডনের	-10.86
লেও	-10.86
▁ঈদ	-10.8601
▁শিষ্যরা	-10.8601
▁করেছেনঃ	-10.8601
▁ম্যাপ	-10.8603
▁একাদশ	-10.8605
▁মহাপরিচালক	-10.8605
▁লড়াইয়ে	-10.8611
▁৭৪	-10.8611
▁ডাচ	-10.8614
▁সংস্কারের	-10.8615
▁বিবাদ	-10.8616
▁ব্রাহ্মণ	-10.8617
মারা	-10.8617
▁চাকুরী	-10.8618
▁ঝগড়া	-10.8618
▁অভিযানের	-10.8618
▁স্রোত	-10.8619
▁প্যাকেজ	-10.8619
▁পৌঁছায়	-10.8621
এনএ	-10.8624
▁"[	-10.8626
▁স্থানের	-10.8626
▁মধু	-10.863
য়েজ	-10.863
▁বিপজ্জনক	-10.863
▁পুনর্গঠন	-10.8631
▁ব্রাজিলের	-10.8631
▁ইত্যাদির	-10.8641
▁স্বর্গদূত	-10.8642
▁আধিপত্য	-10.8643
▁খেলাধুলা	-10.8643
▁অজ্ঞাত	-10.8644
▁কনফিগারেশন	-10.8644
▁ট্রফি	-10.8645
▁প্রবেশাধিকার	-10.8646
▁ঝি	-10.8646
▁ভোজন	-10.8648
ঢ	-10.8654
▁সংকলন	-10.8656
িনি	-10.8658
▁সমৃদ্ধি	-10.8658
▁শুনুন	-10.8658
▁প্লেন	-10.8658
▁আতঙ্ক	-10.8665
▁অর	-10.8669
স্বাস্থ্যকেন্দ্র	-10.8677
▁ইংল্যান্ডে	-10.8683
▁রেজিমেন্ট	-10.8683
▁আশঙ্কা	-10.8684
▁প্রবেশপথ	-10.8687
▁ব্রাউজার	-10.869
সাধারণ	-10.8693
▁উত্তীর্ণ	-10.8695
▁চেয়েছিলাম	-10.8696
▁ক্র	-10.8697
▁কাছেই	-10.8699
▁আলোচিত	-10.8699
বর্ধন	-10.87
▁সন্ত্রাস	-10.8703
▁হিসেবেও	-10.8704
▁মৃদু	-10.8704
সিটি	-10.8705
▁অস্পষ্ট	-10.8709
▁তথাকথিত	-10.8709
▁মিনিটে	-10.8709
▁খুলুন	-10.8709
▁গ্রহন	-10.8711
এসএস	-10.8711
▁ফিজি	-10.8713
▁সাহিত্যিক	-10.8721
▁ভূগর্ভস্থ	-10.8722
▁বেসরকারী	-10.8722
▁ব্রোঞ্জ	-10.8722
▁৯৫	-10.8724
▁উদ্ধৃত	-10.8725
▁দাসেরা	-10.8725
▁অর্থের	-10.8726
▁প্রশিক্ষণের	-10.8727
▁চাচা	-10.8727
▁সিস্টেমের	-10.873
সিদ্ধ	-10.8733
।'-	-10.8734
▁ফরম্যাট	-10.8735
▁স্বাগতম	-10.8735
▁দেখাবে	-10.8736
থন	-10.8737
▁নিপীড়ন	-10.8737
▁নিল	-10.874
▁দাঁড়িয়েছে	-10.8741
রুশ	-10.8742
▁ছেলেকে	-10.8743
▁প্রজন্মের	-10.8745
াচার	-10.8746
ফোর	-10.8746
▁মরুভূমি	-10.8748
▁অভিধান	-10.8749
▁ক্ল	-10.875
াউন্ড	-10.8751
বাবা	-10.8754
▁প্রতিবেদনে	-10.8755
▁শুচি	-10.8755
▁দায়ে	-10.8756
▁স্পেনের	-10.8756
▁রাশি	-10.876
▁প্রতিবাদে	-10.8762
হাত	-10.8763
▁জার	-10.8763
স্থা	-10.8764
▁ক্যাপ	-10.8766
▁ট্যাব	-10.8767
▁ইনিংসে	-10.8768
▁বাহন	-10.8768
▁কেজি	-10.8768
▁বাড়তি	-10.8774
নির্ভর	-10.8775
▁এলো	-10.8776
পোল	-10.8779
▁বিষয়টিকে	-10.8781
▁আপনিও	-10.8783
▁গ্লাস	-10.8787
▁নিলাম	-10.879
▁শিক্ষকদের	-10.8792
▁শুয়ে	-10.8792
▁চরিত্রের	-10.8795
▁শীতল	-10.8798
▁টেকনোলজি	-10.88
▁প্যানেল	-10.8802
হ্যা	-10.8807
▁আকৃতি	-10.8813
▁পর্নোগ্রাফি	-10.8814
▁প্রাইভেট	-10.8814
▁প্ররোচিত	-10.8814
▁লাইনের	-10.8815
▁পোস্টটি	-10.8816
বৃদ্ধি	-10.8816
▁খ্রিস্টপূর্ব	-10.8822
▁খলিফা	-10.8827
▁ফেলুন	-10.8828
▁ডন	-10.8829
ত্তর	-10.883
▁জটিলতা	-10.8836
▁অবস্থানের	-10.8838
▁আটকা	-10.884
▁আলোচনায়	-10.884
▁ভয়ানক	-10.884
▁বিষ্ণু	-10.8853
▁পর্বতমালা	-10.8854
সূচি	-10.8854
▁ফ্রান্সে	-10.8857
▁সহস্র	-10.8857
▁ম্যারি	-10.886
▁বিশ্বস্ততা	-10.8861
▁প্রস্থান	-10.8862
ভূত	-10.8863
মুল	-10.8863
▁গাই	-10.8866
▁ঘো	-10.8866
▁অনুপ্রেরণা	-10.8867
ছু	-10.8867
ডল	-10.8873
▁প্রাণি	-10.8875
▁গোত্রের	-10.8878
▁বলিদান	-10.8879
শ্বর	-10.8879
▁যখনই	-10.8879
▁অপরিচিত	-10.888
▁ভীতি	-10.888
▁সংলগ্ন	-10.8886
প্রকার	-10.8888
ইং	-10.8889
▁খুজে	-10.8889
একজন	-10.889
দক্ষিণ	-10.8891
প্রথম	-10.8893
ুদ্দিন	-10.8894
োনা	-10.8895
▁মেয়েটি	-10.8895
▁পূর্ণসময়	-10.8895
▁জাফর	-10.8897
▁কোল	-10.89
▁কামাল	-10.8901
▁বন্য	-10.8902
▁ডিসেম্বরে	-10.8904
▁দিলাম	-10.8905
▁সাহিত্যাদি	-10.8908
কৃতি	-10.8916
ফ্রি	-10.8919
▁জমিতে	-10.892
▁চট্টগ্রামের	-10.8922
▁মেঘনা	-10.8923
▁এসময়	-10.8925
▁ক্রো	-10.8926
▁বিড়াল	-10.8927
▁ব্রু	-10.8929
ঝা	-10.8931
্লা	-10.8932
▁কতিপয়	-10.8933
▁ইউসুফ	-10.8933
▁গোল্ড	-10.8935
▁অনেকগুলি	-10.8943
▁আফ্রিকায়	-10.8945
▁প্রসঙ্গ	-10.8946
▁কোট	-10.8946
মনুষ্য	-10.8948
▁লক	-10.895
▁চাচ্ছি	-10.895
▁ক্রিস	-10.8958
▁গিলিয়েড	-10.896
▁পাকসেনা	-10.896
▁দাসের	-10.896
ম্বু	-10.8961
▁আন্ত	-10.8963
উর	-10.8967
▁১৯৩৭	-10.8969
▁কারাগার	-10.897
▁৯৭	-10.8971
▁বাষ্প	-10.8971
▁উক্তি	-10.8975
▁সূর্যের	-10.8977
▁দিলো	-10.8977
অন	-10.8981
ধ্যা	-10.8984
▁তিব্বত	-10.8987
▁মহাকাশ	-10.8988
▁বুঝ	-10.8992
▁সাংবাদিকদের	-10.8992
রঞ্জন	-10.8994
ঙ্গু	-10.8995
▁আর্জেন্টিনা	-10.8998
▁কমন্স	-10.9002
▁আবাস	-10.9002
▁অনুবাদক	-10.9005
▁কেড়ে	-10.9005
▁সাধু	-10.9006
▁ছেলেমেয়ে	-10.9007
▁বাহির	-10.9011
▁করিল	-10.9016
খালী	-10.9017
বোন	-10.9019
▁সমূহ	-10.9023
▁স্মিথ	-10.9027
▁১৯৩৯	-10.9028
▁গোপনে	-10.9029
▁ফিল্ড	-10.904
▁ভিডিওটা	-10.904
▁মীমাংসা	-10.9041
▁ল্যাঙডন	-10.9041
▁সিম	-10.9043
▁পেরেছিলাম	-10.9045
▁খাট	-10.9049
▁ফ্রেম	-10.9051
▁সাংবিধানিক	-10.9054
▁তল	-10.9054
▁রীতিনীতি	-10.9055
▁তুরস্ক	-10.9064
▁সাড়ে	-10.9065
ভুত	-10.9066
▁নগদ	-10.9068
▁৭৬	-10.9075
▁একান্ত	-10.9078
▁সার্বভৌম	-10.908
▁আঠারো	-10.9083
▁আজাদ	-10.9084
াকৃতির	-10.9084
মাদ	-10.9086
▁অনুসন্ধানের	-10.9089
▁দেখব	-10.9094
▁প্রজেক্ট	-10.9095
▁পক্ষের	-10.9095
▁ফ্লাইট	-10.9096
▁৭৭	-10.9097
▁ট্র	-10.9098
▁পাপী	-10.9099
▁শ্যা	-10.91
▁গন্তব্য	-10.9102
▁নিজেরা	-10.9102
সেস	-10.9102
বর্তমানে	-10.9104
▁ভাবি	-10.9104
▁মাছের	-10.9105
▁খোল	-10.9105
▁পোস্টার	-10.9105
▁আলেকজান্ডার	-10.9108
▁টেলি	-10.9109
▁তিমি	-10.9109
▁লেখিকা	-10.911
▁খোঁজার	-10.9112
▁মাযার	-10.9113
বিধ	-10.9115
▁ইংরেজিতে	-10.9118
স্যা	-10.912
▁প্রধানমন্ত্রীর	-10.912
▁যেখান	-10.9122
কান্ত	-10.9122
মহাক্লেশ	-10.9122
▁উদ্বুদ্ধ	-10.9122
▁ধূসর	-10.9122
▁রদবদল	-10.9122
▁খবরের	-10.9124
▁সিংহাসনে	-10.9127
▁কিসের	-10.9128
▁নির্যাতনের	-10.913
▁গেলাম	-10.9132
২০০৯	-10.9132
▁অবিচার	-10.9133
েকশন	-10.9133
▁সমস্তকিছু	-10.9133
স্থানে	-10.9134
▁ধ্বংসের	-10.9135
▁আবির্ভূত	-10.9136
▁বগুড়া	-10.9136
▁দৃঢ়সংকল্পবদ্ধ	-10.9136
▁পন্থা	-10.9137
▁সাদৃশ্য	-10.9137
সনের	-10.9138
▁পশুর	-10.9138
▁রাণী	-10.9139
▁রণ	-10.914
বাল	-10.9141
শাল	-10.9142
▁স্টেশনে	-10.9143
▁গণহত্যা	-10.9149
▁ঠেক	-10.9152
োতে	-10.9157
সাস	-10.9158
▁জঘন্য	-10.9163
▁গৌড়	-10.9163
▁সর্বনিম্ন	-10.9163
▁পৃথিবীব্যাপী	-10.9164
▁ব্র্যান্ড	-10.9168
পস	-10.9169
▁ট্রেনিং	-10.917
দানি	-10.9174
▁এক্সপ্রেস	-10.9176
▁মধ্যযুগীয়	-10.9177
▁ফাংশন	-10.9177
ব্রে	-10.9177
▁শিলালিপি	-10.9177
▁টের	-10.9178
▁নির্দেশক	-10.9179
▁রেশম	-10.918
▁বিলি	-10.9181
ডন	-10.9183
▁লুই	-10.9185
▁ঘুর	-10.9186
▁পড়েছিলেন	-10.9187
ব্যয়	-10.9188
▁স্বাস্থ্যের	-10.9188
ন্ডে	-10.9189
▁সম্মুখ	-10.9189
▁অপ্রয়োজনীয়	-10.919
▁ভয়ংকর	-10.919
▁সৈন্যরা	-10.9192
ভাষা	-10.9193
পদ্ধতি	-10.9193
▁পক্ষপাত	-10.9198
▁বাঁচিয়ে	-10.9199
▁নির্দেশিকা	-10.9199
▁সম্পূর্ণভাবে	-10.9201
২০০৭	-10.9203
লজি	-10.9204
▁আঙ্গুল	-10.9204
▁খাঁ	-10.9205
▁পাবার	-10.9206
▁একাডেমিক	-10.921
ঙ্	-10.9216
পানি	-10.9217
▁চিরস্থায়ী	-10.9218
▁দিবেন	-10.922
▁আশ	-10.9222
▁রোগীর	-10.9224
▁দোকানে	-10.9227
পণ	-10.9229
▁টোকিও	-10.9231
বাক্য	-10.9232
▁তারপরেও	-10.9233
▁আপাত	-10.9233
▁ইম	-10.9235
ামি	-10.9235
বাণিজ্য	-10.9235
▁ভূত	-10.9239
▁১৯৩৫	-10.9242
▁কুই	-10.9244
▁পূর্বপুরুষ	-10.9246
▁বালু	-10.9247
▁গৃহযুদ্ধ	-10.9247
সাল	-10.9247
▁তুচ্ছ	-10.9248
▁ডব্লিউ	-10.9249
▁প্রবাসী	-10.9251
▁সুন্দরী	-10.9251
▁বসা	-10.9252
োলজি	-10.9252
সুলভ	-10.9259
▁বাছাইপর্ব	-10.926
▁ডিরেক্টর	-10.926
▁সাজ	-10.9261
পাকিস্তান	-10.9262
▁বেকার	-10.9263
▁বইটা	-10.9264
▁যতদিন	-10.9267
▁ড্রাইভ	-10.9268
▁স্থপতি	-10.9273
▁খোদাই	-10.9273
▁স্থায়ীভাবে	-10.9273
▁৮৩	-10.9277
লিয়ান	-10.9279
বৎ	-10.9281
বুক	-10.9283
▁ফ্রাঙ্ক	-10.9284
▁শহুরে	-10.9287
▁সত্যতা	-10.9288
▁ঘরোয়া	-10.929
▁ডঃ	-10.9291
শিয়ান	-10.9293
িণী	-10.9298
কাটা	-10.9298
লেক	-10.9299
▁উপকারী	-10.93
▁খাদ্যের	-10.93
▁কাল্পনিক	-10.9301
▁বিক্রেতা	-10.9301
▁ব্রহ্মপুত্র	-10.9301
ড়ানো	-10.9301
▁অর্জিত	-10.9301
২০০০	-10.9303
▁স্ক্রিন	-10.9304
▁দুষ্টতা	-10.9304
▁স্টাফ	-10.9304
য়াজ	-10.9305
▁মাফ	-10.9309
▁প্রচেষ্টায়	-10.9311
▁যমুনা	-10.9312
▁১৯৪১	-10.9314
▁দীপ্তি	-10.9315
▁এলে	-10.9317
▁৯৪	-10.9317
▁ব্যানার	-10.932
▁বিজ্ঞতার	-10.9321
দানের	-10.9321
▁সাহা	-10.9323
▁ঘোষনা	-10.9325
▁ছি	-10.9327
▁আংশিক	-10.9328
▁বৈশ্বিক	-10.9328
▁মিয়ানমার	-10.9328
িয়ায়	-10.9329
▁প্রত্যেকে	-10.933
▁সম্মত	-10.9331
▁আসত	-10.9332
▁টুকরা	-10.9332
▁গ্ল	-10.9333
শাসিত	-10.9333
▁থামো	-10.9334
▁উইন্ডোজ	-10.9334
▁ওয়েলস	-10.934
▁কথাই	-10.9343
▁খড়	-10.9343
▁ভূগোল	-10.9343
িয়ন	-10.9343
▁হিরো	-10.9345
▁বার্মা	-10.9349
▁আজও	-10.935
সেবা	-10.935
বৈ	-10.935
▁৭৮	-10.9351
▁উঠছে	-10.9353
▁অববাহিকা	-10.9356
▁বেইজিং	-10.9356
▁পদমর্যাদা	-10.9357
▁সমবায়	-10.9358
▁ভুটান	-10.9358
▁ব্যবস্থাপক	-10.9358
▁জায়গার	-10.9362
▁সেইসব	-10.9363
স্ট্রি	-10.9366
ব্রি	-10.9367
থো	-10.9368
▁কালা	-10.9369
▁গরু	-10.9371
ল্ফ	-10.9372
▁ভগ্ন	-10.9373
▁বিধিব্যবস্থার	-10.9374
▁শান্তিতে	-10.9375
পন্ন	-10.9375
হাব	-10.9376
কক্ষ	-10.9378
সেন্ট	-10.938
ণে	-10.9383
▁আবারো	-10.9383
▁উত্তোলন	-10.9384
▁ধ্বংসাবশেষ	-10.9384
▁কোথা	-10.9385
ট্রো	-10.9385
▁নেবার	-10.9395
▁মোটর	-10.9395
ক্টর	-10.9397
▁নির্দোষ	-10.9398
▁দাতা	-10.9399
▁একতাবদ্ধ	-10.9399
▁প্রচারে	-10.9401
রায়	-10.9404
দশ	-10.9405
▁বাধ্যতা	-10.9406
মারি	-10.9408
বচন	-10.941
▁ইঞ্চি	-10.9415
▁জিম	-10.9419
▁সোয়া	-10.942
▁সুখের	-10.9421
▁সমতা	-10.9422
▁পারছেন	-10.9424
▁বলবো	-10.9425
▁পৃ	-10.9426
▁তত্ত্বাবধায়ক	-10.9426
▁স্বরাষ্ট্র	-10.9427
▁বস্তুর	-10.9428
▁কাই	-10.9429
উল্লাহ	-10.9432
▁অবগত	-10.9432
▁বাক্যে	-10.9434
▁দক্ষতার	-10.9434
▁প্রযুক্তিগত	-10.9437
▁উহা	-10.9438
▁পরিমান	-10.944
▁ঝুল	-10.944
▁বিদ্রোহের	-10.9441
▁পুড়িয়ে	-10.9441
দর্শ	-10.9441
▁আকৃতির	-10.9445
▁তাড়া	-10.9446
োভ	-10.9447
▁উঠি	-10.9447
বিন্যাস	-10.945
▁দেননি	-10.9451
▁সংশোধনী	-10.9453
▁মৌখিক	-10.9454
▁ফিলিস্তিন	-10.9454
রক্ষক	-10.9458
▁বার্তাটি	-10.9461
▁স্বার্থে	-10.9461
▁জানিনা	-10.9462
▁প্রচারাভিযান	-10.9468
ংগ	-10.9471
রেক	-10.9474
▁শাসকদের	-10.9477
▁বায়ো	-10.9478
ুদ্দীন	-10.9482
▁প্রেমে	-10.9482
▁অস্বাস্থ্যকর	-10.9482
▁প্রত্নতাত্ত্বিক	-10.9482
▁স্লোগান	-10.9483
▁জড়ো	-10.9483
▁কার্যাবলী	-10.9484
▁হাবিব	-10.9484
▁সদয়	-10.9484
▁নির্ভরতা	-10.9486
▁থানার	-10.9489
খণ্ড	-10.949
▁বেই	-10.949
▁ঘাট	-10.9491
শান্তি	-10.9493
মাণ	-10.9497
▁হাইওয়ে	-10.95
▁যাচ্ছ	-10.9501
▁সৃজনশীল	-10.9501
▁১৯২১	-10.9503
তালিকা	-10.9503
সর্গ	-10.9503
▁বন্যার	-10.9504
▁শালা	-10.9507
▁উত্থাপিত	-10.9511
▁আগা	-10.9515
▁সরু	-10.9516
▁পাখির	-10.9517
▁বিতর্কের	-10.9517
▁মনোভাবের	-10.9518
কর্ষ	-10.9518
সূত্র	-10.952
▁ইচ্ছার	-10.9524
▁সৌভাগ্য	-10.9525
▁এজেন্সি	-10.9525
▁সামগ্রিক	-10.953
্কা	-10.9532
▁প্রথমবার	-10.9535
▁এদেশে	-10.9535
▁তদ	-10.9535
▁৯২	-10.9535
াং	-10.9535
▁চূর্ণ	-10.9537
▁প্রখ্যাত	-10.9541
চিহ্ন	-10.9541
▁ছেলেদের	-10.9541
▁চূড়া	-10.9542
গ্রো	-10.9542
মধ্যে	-10.9543
▁বাচ্চারা	-10.9544
▁ত্বক	-10.9545
▁মস্তিষ্কের	-10.9548
▁প্রসঙ্গে	-10.9548
▁নক্ষত্র	-10.955
▁ইরানি	-10.955
ড্রা	-10.9552
▁হিমালয়	-10.9554
▁জ্বর	-10.9554
▁আনোয়ার	-10.9554
পার্ট	-10.9558
▁কৃষকদের	-10.956
▁গভীরতা	-10.956
▁কাউ	-10.9566
▁নীতিনিষ্ঠা	-10.9567
▁পড়লে	-10.9572
▁অঞ্চলটি	-10.9574
▁ফায়ার	-10.9574
▁গ্র	-10.9576
▁দ্বৈত	-10.9582
গ্যা	-10.9585
সামাজিক	-10.9588
▁অবনতি	-10.9589
পূর্বে	-10.9592
সরকার	-10.9595
▁স্পেস	-10.9596
▁পুনর্সাক্ষাৎ	-10.9596
▁ব্রহ্ম	-10.9598
▁মহকুমা	-10.96
্তা	-10.9601
মুরগির	-10.9602
▁খুলতে	-10.9604
▁লেডি	-10.9604
▁অধীনস্থ	-10.9605
▁চট	-10.9605
▁ইলেকট্রনিক	-10.961
▁বন্দোবস্ত	-10.961
▁স্কটল্যান্ড	-10.9611
▁ততক্ষণ	-10.9612
▁হিসেব	-10.9612
▁জীবিকা	-10.9614
যিহোবার	-10.9618
▁সমস্যাগুলো	-10.962
▁গরুর	-10.9623
▁আখ্যায়িত	-10.9624
▁ল্যান্ড	-10.9626
▁ডিএনএ	-10.9632
জীব	-10.9634
▁বনাম	-10.9636
▁বিবাহবিচ্ছেদ	-10.9639
▁ভদ্রমহিলা	-10.9639
▁প্রত্যাবর্তন	-10.9639
▁ব্লগিং	-10.9639
▁অর্থনীতিতে	-10.9639
▁দ্বিগুণ	-10.964
▁বিশেষত্ব	-10.9644
সময়ে	-10.9645
▁প্রাপ্য	-10.9649
ধ্ব	-10.9652
▁গড	-10.9653
▁আউ	-10.9656
▁নর্থ	-10.9658
স্টো	-10.9662
▁হকি	-10.9667
▁অপারেটিং	-10.9668
▁শিখি	-10.967
▁অষ্টম	-10.9671
ফুট	-10.9674
▁ধরেছে	-10.9677
▁মানা	-10.9679
▁সহানুভূতি	-10.968
▁সিকিউরিটি	-10.9681
▁প্লাগ	-10.9682
▁টেলিযোগাযোগ	-10.9682
▁জীবাণু	-10.9682
▁ব্যর্থতা	-10.9684
▁নায়ক	-10.9684
বরণ	-10.9687
▁পুরু	-10.9688
▁প্রমান	-10.9689
▁যাতায়াত	-10.9696
▁হাওড়া	-10.9696
▁ইনস্টল	-10.9696
▁বিরল	-10.9697
▁নিশ্চিতভাবে	-10.9697
সংখ্যক	-10.9698
▁পুরাণ	-10.9701
োরি	-10.9703
▁মোডে	-10.9704
▁তামাক	-10.9705
▁মিলন	-10.9707
▁কন্ট্রোল	-10.9711
▁মিলিটারি	-10.9711
প্লা	-10.9711
▁ইন্দো	-10.9715
▁ঘটানো	-10.9716
▁অন্ধকারে	-10.9716
▁লোকসংখ্যা	-10.9716
▁মৌসুমের	-10.9718
▁ওয়াটার	-10.9722
▁প্রজ্ঞাপন	-10.9727
▁কাবুল	-10.9729
কৌশল	-10.9729
▁ভোটার	-10.9731
যখন	-10.9732
▁ভাঙ্গা	-10.9733
▁প্রাণীদের	-10.9737
▁সমর্থনে	-10.9737
ত্ম	-10.9738
সারি	-10.9738
▁দ্বিতীয়ত	-10.974
▁উৎসর্গীকৃত	-10.9741
▁ব্যবসার	-10.9741
▁শিশুকে	-10.9744
▁পেত	-10.9744
▁সুন্দরবন	-10.9745
▁পাতার	-10.9746
▁গোলে	-10.9747
▁ঘুমিয়ে	-10.975
▁মাহ	-10.975
▁বাড়ানোর	-10.9752
▁ধারে	-10.9755
▁সেনাপতি	-10.9756
▁লিবিয়া	-10.9758
বিশ্ব	-10.9759
▁ব্র্যাক	-10.9764
▁থাকতেন	-10.9766
▁আমোদপ্রমোদ	-10.9769
▁রোমাঞ্চকর	-10.9769
১৯৭২	-10.977
▁পুতুল	-10.977
▁ততটা	-10.977
▁হাওয়া	-10.9773
▁কলম্বিয়া	-10.9774
ঁকা	-10.9777
মায়ের	-10.9779
▁ফাঁস	-10.9779
স্টোন	-10.9779
▁আখ্যা	-10.9783
▁লিনাক্স	-10.9783
▁রাজবংশের	-10.9784
▁ডক্টর	-10.9784
িক্যাল	-10.9785
▁সূত্রপাত	-10.9785
আইএস	-10.9786
▁ভয়েস	-10.979
চির	-10.9791
▁অক্টোবরে	-10.9792
▁বাকী	-10.9794
▁৮৪	-10.9797
▁উপার্জন	-10.9798
▁কর্মচারীদের	-10.98
হত	-10.9801
▁সময়সীমা	-10.9801
▁দাদু	-10.9803
▁পর্বের	-10.9805
▁মাউন্ট	-10.9805
▁কাচ	-10.9806
▁মশা	-10.9808
স্থাপন	-10.9808
▁৯৯	-10.9808
র্জন	-10.9811
▁ন্যস্ত	-10.9812
▁সার্বিক	-10.9812
▁গুপ্তধন	-10.9813
▁এমনি	-10.9815
▁চড়া	-10.9818
জিং	-10.9822
▁খাড়া	-10.9824
▁গোড়া	-10.9824
মায়েরা	-10.9825
▁খাম	-10.9825
▁এটিই	-10.9826
এফএ	-10.9827
ধী	-10.9832
▁গুহা	-10.9832
িংটন	-10.9833
▁যৌথভাবে	-10.9836
▁সিডি	-10.984
▁সাইটে	-10.984
▁ডিপার্টমেন্ট	-10.9842
▁দফতর	-10.9842
▁রয়্যাল	-10.9842
▁বিভাজন	-10.9842
▁সুইডেন	-10.9842
▁তৃণমূল	-10.9842
▁অহ	-10.9842
লেন্স	-10.9843
▁বোতাম	-10.9845
▁বানাতে	-10.9845
▁বুলেট	-10.9848
▁প্রতিষ্ঠানটি	-10.9849
মিক	-10.9849
▁ইস	-10.985
ম্বার	-10.9855
অনেক	-10.9857
▁উক্তরূপ	-10.9858
▁আইনি	-10.9859
▁ডজন	-10.9861
▁কমিক	-10.9863
▁যুক্তিযুক্ত	-10.9864
কানো	-10.9864
▁উপাসক	-10.9867
▁উত্পাদন	-10.9871
▁ঘাস	-10.9879
▁অবহিত	-10.9881
ষিত	-10.9881
রুম	-10.9882
▁প্রতিবাদের	-10.9886
▁যাইবে	-10.9887
২০০৮	-10.9888
▁অর্থায়ন	-10.9888
▁কায়রো	-10.9889
▁দুজনেই	-10.9892
▁লাশ	-10.9894
▁তুলি	-10.9895
▁সিনা	-10.9896
▁মুসা	-10.9896
▁বাংলাদেশি	-10.9899
▁অক্সফোর্ড	-10.99
▁অবিলম্বে	-10.99
গেন	-10.9902
▁ম্যাস	-10.9906
ঁত	-10.9906
র্ধ	-10.9906
২০১৪	-10.9909
▁কাফ	-10.9911
র্প	-10.9912
▁পুস্তিকা	-10.9915
▁ভোক্তা	-10.9917
▁দেয়নি	-10.9919
▁পরমদেশে	-10.992
▁কাঁটা	-10.9924
▁ঢুক	-10.9924
▁লোকে	-10.9927
▁জোন	-10.9929
▁গেঁথে	-10.993
▁দেশগুলোর	-10.993
▁দৃষ্টিকোণ	-10.993
▁উৎসর্গীকরণ	-10.9932
২০০১	-10.9932
▁ফেসবুকের	-10.9932
রিয়ান	-10.9932
▁লিওন	-10.9933
তাঁহার	-10.9939
▁বেশিরভাগই	-10.9939
ডেন্ট	-10.9941
▁কর্মের	-10.9942
▁মাংসের	-10.9943
▁বড়দিন	-10.9943
▁অকৃষি	-10.9945
▁অভ্যর্থনা	-10.9945
▁দাতব্য	-10.9945
▁বৃত্ত	-10.9945
বেদ	-10.9948
▁কার্বন	-10.9949
লম্ব	-10.995
স্থলে	-10.9951
গুলা	-10.9955
▁তলায়	-10.9958
নেতা	-10.9961
▁সায়েন্স	-10.9961
▁প্রচারণার	-10.9963
▁প্রকল্পে	-10.9965
▁ভবনটি	-10.9967
মাত্রা	-10.9968
▁সিদ্ধান্তে	-10.997
▁মুগ্ধ	-10.9971
▁শিক্ষাবিদ	-10.9971
▁গুন	-10.9972
▁কমনওয়েলথ	-10.9974
▁প্রাপক	-10.9974
▁অভিনীত	-10.9976
▁যুক্তরাজ্যের	-10.9978
▁হান্না	-10.9978
▁আগামীকাল	-10.9983
রেস	-10.9985
▁যোগান	-10.9989
▁লইয়া	-10.9992
রাগ	-10.9994
▁দর্শকদের	-10.9995
▁ক্রেতা	-10.9995
▁চ্যাম্পিয়ন	-10.9998
▁শ্যাম	-11
▁বাটন	-11
স্পা	-11.001
▁হইলে	-11.0011
ঁড়	-11.0011
্যাক্ট	-11.0012
▁বাবামার	-11.0012
▁কাঁদ	-11.0017
▁যাপন	-11.0017
▁পরিত্যক্ত	-11.0019
▁ষাট	-11.002
ব্ল	-11.002
▁বিভ্রান্ত	-11.0021
▁চলেন	-11.0021
▁প্রে	-11.0022
দ্ব	-11.0027
▁ঝুঁকির	-11.0032
▁তুষার	-11.0033
▁বঙ্গোপসাগর	-11.0034
সাধ্য	-11.0034
▁প্ল্যান	-11.0034
▁পলিসি	-11.0035
্দ	-11.0037
▁লাইসেন্সের	-11.0043
লেম	-11.0044
▁সমুদয়	-11.0045
▁তৈল	-11.0049
▁দিল্লির	-11.005
▁সংবাদপত্রের	-11.0055
খি	-11.0057
▁ফাইনাল	-11.0057
▁গাজী	-11.0058
▁রায়ের	-11.0059
▁রঙ্গ	-11.0061
▁ভাইকে	-11.0062
▁বিপদের	-11.0062
▁ব্রিগেড	-11.0063
▁অন্তর্ভূক্ত	-11.0064
▁১৯৩৮	-11.0065
▁ছবিগুলো	-11.0065
▁অলি	-11.0065
▁জামে	-11.0066
পাই	-11.0069
রাজ্য	-11.007
▁হুমকির	-11.007
জুড়ে	-11.0074
ক্ষন	-11.0075
াসের	-11.0076
কেন্দ্রিক	-11.008
▁ভদ্রলোক	-11.008
▁নৌবাহিনীর	-11.0082
▁কোর্টের	-11.0085
▁পেলাম	-11.0088
▁অটল	-11.0088
▁পাঠিয়েছে	-11.0088
▁কেনার	-11.0091
▁মঞ্জুর	-11.0094
▁মুক্তিযোদ্ধাদের	-11.0094
ঙ্গী	-11.01
▁রাজত্বের	-11.01
▁দিয়েই	-11.01
▁লেবানন	-11.0101
▁নীরব	-11.0101
বিএস	-11.0103
▁প্রকাশকদের	-11.0104
দেশে	-11.0105
▁এনেছে	-11.0107
▁হলাম	-11.0108
▁পিছিয়ে	-11.0108
▁উপহাস	-11.0109
▁বাড়াতে	-11.0109
▁আব্বাস	-11.0114
▁দরজায়	-11.0114
▁১৯৩২	-11.0116
▁টুর্নামেন্ট	-11.0119
ভাস	-11.0119
ম্বি	-11.0121
▁কাঁচ	-11.0121
মনি	-11.0124
▁ক্ষোভ	-11.0124
▁দিও	-11.0127
পুরা	-11.0127
▁অবাধ্য	-11.0129
্প	-11.0133
▁পদ্ম	-11.0134
▁প্রেসিডেন্সি	-11.0139
▁বর্ধমান	-11.0139
▁সন্নিকট	-11.0139
▁আর্থার	-11.014
▁প্রতিপক্ষ	-11.0141
ুয়েল	-11.0143
▁বাতি	-11.0148
▁ম্যাগ	-11.0152
▁গুল	-11.0153
▁প্যান	-11.0154
▁সেপ্টেম্বরে	-11.0157
▁টার্	-11.0162
▁একটিভিস্ট	-11.0169
▁আসিয়া	-11.0169
▁জায়গাটা	-11.0171
▁নী	-11.0172
▁লগইন	-11.0172
▁হারা	-11.0176
▁প্রতিকূল	-11.0177
যার	-11.0177
▁হানা	-11.0177
শ্রম	-11.0178
▁স্বাক্ষরিত	-11.0178
যাত্রাপুস্তক	-11.0179
▁গিরি	-11.0183
▁১৯৩১	-11.0183
▁জাগ	-11.0183
▁চারিদিকে	-11.0184
▁বুড়ো	-11.0185
▁লাঠি	-11.0186
▁মঞ্চে	-11.0186
▁ধরেন	-11.0187
▁ব্যাক্তি	-11.0188
▁এইডস	-11.0198
▁মোতাবেক	-11.0199
▁স্যানিটেশন	-11.0199
▁প্রশ্নোত্তর	-11.0201
▁ভেড়া	-11.0205
▁নৈতিকতা	-11.0207
▁জাপানী	-11.0214
▁এসোসিয়েশন	-11.0214
▁চত্বর	-11.0214
▁ইউটিউবে	-11.0217
▁রাত্রি	-11.0217
য়াদ	-11.0219
ানুসারে	-11.0224
জ্য	-11.0226
প্লে	-11.0227
▁নিয়ন্ত্রক	-11.0229
▁নিশান	-11.023
▁জুতা	-11.023
কম্প	-11.023
পবিত্র	-11.0232
▁পিছু	-11.0232
▁লেন	-11.0233
ধীন	-11.0234
অপ	-11.0235
▁মুক্তিপ্রাপ্ত	-11.0237
▁১১০	-11.0237
▁খাতের	-11.024
▁কষ্টকর	-11.0241
▁লাগলো	-11.0244
▁পড়াশুনা	-11.0245
দ্দা	-11.025
▁কবির	-11.025
▁নির্গত	-11.0252
পৃষ্ঠ	-11.0255
▁রেন্ট	-11.0258
▁মগ	-11.0259
▁অশ্লীল	-11.026
▁জী	-11.026
▁মার্শাল	-11.0261
▁জালাল	-11.0262
▁ফরিদপুর	-11.0263
▁ব্যাংকিং	-11.027
তাদের	-11.0272
▁ইস্রায়েলীয়	-11.0273
▁ইহুদী	-11.0275
▁অগ্রাহ্য	-11.0276
পশ্চিমে	-11.0277
২০১৫	-11.0278
▁ধরণ	-11.0283
▁ইমেইল	-11.0286
▁বাস্তবায়নের	-11.0286
▁ফেডারেল	-11.029
▁খাজনা	-11.0291
▁প্রতিবন্ধী	-11.0291
▁খেতাব	-11.0291
▁চেম্বার	-11.0291
▁করাচি	-11.0291
▁দেশটিতে	-11.0292
▁গাজা	-11.0294
দিত	-11.0296
▁লং	-11.0304
▁ইয়োবের	-11.0307
▁নাটকীয়	-11.0307
▁মনি	-11.0309
▁বেত	-11.031
▁লেগেছে	-11.0315
▁সমাধানের	-11.0319
▁উপকূলে	-11.0322
▁জ্বালা	-11.0322
▁ছেলেটা	-11.0325
▁নক	-11.0328
▁পালিত	-11.0328
▁নামিয়ে	-11.0334
লিয়ন	-11.0337
▁শিল্পে	-11.0338
▁জীববিজ্ঞান	-11.0339
▁জিনিসটা	-11.0339
▁অবজ্ঞা	-11.0341
▁হেরে	-11.0343
▁গ্রন্থের	-11.0344
▁পড়ো	-11.0347
গণকে	-11.0347
▁সতর্কবাণী	-11.0353
▁এসিড	-11.0354
▁উদ্বোধনী	-11.0362
▁বুকে	-11.0364
▁ইব্রাহিম	-11.0367
▁প্রচ্ছদ	-11.0367
▁বুদ্ধিজীবী	-11.0368
▁নিরাপদে	-11.0372
▁বিচিত্র	-11.0373
্লি	-11.0378
▁হাসপাতালের	-11.038
▁কলুষিত	-11.0383
▁ব্যাবসা	-11.0383
▁দেবো	-11.0386
▁সমভূমি	-11.0386
ম্বো	-11.0386
▁রাসেল	-11.0388
▁তিল	-11.0392
ঞ্জা	-11.0394
▁পিতামাতার	-11.0396
▁অধিবাসীদের	-11.0398
▁আরোহণ	-11.0398
▁অভ্যস্ত	-11.0398
▁ট্রেডমার্ক	-11.0399
▁সমাদর	-11.0399
▁গার্	-11.04
▁যেগুলি	-11.0401
সাধক	-11.0403
টেক	-11.0406
▁ছবিটা	-11.0408
▁প্রতিবন্ধকতা	-11.0408
▁খুল	-11.0409
মণ্ডল	-11.0412
▁ডাকে	-11.0413
▁নগরে	-11.0413
▁ইতালীয়	-11.0414
▁বার্সেলোনা	-11.0414
▁বিকশিত	-11.0414
▁মেসেজ	-11.0414
▁ইন্টারনেটের	-11.0415
▁বেদনা	-11.0416
▁ফেরার	-11.0419
▁তত্ত্বাবধানে	-11.042
▁কমেডি	-11.0422
▁আনি	-11.0426
ক্লা	-11.0427
▁দৈত্য	-11.0429
▁ফয়সাল	-11.0429
▁পাড়া	-11.0429
িওন	-11.0431
▁সৃষ্টিকর্তার	-11.0433
এনসি	-11.0434
▁দেখবে	-11.0434
কিয়া	-11.0434
▁সভাগুলো	-11.0437
▁প্রাচীনতম	-11.0437
▁১৯২২	-11.0437
রক্ষা	-11.044
▁দেখবেন	-11.0442
▁স্যাম	-11.0444
ঘি	-11.0444
▁সেক্রেটারি	-11.0445
▁ঢেকে	-11.0445
থান	-11.0446
▁সাব্যস্ত	-11.0446
▁স্টাইল	-11.0447
▁মানিয়ে	-11.0448
▁যোনা	-11.0448
▁ভালবাসে	-11.0448
▁নাটকে	-11.045
শাহ	-11.045
▁পাহাড়ি	-11.0454
▁নিম্নরূপ	-11.0458
▁লাইনে	-11.0459
ন্দর	-11.046
▁ম্যাক্স	-11.0462
▁কৈ	-11.0464
▁রক্ষণশীল	-11.0464
▁আদান	-11.0464
▁উন্নতির	-11.0468
▁সন্ত্রাসবাদ	-11.0469
ছিলো	-11.0472
▁নৌবাহিনী	-11.0473
ূর	-11.0475
▁ক্লি	-11.0476
লিফ	-11.0476
▁হাতি	-11.0477
শ্ব	-11.048
▁নেশা	-11.048
▁জারী	-11.0487
▁স্টেডিয়ামে	-11.0487
▁বছরগুলোতে	-11.0489
▁আর্টস	-11.0489
▁রেমিটেন্স	-11.0491
▁বহাল	-11.0493
বিষয়ে	-11.0493
▁চুক্তিতে	-11.0497
▁হোটেলে	-11.0498
▁যিহুদিদের	-11.0498
▁পরিহার	-11.05
▁চার্চের	-11.0503
▁ততই	-11.0506
▁ট্রাফিক	-11.0507
▁ডায়া	-11.0507
▁ব্যবস্থাপনার	-11.0508
▁পলায়ন	-11.0509
রানী	-11.0512
▁১৯১৮	-11.0512
▁স্টি	-11.0512
ঠি	-11.0513
ব্যাক	-11.0515
▁মিশে	-11.0518
▁মোড	-11.0522
▁আত্মসমর্পণ	-11.0523
িয়ো	-11.0523
▁পরিচালনায়	-11.0523
▁রাজবংশ	-11.0523
▁সোমবার	-11.0525
▁১৯৩৬	-11.0526
▁বেথেলে	-11.0533
▁মেধা	-11.0534
▁অনৈতিকতা	-11.0536
▁পাতলা	-11.0537
ধারণ	-11.0537
▁কাঁঠাল	-11.0538
ডাব্লিউ	-11.0538
▁মুর্শিদাবাদ	-11.0538
▁মুদ্রার	-11.0544
স্টিন	-11.0547
▁আধ	-11.0548
▁নিলে	-11.0554
▁দেখাও	-11.0554
▁ইমারত	-11.0555
▁সেন্সর	-11.0555
▁হার্ড	-11.0555
▁ভালোবাসত	-11.0557
▁জয়ের	-11.0558
▁বারের	-11.0558
▁আইকন	-11.0561
▁মিন	-11.0563
▁প্রেক্ষাপটে	-11.0564
▁হয়রানি	-11.0566
▁কয়েকদিন	-11.0568
▁অভিনন্দন	-11.057
াধ্যক্ষ	-11.057
▁চড়ে	-11.0572
▁পোল্যান্ড	-11.0573
▁ভারসন	-11.0574
বিশ্বস্ত	-11.0576
পূর্ন	-11.0577
২০০	-11.0578
▁অবিশ্বাসী	-11.0579
▁কর্মকর্তার	-11.058
বিহার	-11.0581
▁তৎ	-11.0583
▁পাইপ	-11.0584
নির্দেশ	-11.0585
▁হলিউড	-11.0586
▁জাগতিক	-11.0586
▁হাঁটা	-11.0587
▁অস্ট্রিয়া	-11.059
▁ফলক	-11.059
ঙ্গো	-11.0593
হৃদয়	-11.0598
▁ভাববাণী	-11.0602
▁খনিজ	-11.0604
▁মণ্ডলীকে	-11.0607
কাই	-11.0609
▁ভূমিহীন	-11.061
যিহোবা	-11.0614
রাষ্ট্র	-11.0616
▁ডিস্কে	-11.0617
▁সাঁতার	-11.062
▁পায়নি	-11.0621
গুরু	-11.0622
▁পুল	-11.0623
▁ছুটে	-11.0624
▁চিঠিতে	-11.063
কৃষ্ণ	-11.063
▁ইম্পোর্ট	-11.0633
▁উন্মোচন	-11.0633
▁জিম্বাবুয়ে	-11.0633
▁প্রতীয়মান	-11.0633
▁সমঝোতা	-11.0633
▁বুকমার্ক	-11.0634
▁বৈঠক	-11.0637
নদী	-11.0638
ক্ষিপ্ত	-11.0638
▁অনুভূতির	-11.0639
▁তুলা	-11.0643
▁অধিবেশনে	-11.0645
খন্ড	-11.0647
▁সিনেট	-11.0648
▁চিনতে	-11.0648
▁দৈহিক	-11.0649
▁মীখা	-11.065
▁শোষণ	-11.065
লেই	-11.065
রাস্তা	-11.0651
▁নারীবাদী	-11.0653
▁ধর্মে	-11.0655
পাঠ	-11.0655
▁লাগ	-11.0657
▁পৌঁছ	-11.0657
▁৮৭	-11.0659
চাষ	-11.0663
▁সময়কার	-11.0664
▁বিষাক্ত	-11.0665
▁অসহায়	-11.0665
▁গাছপালা	-11.0665
▁পাঠ্য	-11.0668
▁স্কোর	-11.0668
▁রেজা	-11.067
▁খাই	-11.0671
▁নৈ	-11.0673
▁হিন্দুদের	-11.0675
▁অশ্ব	-11.0676
▁রাইট	-11.0679
▁ল্যাঙ্গুয়েজ	-11.068
▁সর্বোপরি	-11.068
▁শিবিরে	-11.0681
▁নিক	-11.0682
▁ফাইনালে	-11.0686
▁বাঁচাতে	-11.0687
▁মাত্রার	-11.0687
▁পেল	-11.0688
▁অব্যাহতি	-11.0692
িনের	-11.0693
শব্দ	-11.0695
▁তুমিই	-11.0695
যিশা	-11.0696
▁স্বীয়	-11.0696
▁ধূমপান	-11.0696
▁মাতৃভাষা	-11.0697
াধি	-11.0698
সুবিধা	-11.0699
▁সুদ	-11.0701
▁হুই	-11.0701
▁আত	-11.0704
▁পড়ল	-11.0705
ত্রী	-11.0707
▁নিজেরাই	-11.0709
▁প্রকাশ্যে	-11.0711
▁সৈন্যবাহিনী	-11.0713
▁চেপে	-11.0717
▁অসুখ	-11.0717
াদির	-11.0718
▁ছন্দ	-11.0726
▁সেজন্য	-11.0727
▁দূষিত	-11.0728
▁স্বৈর	-11.0728
ট্টি	-11.0729
▁নির্দেশনার	-11.0731
▁উপকারজনক	-11.0733
▁আগেও	-11.0742
▁ক্রিয়েটিভ	-11.0744
▁ডেস্কটপ	-11.0744
▁অভিবাসন	-11.0744
▁তোমায়	-11.0745
▁সত্যে	-11.0745
▁অক্ষ	-11.0746
▁নরওয়ে	-11.0749
▁বৃষ্টির	-11.0754
▁মারতে	-11.0755
পাত্র	-11.0755
▁হাজ	-11.0756
▁শেল	-11.0758
▁গ্রামীণফোন	-11.0761
▁শমূ	-11.0761
গির	-11.0762
▁পাইবে	-11.0762
▁দেল	-11.0763
▁থাইল্যান্ডের	-11.0763
▁ফ্যাক্টরি	-11.0766
▁কুর	-11.0768
▁ট্যাপ	-11.0768
▁মেনু	-11.0775
▁কেন্দ্রস্থল	-11.0775
তোমাদের	-11.0775
▁কম্বোডিয়া	-11.0776
▁গাণিতিক	-11.0776
▁অবতরণ	-11.0776
▁ঢেউ	-11.0776
▁ঘোষণার	-11.0778
▁ফ্রন্ট	-11.078
▁নাসির	-11.0781
[	-11.0781
▁টিবিং	-11.0781
ষ্ক	-11.0782
▁উদ্বিগ্নতা	-11.0785
পুত্র	-11.0786
▁যিহূদার	-11.0786
▁স্বদেশ	-11.0787
▁বিষয়শ্রেণী	-11.0789
ক্যাল	-11.079
▁ঈর্ষা	-11.0792
▁ঠেলে	-11.0793
▁মায়ানমার	-11.0795
বক্স	-11.0802
▁ভিডিওর	-11.0803
▁ইউনি	-11.0805
বংশ	-11.0807
▁পরিকল্পিত	-11.0809
▁প্ল্যাটফর্ম	-11.0809
▁বোলার	-11.0809
▁সত্যকে	-11.0809
▁বোতল	-11.0811
চন	-11.0818
গেট	-11.0818
▁ভালবাসেন	-11.0819
▁পাচ্ছেন	-11.0821
▁সালাম	-11.0824
▁ইস্হাক	-11.0825
▁দোষারোপ	-11.0825
▁ঘাঁটি	-11.0825
▁রথ	-11.0825
▁শুমারি	-11.0826
▁শোন	-11.0826
▁ডিভিশন	-11.0827
▁সততা	-11.0827
ারে	-11.0832
▁উদ্দিন	-11.0834
▁বিট	-11.0834
▁স্পেনীয়	-11.0834
▁নৃ	-11.0836
▁চড়	-11.0837
▁কার্যক্রমে	-11.0837
▁আশার	-11.0838
মন্ত্র	-11.084
▁অংশগ্রহন	-11.0841
▁বিদ্বেষ	-11.0841
্ঠ	-11.0843
▁পাউন্ড	-11.0843
▁গুণগুলো	-11.0845
▁নদ	-11.0846
▁চেন	-11.0847
বাণী	-11.0847
▁অধ্যায়ের	-11.0849
২০০৫	-11.0856
▁পূর্বদিকে	-11.0856
▁ব্যাকরণ	-11.0858
▁২৫০	-11.0858
▁অসীম	-11.0858
▁কমই	-11.0859
ঠিক	-11.0865
▁বিগ	-11.0865
▁নভেম্বরে	-11.0866
ষ্ণ	-11.0868
ধার্ম্মিক	-11.0873
প্রবাহ	-11.0873
দ্বয়	-11.0873
▁উদ্বাস্তু	-11.0873
▁জন্তু	-11.0874
▁ফ্রেঞ্চ	-11.0874
▁মনকে	-11.0875
▁চক	-11.0877
▁দেশগুলোতে	-11.0877
▁লুট	-11.0879
▁অভিযানে	-11.0885
তিয়া	-11.0885
▁স্টাডি	-11.0886
▁ইঁদুর	-11.0889
▁ডেনমার্ক	-11.0889
▁সমবেত	-11.089
%;	-11.089
▁ভূখণ্ড	-11.0891
বত	-11.0891
▁কর্মশালা	-11.0892
র্চ	-11.0894
▁বলত	-11.0896
ন্দে	-11.0896
▁পরিণাম	-11.0906
▁ভ্রাতা	-11.0906
▁ধোঁয়া	-11.0906
▁ভাববিনিময়	-11.0906
ফিল	-11.091
▁শব্দটা	-11.0911
▁ভূমিকম্পের	-11.0917
▁হিজ	-11.0918
▁১৯২৯	-11.0922
▁সঞ্চালন	-11.0922
▁বলিউড	-11.0924
▁কুমারী	-11.0925
▁ট্যাক্সি	-11.0926
▁বব	-11.0927
▁অতীব	-11.0928
সম্পর্ক	-11.0933
বিবাহ	-11.0935
দৃষ্ট	-11.0935
ঙ্কা	-11.0937
▁হারিয়েছে	-11.0937
▁স্টেশনের	-11.0937
গ্রী	-11.0939
▁মন্ট	-11.0941
▁প্রয়াস	-11.0942
▁পাথ	-11.0944
▁পূর্ণাঙ্গ	-11.0945
গরি	-11.0947
▁বর্ষণ	-11.0952
ওয়্যার	-11.0954
দণ্ড	-11.0954
▁অজুহাত	-11.0955
সামগ্রী	-11.0955
▁লাগানোর	-11.0955
▁কমলা	-11.0956
▁দরুন	-11.0957
পত্তি	-11.0958
▁বৌদ্ধধর্ম	-11.0958
▁ক্ষতির	-11.0959
▁জাতীয়তাবাদ	-11.0963
▁কাটাতে	-11.0964
▁জানাচ্ছেন	-11.0969
▁জাহাজে	-11.097
▁সুভাষ	-11.0971
▁পূর্বাভাস	-11.0971
▁প্রজ্ঞার	-11.0971
কারক	-11.0972
▁আলোকচিত্র	-11.0972
▁সাইবার	-11.0979
নাইট	-11.0979
▁কেনিয়া	-11.098
▁রোমের	-11.098
▁ফাঁদ	-11.098
▁কল্প	-11.0981
▁সিঙ্গাপুরের	-11.0982
▁ভরসা	-11.0985
▁ডোমেইন	-11.0987
▁গর্ভপাত	-11.0988
▁উড়ে	-11.0989
▁গাঢ়	-11.099
▁ঢাক	-11.0991
▁সস্তা	-11.0995
▁সঙ্গীতের	-11.0997
সিংহ	-11.0998
▁ভাঙা	-11.1003
▁চ্যাপলিন	-11.1004
▁ভট্টাচার্য	-11.1004
▁দৈব	-11.1004
▁নার্স	-11.1006
▁দলগুলো	-11.1007
বাজি	-11.1007
বাব	-11.1007
▁বসবাসরত	-11.1008
সিও	-11.1008
নিশ	-11.1009
▁আইনটি	-11.101
▁সংঘর্ষের	-11.1013
▁ভিউ	-11.1016
▁১৯৩৩	-11.1017
▁বিষণ্ণ	-11.102
▁বাদশাহ	-11.1021
▁বোধগম্যতা	-11.1026
▁শাহের	-11.1027
▁বক্তৃতার	-11.103
▁ব্যাবহার	-11.1032
▁প্রোফাইল	-11.1037
▁আইয়ুব	-11.1037
▁আশেপাশে	-11.1038
▁সরানো	-11.1038
▁এসএমএস	-11.1038
▁মরা	-11.1039
▁গুয়া	-11.104
▁নাবিক	-11.1041
আইসি	-11.1042
ন্টে	-11.1043
▁পেশাগত	-11.1044
▁করানোর	-11.1046
▁সভাতে	-11.1049
▁বিয়ার	-11.105
▁সাইন	-11.1051
▁চুন	-11.1053
▁আবির্ভাব	-11.1053
▁মিউজিয়াম	-11.1053
▁সলোমন	-11.1053
▁বাড়ছে	-11.1053
▁বর্জ্য	-11.1054
▁এন্টি	-11.1054
▁দীর্ঘস্থায়ী	-11.1054
▁মহারাষ্ট্র	-11.1055
রিড	-11.1055
▁খোলার	-11.1056
▁মঙ্গলের	-11.1058
▁রাউন্ড	-11.1062
সর্ব্ব	-11.1064
▁সন্ন্যাসী	-11.1065
খাত	-11.1065
▁চমক	-11.1066
▁আন্তরিকভাবে	-11.1068
▁পরিতৃপ্তি	-11.1069
▁১৯২৮	-11.1074
▁সীমান্তে	-11.1076
▁বোর	-11.1076
▁১৫ই	-11.1078
▁লিন	-11.1079
মোন	-11.1082
▁অসন্তোষ	-11.1086
▁সম্প্রসারিত	-11.1086
▁চিংড়ি	-11.1086
▁উদ্যম	-11.1087
▁পৌছা	-11.1087
▁সেগুলির	-11.1091
▁বস্ত্ত	-11.1092
▁নিয়েছিলাম	-11.1093
পুন	-11.1093
▁সিংহাসন	-11.1097
ঞ্জার	-11.1098
▁দোহা	-11.1099
ায়ণ	-11.11
▁বৈধতা	-11.1101
দাদ	-11.1103
▁হিংসা	-11.1103
▁টেল	-11.1106
▁তুরস্কের	-11.1107
▁সংকল্প	-11.1108
▁গোড়ার	-11.1114
▁পরাক্রম	-11.1114
▁ক্রীড়াবিদ	-11.1117
▁হীন	-11.1118
▁হুগলি	-11.112
▁যুবতী	-11.112
▁৭৯	-11.112
▁ফ্রেড	-11.112
▁রোগীদের	-11.1121
তৃতীয়াংশ	-11.1122
▁বিষয়কে	-11.1127
▁সাধারন	-11.1128
▁ব্যাপারটি	-11.113
▁কণা	-11.1131
▁সংস্থাটি	-11.1132
▁জ্যোতি	-11.1133
োভা	-11.1134
মুর	-11.1134
▁পছন্দের	-11.1135
▁ব্যবস্থাকে	-11.1136
▁বাড়ানো	-11.1136
▁জন্মে	-11.1138
▁আদায়ের	-11.1144
▁কলম	-11.1144
▁পুত্রকে	-11.1146
▁কারিগর	-11.1149
▁টার	-11.1151
▁বাণিজ্যের	-11.1151
োগ্রাফি	-11.1152
য়েন্স	-11.1153
▁বিজনেস	-11.1153
▁প্রণয়নের	-11.1153
▁বসানো	-11.1154
গাম	-11.1154
▁জজ	-11.1156
▁আশায়	-11.1158
▁আগ্রহজনক	-11.1158
▁বর্ষা	-11.1158
▁আবি	-11.116
▁অবাধ	-11.1164
২০০৪	-11.1164
▁তোমাদেরকে	-11.1164
পাতা	-11.1165
▁প্রতিযোগী	-11.1165
▁ক্রু	-11.1165
ভঙ্গ	-11.1165
▁কাস্ট	-11.1169
▁নিয়ন্ত্রন	-11.117
▁সামর্থ্য	-11.117
▁ছুরি	-11.117
▁চক্রবর্তী	-11.117
▁যি	-11.1173
▁প্রাপ্তির	-11.1174
▁উপাসকদের	-11.1175
▁অ্যাম	-11.1175
▁মিটিং	-11.1176
▁কোম্পানীর	-11.1177
▁ভবিষ্যত	-11.118
▁গেজেটে	-11.1184
জাদ	-11.1188
অথবা	-11.1188
▁লাই	-11.1189
▁চারটে	-11.119
▁দেখিয়েছে	-11.1192
দীপ	-11.1193
▁কেনা	-11.1199
স্বত্ব	-11.12
▁বিছানা	-11.12
▁শার্ট	-11.1201
▁মিহরাব	-11.1203
▁আড্ডা	-11.1203
▁কুরআন	-11.1203
েটিভ	-11.1206
▁সুজা	-11.1206
▁নির্মান	-11.1209
▁ছাত্রছাত্রী	-11.1213
▁মেলে	-11.1215
▁দিবা	-11.1215
▁হারায়	-11.1218
▁নিত্য	-11.1218
▁মজুরি	-11.1219
▁উদ্দীপনা	-11.122
▁ভেনেজুয়েলা	-11.122
▁সংবেদনশীল	-11.122
▁ময়লা	-11.1222
▁উপস্থিতির	-11.1223
▁৮২	-11.1223
ক্রী	-11.1227
▁নেব	-11.1229
▁চৈতন্য	-11.1233
▁পুঁজি	-11.1238
▁বিকাশের	-11.124
বেরি	-11.1243
▁মক্কা	-11.1243
▁দেখেছিল	-11.1245
▁সার্বভৌমত্ব	-11.1248
▁লক্ষ্মী	-11.1252
▁তন্মধ্যে	-11.1253
▁পাণ্ডুলিপি	-11.1254
প্রান্ত	-11.1254
ব্যবহার	-11.1254
▁বীমাকারী	-11.1254
ত্রা	-11.1255
সেফ	-11.1257
▁একদিকে	-11.1257
শিশু	-11.1263
▁ইয়াং	-11.1266
▁প্রত্য	-11.1268
▁শীর্ষচরণ	-11.1271
▁অপরদিকে	-11.1273
▁প্রবৃদ্ধি	-11.1274
▁কলি	-11.128
▁মাঝারি	-11.1288
ঁদ	-11.1289
▁বার্লিন	-11.1289
▁তৎপরতা	-11.129
ক্লি	-11.1293
▁গ্রেগর	-11.1294
▁কক্ষে	-11.1296
▁দুজনের	-11.1299
ভাষ	-11.1303
▁অস্ট্রেলীয়	-11.1304
▁সেঞ্চুরি	-11.1304
▁পুনর্বাসন	-11.1304
▁ইয়েমেনের	-11.1304
▁পরিবেশগত	-11.1304
▁বইগুলো	-11.1305
▁স্বাস্থ্যসেবা	-11.1306
হাসি	-11.1307
▁বেশ্যা	-11.1311
যুবতীদের	-11.1314
দন্ড	-11.1319
▁পাসপোর্ট	-11.1322
▁নিয়েছি	-11.1322
▁বিশ্বকাপে	-11.1322
▁গোলা	-11.1322
▁মৌ	-11.1323
▁বন্টন	-11.1323
▁রিং	-11.1326
▁পরপরই	-11.1331
ক্রা	-11.1331
জেন্ট	-11.1332
▁কাভারেজের	-11.1333
▁পৌঁছা	-11.1337
ফিলি	-11.1338
▁টাঙ্গাইল	-11.1338
পোষ	-11.1339
কুট	-11.1339
দ্বীপ	-11.134
বয়স	-11.1342
▁সংস্কৃতিতে	-11.1342
▁বৃ	-11.1343
▁অসম্মান	-11.1344
▁নিষ্কাশন	-11.1347
োড	-11.1351
পেক্ষ	-11.1354
▁প্যালেস্টাইন	-11.1355
▁গাইড	-11.1356
বিদ্যার	-11.136
▁ক্যাম্পে	-11.1361
স্ত্রী	-11.1361
তিক	-11.1362
▁লোকই	-11.1368
▁মানবজাতিকে	-11.1369
▁শব্দটির	-11.1372
▁শ্বেত	-11.1372
▁নিম্নোক্ত	-11.1372
▁বর্ষসেরা	-11.1372
শ্	-11.1372
বৎস	-11.1373
লতা	-11.1374
শীলতা	-11.1374
গর্ভ	-11.1379
ণ্য	-11.138
▁উত্তরাঞ্চল	-11.1381
▁উসমানীয়	-11.1381
▁কোপা	-11.1384
▁ধার্য	-11.1384
শক্তির	-11.1389
▁স্থানীয়ভাবে	-11.139
▁নেতৃত্বাধীন	-11.1391
▁গ্রিস	-11.1391
উপদেশক	-11.1392
▁পূর্বেই	-11.1393
▁জ্ঞানী	-11.1393
▁৯৬	-11.1395
▁ঘাড়	-11.1396
▁মালিকের	-11.1397
▁প্রিন্ট	-11.1403
▁ভ্রাতৃ	-11.1406
▁যৌক্তিক	-11.1406
▁স্টা	-11.1407
▁ধরেছেন	-11.1407
▁মিড	-11.1409
▁দুবাই	-11.1417
▁দেখছে	-11.1418
▁যুবরাজ	-11.1418
▁বার্ষিকী	-11.1419
▁প্যারিসে	-11.1422
▁ধো	-11.1422
▁আড়াল	-11.1423
▁ভাগাভাগি	-11.1423
▁মহাযাজক	-11.1424
ট্রে	-11.1426
▁প্রশিক্ষিত	-11.1426
▁খেলেছেন	-11.1426
▁ব্রিটিশদের	-11.1427
▁অবিশ্বাস্য	-11.1427
▁মেজাজ	-11.1427
▁শাল	-11.1429
হত্যা	-11.143
▁ফ্লোর	-11.143
বন্দী	-11.143
▁হাব	-11.1434
▁নাটকের	-11.1436
▁সংস্করণে	-11.1439
▁তরুণদের	-11.1439
▁হেসে	-11.144
▁আলোকপাত	-11.1441
▁প্রাণপণ	-11.1442
▁গতিতে	-11.1442
▁ইয়র্কের	-11.1442
▁শির	-11.1446
▁বিচক্ষণতা	-11.1448
্জ	-11.1448
দ্যা	-11.1452
কোণ	-11.1455
▁উভয়েই	-11.1455
▁পুরোপুরিভাবে	-11.1458
▁প্রসিদ্ধ	-11.1461
টাস	-11.1463
গুচ্ছ	-11.1464
ব্লগ	-11.1469
▁মেষপালক	-11.147
▁চট্টগ্রামে	-11.1471
▁উন্নয়নশীল	-11.1472
▁জ্যেষ্ঠ	-11.1475
দলীয়	-11.148
▁যেতাম	-11.1481
▁স্বচ্ছ	-11.1483
▁দারিদ্র	-11.1487
ডিসি	-11.1487
▁নিকটতম	-11.149
মাতা	-11.149
▁স্বামীকে	-11.1493
▁ফিট	-11.1494
▁ঘটল	-11.1497
দয়া	-11.15
▁পদ্মা	-11.1501
▁অদ্বিতীয়	-11.1507
▁ক্লাসে	-11.1509
▁পৌরাণিক	-11.1509
▁গুপ্তচর	-11.1511
▁ছাগল	-11.1511
▁টেলিভিশনে	-11.1512
য়াস	-11.1514
▁জায়	-11.1516
▁মামলায়	-11.1516
▁কাক	-11.1517
▁ভবিষ্যদ্বাণীর	-11.152
▁তাজা	-11.152
▁বিলম্ব	-11.1521
ভবন	-11.1526
▁সোল	-11.1527
▁শোধ	-11.1528
▁দেশকে	-11.1528
▁কতখানি	-11.1529
▁হাসিনা	-11.1533
▁সময়েই	-11.1534
▁সভাপতিত্ব	-11.1534
▁উগ্র	-11.1535
▁মেয়াদে	-11.1536
▁স্টাডিজ	-11.1537
২০০২	-11.1538
▁আশি	-11.154
▁পূর্ণরূপে	-11.1542
সিম	-11.1544
▁দরখাস্ত	-11.1544
▁হুকুম	-11.1544
▁চ্যাম্পিয়নশীপ	-11.1544
▁মর্মে	-11.1545
মনে	-11.1545
ন্ডো	-11.1546
▁ফেলেন	-11.1547
▁ঘরবাড়ি	-11.1547
করন	-11.1548
▁কর্ম্ম	-11.1553
স্বয়ংক্রিয়ভাবে	-11.1553
▁দর্শনের	-11.1556
▁দম্পতির	-11.1559
▁সিরি	-11.1561
▁শরীফ	-11.1562
ানী	-11.1563
শ্বাস	-11.1564
▁দন্ড	-11.1564
▁সেনাবাহিনীতে	-11.1565
াবস্থা	-11.1567
▁সমস্যায়	-11.1572
▁করিয়াছে	-11.1575
▁চল্লিশ	-11.158
▁চাইবে	-11.1581
▁ভালোবাসেন	-11.1581
▁খ্রিষ্টাব্দে	-11.1583
▁পাঠিয়েছিলেন	-11.1583
▁রাধা	-11.1584
একটা	-11.1584
▁ক্যাট	-11.1584
▁ঘোর	-11.1587
▁টিপ	-11.1591
▁সার্বিয়া	-11.1595
▁ইন্সটিটিউট	-11.1596
▁মুহাম্মাদ	-11.1596
▁সমান্তরাল	-11.1596
▁গ্রাস	-11.1596
▁কাগজে	-11.1601
▁ইয়ান	-11.1602
▁ব্লকের	-11.1603
▁সবকিছুই	-11.1604
▁সক্রিয়ভাবে	-11.1605
▁এমি	-11.1608
সমূহকে	-11.161
জেড	-11.1612
▁বেদনাদায়ক	-11.1614
দ্দি	-11.1616
নির্মিত	-11.1618
ভ্রষ্ট	-11.1619
▁কুস্তি	-11.1619
▁৯৮	-11.1621
▁সহবিশ্বাসীদের	-11.1622
▁ভাস	-11.1626
াকৃতি	-11.1626
▁মানবজাতি	-11.1628
ভ্য	-11.163
প্রকা	-11.1631
▁আত্মীয়স্বজন	-11.1631
▁বরখাস্ত	-11.1631
▁হেলিকপ্টার	-11.1631
▁আপডেট	-11.1631
বলে	-11.1634
▁টিকা	-11.1634
▁আপিল	-11.1634
▁তুলবে	-11.1635
▁থে	-11.1635
▁সুরক্ষার	-11.1635
▁গ্রীন	-11.1636
▁দড়ি	-11.1637
দৃষ্টি	-11.1638
▁দাড়া	-11.1642
▁পাও	-11.1643
▁প্রতিফলন	-11.1644
কার্	-11.1644
দাহ	-11.1646
▁পুঙ্খানুপুঙ্খ	-11.1649
▁ভাষ্য	-11.1649
নিম	-11.1649
▁১৯২৬	-11.165
সিয়ান	-11.1654
▁কতো	-11.1655
▁পীর	-11.1656
▁বিচ্ছেদ	-11.1658
▁জ্যোতিষ	-11.1663
▁শীতকালীন	-11.1667
▁ইজ	-11.167
▁কেশ	-11.167
▁উচ্ছেদ	-11.167
লিঙ্গ	-11.1675
▁জোয়ার	-11.1676
▁প্রত্যাশিত	-11.1684
পনা	-11.1685
▁ঘণ্টার	-11.1686
কুয়ে	-11.1687
▁কয়েকবার	-11.169
▁লীগে	-11.1691
দূত	-11.1691
▁ইয়ার	-11.1693
▁ফাঁদে	-11.1693
কান্দি	-11.1694
▁লেখায়	-11.1696
াতি	-11.1696
▁কনসার্ট	-11.1701
▁যিশা	-11.1702
▁বিজ্ঞানীরা	-11.1703
▁গোর	-11.1703
ভিয়ে	-11.1703
▁সুবিধার	-11.1711
▁আটটি	-11.1712
পিপি	-11.1713
▁আনু	-11.1715
ক্সা	-11.1716
▁বিষয়টাকে	-11.1716
▁আফগানিস্তানে	-11.1717
▁যাত্রার	-11.1718
▁বলতেন	-11.1718
▁কুসংস্কার	-11.172
▁ছিদ্র	-11.1721
▁ইঞ্জিনিয়ার	-11.1722
▁কাঠামোর	-11.1723
ঁড়ি	-11.1723
▁ড্রাইভার	-11.1725
▁ওয়েন	-11.1727
▁মালয়েশিয়ার	-11.1728
▁টমাস	-11.1728
▁সাধ্য	-11.1728
▁পৌ	-11.1729
▁এরিক	-11.1736
▁উকিল	-11.1737
▁চাকরির	-11.1738
▁ডেম	-11.1738
▁লেজ	-11.174
মুসলিম	-11.1742
▁মানগুলো	-11.1744
▁রোল	-11.1744
▁ভালোবাসে	-11.1752
বর্তন	-11.1754
▁কনফারেন্স	-11.1754
▁ধর্মান্তরিত	-11.1754
▁লেগেছিল	-11.1756
▁শাক	-11.1756
▁সামঞ্জস্যপূর্ণ	-11.1756
▁সমুদ্রে	-11.1757
▁আগমনের	-11.1757
অন্য	-11.176
▁পাড়ি	-11.1761
▁গিনি	-11.1762
▁নিম	-11.1763
▁নির্বাসিত	-11.1772
▁নিখিলবিশ্ব	-11.1772
▁তথ্যচিত্র	-11.1773
পর্ব	-11.1773
▁মেরু	-11.1773
▁সর্প	-11.1777
▁নিয়মের	-11.1777
▁১৩০	-11.1779
সঙ্গত	-11.1783
▁কথাগুলোর	-11.1783
লিকা	-11.1788
জিয়ান	-11.1792
ড্রি	-11.1799
বেশি	-11.1801
▁নিয়োগের	-11.1802
▁প্রতিবেশীদের	-11.1802
▁সহযোগিতায়	-11.1803
▁তেহরান	-11.1808
▁খাদ	-11.181
▁হেম	-11.1812
অভি	-11.1813
বান্	-11.1813
▁উপাদানের	-11.1815
▁অনশন	-11.1816
▁ভালোবাসার	-11.1819
▁ইথিওপিয়া	-11.1826
▁সিগারেট	-11.1826
▁নোয়াখালী	-11.1826
▁সবচাইত	-11.1826
▁প্রবাদ	-11.1827
ক্রিয়	-11.1828
▁অবশিষ্টাংশ	-11.1828
▁পরগনা	-11.1828
▁মনোরম	-11.183
▁১০৩	-11.1833
▁আসাদ	-11.1834
ূত	-11.1834
▁ওয়াক	-11.1839
▁প্রতিবছর	-11.1839
▁বাঁ	-11.1839
ধিক	-11.184
▁আনবে	-11.1841
▁ফিলি	-11.1842
▁জেরুজালেম	-11.1843
▁পর্তুগাল	-11.1843
▁ড্যানিয়েল	-11.1844
▁অধিগ্রহণ	-11.1844
▁পার্কে	-11.1845
▁সমাজতান্ত্রিক	-11.1846
▁মাতাল	-11.185
▁লিখেন	-11.185
▁বিহারের	-11.1852
▁শিক্ষাগুলো	-11.1855
▁জুয়া	-11.1859
▁মহিলারা	-11.1859
▁যাইতে	-11.186
মুক্তি	-11.1861
▁দুর্ভাগ্য	-11.1861
▁সীমার	-11.1861
▁পৌত্তলিক	-11.1861
▁জিহ্বা	-11.1861
▁ফোল্ডারে	-11.1865
▁বিপন্ন	-11.1869
াব্দ	-11.187
▁কর্পোরেশনের	-11.187
▁রাজাকার	-11.187
▁তীত	-11.1873
▁বদল	-11.1874
▁প্রবন্ধগুলো	-11.1874
▁বিস্তর	-11.1876
▁তালা	-11.1877
▁জর্দান	-11.1879
▁অন্তর্দৃষ্টি	-11.1879
▁আত্মাকে	-11.1884
▁অস্থির	-11.1887
▁মুভি	-11.189
▁প্রিয়জন	-11.1893
▁নিম্নবর্ণিত	-11.1897
▁ধনসম্পদ	-11.1898
▁মুখ্যমন্ত্রী	-11.1898
▁দালান	-11.19
লীলা	-11.19
কল্যাণ	-11.1901
িস্তান	-11.1902
▁ভূমিতে	-11.1905
গিরি	-11.1907
▁পাগলা	-11.191
▁বুধবার	-11.1915
▁প্রচন্ড	-11.1915
▁বিকিরণ	-11.1915
▁আহসান	-11.1917
▁তিক্ত	-11.192
ক্ষমতা	-11.1921
▁অর্থপূর্ণ	-11.1921
▁শলোমনের	-11.1923
জগতের	-11.1925
হরি	-11.1928
▁মেঝে	-11.1931
মধ্য	-11.1933
▁নিখোঁজ	-11.1933
▁আক্রমন	-11.1933
▁আইরিশ	-11.1933
▁অগভীর	-11.1935
সঙ্গ	-11.1937
ফ্ট	-11.1947
▁মার্চে	-11.1949
▁শিক্ষকতা	-11.1949
▁চিত্রনাট্য	-11.195
▁কোয়ান্টাম	-11.1951
▁স্পেশাল	-11.1951
▁মুবারক	-11.1952
▁ব্যাট	-11.1952
▁দুইবার	-11.1954
▁সত্যজিৎ	-11.1954
▁গাধা	-11.1954
▁ততদিন	-11.1954
▁একীভূত	-11.1955
▁আহার	-11.1957
▁বী	-11.1961
▁পড়েছেন	-11.1961
▁দীপ	-11.1961
উইন	-11.1965
▁অভিশাপ	-11.1969
▁বাহ্যিক	-11.1969
▁কাজাখস্তান	-11.1969
▁গর্ভবতী	-11.197
▁খেলনা	-11.1978
▁কাকে	-11.1979
প্রত্যেক	-11.1981
▁পয়	-11.1982
▁উদাসীন	-11.1987
▁ইকবাল	-11.1987
▁টিকিট	-11.1989
▁জানুয়ারিতে	-11.199
ক্রো	-11.1991
▁রহমানের	-11.1992
▁লেখকদের	-11.1992
▁পাশা	-11.1994
বন্ধু	-11.1995
▁নিচ্ছি	-11.1999
▁বিদেশ	-11.1999
▁পরিদর্শক	-11.2
▁৮১	-11.2001
▁বিক্ষোভকারীদের	-11.2001
▁১৯৩৪	-11.2002
▁মহল	-11.2004
▁জাতের	-11.2005
▁আমাদিগকে	-11.2006
▁পেরিয়ে	-11.2008
▁ঘটাতে	-11.2008
ন্তা	-11.2009
▁ব্যারি	-11.201
প্পা	-11.2012
▁ভেদ	-11.2013
▁শুনেছিলেন	-11.2015
▁ধাপে	-11.2015
ফিন	-11.2016
স্টাইন	-11.2017
▁কোলে	-11.202
▁সাগরের	-11.2021
▁সর্বাপেক্ষা	-11.2024
▁বলিভিয়া	-11.2026
▁মাদার	-11.203
▁কন্ঠ	-11.2031
▁করেছো	-11.2035
▁গ্রামবাসী	-11.2039
▁সুইজারল্যান্ড	-11.2042
▁সরিষা	-11.2042
▁পানীয়জল	-11.2043
▁আবদুর	-11.2043
▁রোবট	-11.2044
▁আকাশের	-11.2051
▁ডেভেলপমেন্ট	-11.2051
▁পর্বতে	-11.2053
▁ধরো	-11.2056
▁আস্ত	-11.2058
▁উড়িষ্যা	-11.206
▁সমূদ্র	-11.206
মন্দ	-11.2061
▁আদেশের	-11.2061
▁গরিব	-11.2061
র্ভ	-11.2061
▁খেলোয়াড়দের	-11.2062
ভ্যা	-11.2064
▁সভ্যতার	-11.2064
গালাতীয়	-11.2068
▁হবা	-11.2069
▁আসেনি	-11.207
▁তত্	-11.207
▁দরবার	-11.207
ালে	-11.2074
▁ইন্স	-11.2077
ঁধ	-11.2077
▁স্মরণীয়	-11.2078
ুজ্জামান	-11.2079
▁রবি	-11.2081
স্তে	-11.2081
▁ব্রাউন	-11.2081
্যাক	-11.2084
ূল	-11.2091
▁গিয়েছেন	-11.2092
▁মণ্ডলীগুলো	-11.2092
▁গাল	-11.2093
▁ভিতরের	-11.2097
▁প্লাটফর্ম	-11.2097
▁সোর্স	-11.2097
▁মুনাফা	-11.2097
▁ছুঁড়ে	-11.2097
▁কৃষিভূমি	-11.2103
তাত্ত্বিক	-11.2104
▁মৃতদের	-11.2104
জন্য	-11.2105
জগৎ	-11.2105
▁কান্না	-11.2105
▁বিপ	-11.2107
▁জানাচ্ছি	-11.2107
▁হামলায়	-11.211
নেল	-11.2111
▁তাৎপর্য	-11.2113
▁এইজন্য	-11.2114
▁গালা	-11.2115
▁আঙুল	-11.2115
▁নৃশংস	-11.2115
▁ব্যতিরেকে	-11.2115
▁মাদ্রাজ	-11.2115
▁রাইফেল	-11.2115
োত্তর	-11.2117
▁বিশ্বাসঘাতকতা	-11.2117
দত্ত	-11.2117
▁দেয়ালে	-11.2118
লিয়ে	-11.2123
▁শাস্ত্রে	-11.2128
▁জুটি	-11.2132
▁কুটিরশিল্প	-11.2134
▁কামান	-11.214
▁বয়সি	-11.2141
কার্ড	-11.2142
▁৯৩	-11.2143
ইসলাম	-11.2146
▁দেখিতে	-11.2148
▁জাহান	-11.2148
▁চারপাশের	-11.215
▁মহিমা	-11.2154
▁বাদ্যযন্ত্র	-11.2155
▁যুগ্ম	-11.2156
▁সারাদিন	-11.2158
▁ঢুকতে	-11.2158
▁নেটওয়ার্কের	-11.2159
ফর্ম	-11.2161
ফোন	-11.2162
প্রো	-11.2163
▁এপি	-11.2163
▁করিতেছ	-11.2164
▁ব্যক্তিত্বের	-11.2164
ালো	-11.2167
▁শ্রীলঙ্কার	-11.2168
২০০৩	-11.2168
▁প্রতিহত	-11.2168
▁কবে	-11.2169
▁সাং	-11.217
▁হতেন	-11.217
▁মজুমদার	-11.217
▁সৈকত	-11.217
▁বৃহস্পতিবার	-11.2171
▁অভিন্ন	-11.2173
▁অ্যাপ	-11.2173
টাল	-11.2179
যদিও	-11.218
▁দেবতাদের	-11.218
▁পিপলস	-11.2181
▁প্রথাগত	-11.2181
▁নহিমিয়	-11.2183
ভব	-11.2184
▁ধাতব	-11.2189
বিলি	-11.2191
▁একাকী	-11.2191
▁উপদ্বীপ	-11.2192
▁চাষের	-11.2192
▁তবু	-11.2194
▁শাখায়	-11.2199
▁শীর্ষক	-11.2202
দহ	-11.2203
▁উঠেছিলেন	-11.2204
গুয়ে	-11.2204
▁নির্বাহ	-11.2208
▁অভিযোগের	-11.2208
▁বিজয়ের	-11.221
▁ভালবাসার	-11.2213
হিল	-11.2216
▁পোকা	-11.2221
▁খালিদ	-11.2222
▁আবিষ্কারের	-11.2225
▁মুল	-11.2225
▁প্রবর্তিত	-11.2226
▁প্রেক্ষিতে	-11.2226
▁কপাল	-11.2226
হাল	-11.2226
▁পোষাক	-11.2227
▁বর্ণমালা	-11.2228
▁মহাবিশ্ব	-11.2228
গুয়া	-11.2228
▁কৌতূহল	-11.2229
▁রোদ	-11.2229
▁সিরিজে	-11.223
▁আনন্দদায়ক	-11.223
দেবী	-11.2231
▁বুন	-11.2232
শ্য	-11.2234
ক্ষ্য	-11.2238
ান্বিত	-11.2238
▁বাহিনীকে	-11.2242
▁ত্র	-11.2244
▁মুঘল	-11.2245
▁তিমুর	-11.2246
▁পিএইচডি	-11.2246
্দা	-11.2246
▁রহিত	-11.2247
▁লাতিন	-11.2248
▁১৯২৫	-11.2249
▁নারায়ণ	-11.225
▁এলাকাটি	-11.2255
▁জার্মানিতে	-11.2258
ডিপি	-11.226
▁কিম্বা	-11.2261
▁বাজি	-11.2262
▁সিডনি	-11.2263
▁ক্ষমতাকে	-11.2264
▁স্কোয়ার	-11.2264
▁নন্দ	-11.227
সিএস	-11.2272
▁মুসলিমদের	-11.2275
▁আবৃত	-11.2275
ড়ো	-11.2275
ত্তয়া	-11.2277
তীত	-11.228
▁পাল্টে	-11.2282
▁তারিখের	-11.2282
▁রাজাদের	-11.2282
▁আশরাফ	-11.2282
▁৬০০	-11.2282
▁করেছিলো	-11.2282
▁অল্পবয়স্ক	-11.2283
▁তেজ	-11.2284
▁ছেলেরা	-11.2285
হারে	-11.2287
▁১৯২৪	-11.229
▁বুদ্ধিমান্	-11.2291
প্রণালী	-11.2291
শৈলী	-11.2291
ডাই	-11.2292
▁সামঞ্জস্য	-11.2299
ইফি	-11.2299
▁এলিজাবেথ	-11.2301
▁বেলজিয়াম	-11.2301
▁ইসরাইল	-11.2301
▁অতিশয়	-11.2301
▁মাদকদ্রব্য	-11.2301
▁সর্ববৃহৎ	-11.2301
স্বর্গ	-11.2302
▁সমতুল্য	-11.2302
গুল	-11.2305
▁যিহোশূয়	-11.2305
▁উৎসাহজনক	-11.2306
▁সেইসময়	-11.2307
বালা	-11.2308
▁ল্যাব	-11.2308
▁গোপাল	-11.231
ক্ষী	-11.231
গড়া	-11.2313
▁প্রয়োগের	-11.2316
রাজা	-11.2317
▁সতেজ	-11.2318
▁বাজেয়াপ্ত	-11.2319
▁পুষ্প	-11.232
▁কলকারখানা	-11.232
কর্ত্তা	-11.2323
▁কার্যধারা	-11.2324
▁বিক্ষিপ্ত	-11.2325
▁প্রকাশ্য	-11.2328
▁দেবতার	-11.233
▁জেনি	-11.2332
▁হারানো	-11.2334
▁জানিয়েছিল	-11.2337
▁সকলই	-11.2337
রোজ	-11.2338
▁অনুপ্রবেশ	-11.2339
▁পাকবাহিনী	-11.234
▁টেলিভিশনের	-11.2342
▁ফাঁসি	-11.2343
টাইম	-11.2346
নং	-11.2349
ফিক	-11.2349
▁সঙ্গ	-11.2349
▁কম্পিউটারের	-11.2352
▁আয়োজক	-11.2357
▁ইকুয়েডর	-11.2357
▁বৈষ্ণব	-11.2357
▁ক্লায়েন্ট	-11.2357
▁আত্মবিশ্বাস	-11.2359
▁ব্যাধি	-11.2361
▁দায়িত্বপ্রাপ্ত	-11.2361
▁ব্রিটেনের	-11.2362
▁বিরক্তি	-11.2364
▁ভাত	-11.2365
▁শিল্পীদের	-11.2367
▁শিখা	-11.2367
▁ইরানে	-11.2371
▁প্রান্তিক	-11.2372
ক্তা	-11.2372
▁চামড়ার	-11.2373
▁পুরস্কৃত	-11.2376
▁মেট্রোপলিটন	-11.2376
▁বোল	-11.2377
▁বিমানবন্দরে	-11.2377
▁জব	-11.2384
▁গেয়ে	-11.2393
▁বাঁচ	-11.2393
▁সমর্থকদের	-11.2394
▁মধ্যবিত্ত	-11.2395
▁রোমান্টিক	-11.2395
▁দিল্লী	-11.2395
▁নাস্তিক	-11.2395
▁চার্জ	-11.2396
▁সভ্যতা	-11.2397
১৯৯৭	-11.2397
ল্লো	-11.2402
পালন	-11.2402
▁চায়না	-11.2403
আস	-11.2404
▁মাইক	-11.2407
▁শাসিত	-11.2408
▁মন্ত্রিসভা	-11.2413
ডেম	-11.2413
▁ম্যানেজমেন্ট	-11.2413
▁বজ্র	-11.2414
স্কোপ	-11.2416
▁রহস্যময়	-11.2417
▁নবম	-11.2417
▁সার্চ	-11.2418
▁ব্যঙ্গ	-11.2421
▁কোস্ট	-11.2422
▁ফুলের	-11.2423
নির্বাচন	-11.2424
▁আকাশে	-11.2425
ার্থক	-11.2431
▁মন্দিরটি	-11.2432
ঁচা	-11.2432
▁আসছেন	-11.2432
▁মুখোপাধ্যায়	-11.2432
▁ক্ষয়ক্ষতি	-11.2432
▁খানিকটা	-11.2432
▁ভূমিমালিক	-11.2433
▁ক্লে	-11.2435
▁আহরণ	-11.2438
১০০	-11.244
▁প্রণয়	-11.2444
▁আবেগগত	-11.2444
ম্ফ	-11.2445
▁ইকো	-11.2446
ভারতীয়	-11.2449
▁১৯২৭	-11.245
▁বানানোর	-11.2451
▁পিতাকে	-11.2454
▁ঘে	-11.2454
▁নাগরিকত্ব	-11.2457
▁পেপার	-11.2458
বিট	-11.2463
ব্ব	-11.2464
▁ফেলেছি	-11.2465
▁কোয়ে	-11.2466
জীবনের	-11.2467
▁হারানোর	-11.2467
▁সবচে	-11.2468
▁দেয়ালের	-11.2468
▁সভাপতির	-11.247
▁ফলশ্রুতিতে	-11.247
▁সহপাঠী	-11.247
▁সহযোগে	-11.2472
▁প্রতিমা	-11.2472
▁সাক্ষাতে	-11.2472
▁শেষকালে	-11.2473
ন্ত্র	-11.2476
▁আদৌ	-11.2476
▁ডাউন	-11.2479
▁সৌদ	-11.2482
কোনো	-11.2482
প্রসাদ	-11.2482
▁প্রকারের	-11.2482
▁কাগজের	-11.2485
▁কক্সবাজার	-11.2489
▁জলপ্লাবন	-11.2489
▁বংশোদ্ভূত	-11.2489
▁সর্বজনীন	-11.2489
▁চেন্নাই	-11.2489
▁পুনর্নির্মাণ	-11.249
▁খ্রিস্টধর্ম	-11.2492
মিস	-11.2492
▁ব্লে	-11.2493
▁বলবৎ	-11.2494
▁সহিংসতার	-11.2495
▁ঘুষ	-11.2498
▁ফ্রে	-11.2499
পূর্ব্বক	-11.2502
▁দোস্ত	-11.2506
▁আমলের	-11.2508
▁ওয়াচটাওয়ার	-11.2508
▁স্রষ্টা	-11.2508
▁অজ্ঞান	-11.2511
▁দাঁড়া	-11.2515
▁পাবনা	-11.2516
▁প্রতিজ্ঞাগুলো	-11.252
▁তেলের	-11.2523
▁অবলম্বনে	-11.253
▁স্ক্যান	-11.253
▁১৯১৭	-11.2536
▁নিষ্ঠা	-11.2536
ঘরে	-11.2536
ফলাদি	-11.2541
▁স্ল	-11.2542
▁মিশ	-11.2545
▁ভোলা	-11.2546
▁ইন্ডাস্ট্রি	-11.2546
▁তড়িৎ	-11.2547
▁বাধ্যবাধকতা	-11.2547
▁সদ্ব্যবহার	-11.2547
▁রক্ষিত	-11.2548
▁বাসভবন	-11.2549
▁শক্তিকে	-11.255
▁দাবা	-11.2553
আপন	-11.2554
চুয়া	-11.2564
ন্থা	-11.257
▁ইরাকের	-11.2571
▁ডেল	-11.2572
▁পুরোহিত	-11.2572
▁অধ্যবসায়	-11.2572
▁সংসার	-11.2575
▁শিখে	-11.2577
চাঁদ	-11.2579
▁মধ্যম	-11.2585
▁অপারেটর	-11.2585
▁আটলান্টিক	-11.2585
▁নারিকেল	-11.2585
▁এগারো	-11.2585
দ্রোহ	-11.2585
▁রেস	-11.2586
▁প্রোটিন	-11.2586
▁সমালোচনার	-11.2586
ঘটিত	-11.2586
▁চাইনিজ	-11.2591
বাত	-11.2591
ুড়ি	-11.2594
▁করিয়াছি	-11.2597
▁শোভা	-11.2599
ন্তে	-11.2602
▁বিশ্বস্তভাবে	-11.2603
মুদ	-11.2605
▁স্মৃতিস্তম্ভ	-11.2605
গ্রাফ	-11.2605
সিং	-11.2605
▁লাগান	-11.2606
োচিত	-11.2609
কামী	-11.261
▁সমস্যাগুলোর	-11.2612
▁কাদা	-11.2615
▁সেলাই	-11.2616
উদ্	-11.2618
ছড়ি	-11.2619
▁মুখোশ	-11.2624
শায়ার	-11.2624
▁ব্রুনাই	-11.2625
নিয়াম	-11.2626
ফিউ	-11.2626
▁হাইতি	-11.2626
▁আরেকটু	-11.2626
▁তদন্তের	-11.2628
▁আরোপিত	-11.2629
▁অপ্র	-11.2629
▁কামরা	-11.2631
ঁড়া	-11.2633
স্বামী	-11.2635
▁কেক	-11.2635
▁আসক্ত	-11.2637
▁মঙ্গলবার	-11.264
▁গায়িকা	-11.2643
▁তাজিকিস্তান	-11.2643
▁গুড়	-11.2644
▁দ্র	-11.2644
খ্যাত	-11.2645
ল্ডার	-11.2645
কাউন্ট	-11.2648
▁মর্ম	-11.265
বলা	-11.2651
প্রকৃতি	-11.2653
▁রানের	-11.2655
নির্মাণ	-11.2655
▁ভিসা	-11.266
▁হাঁটতে	-11.2661
জীবি	-11.2662
▁মৃৎশিল্প	-11.2662
▁নিবেদিত	-11.2663
▁পৌঁছেছে	-11.2664
▁মুখপাত্র	-11.2664
▁কাগজপত্র	-11.2666
▁ব্রেক	-11.2669
▁শিক্ষায়	-11.267
▁রক্ষী	-11.267
▁লোহার	-11.2671
▁বিশদ	-11.2672
ট্যা	-11.2672
জেল	-11.2677
ঢাকা	-11.2677
্নি	-11.2678
▁অহংকার	-11.2678
ঝি	-11.2679
▁শোনে	-11.268
▁আজকাল	-11.268
▁উল্টো	-11.2682
▁ফোনের	-11.2682
্কি	-11.2684
▁স্তন	-11.2686
রেল	-11.2686
▁ডেটা	-11.2687
▁খোঁজে	-11.269
▁সাক্ষাতের	-11.2693
কাহিনী	-11.2694
িয়েছে	-11.2695
▁ছড়ানো	-11.2697
▁ফোনে	-11.2697
▁মরতে	-11.27
▁পার্লামেন্ট	-11.2701
▁মসৃণ	-11.2701
▁গোঁড়া	-11.2703
▁ধর্মভ্রষ্ট	-11.2704
াহ্	-11.2707
▁আদমের	-11.2711
▁করিতেছি	-11.2715
▁মালি	-11.2718
▁কলঙ্ক	-11.272
▁অবজেক্ট	-11.2721
▁স্ট্যান্ডার্ড	-11.2721
▁আরাকান	-11.2721
▁ক্রুদ্ধ	-11.2721
▁রশিদ	-11.2722
দারি	-11.2722
▁ফারুক	-11.2723
র্মি	-11.2724
▁ঘেরা	-11.2725
▁১৯২৩	-11.2729
▁নির্মম	-11.2732
▁শিকারি	-11.2736
▁অভিলাষ	-11.274
▁মজুত	-11.274
রক্ষী	-11.2741
▁প্রত্যেকেই	-11.2748
▁যাওয়ায়	-11.2749
▁অস্থিরতা	-11.2749
▁কিশোরী	-11.275
▁ভবনে	-11.2753
বন্দি	-11.2755
▁দুগ্ধ	-11.2756
▁স্যান্ড	-11.2756
▁রচনার	-11.2758
▁চার্ট	-11.2758
▁দক্ষিন	-11.276
▁পদাতিক	-11.276
▁জিন্নাহ	-11.276
▁পর্ষদ	-11.276
▁উন্মাদ	-11.276
▁ওয়াটসন	-11.2761
রীতি	-11.2762
▁ভিক্ষু	-11.2762
গেজ	-11.2763
উজ	-11.2764
▁বন্দরে	-11.277
▁শিক্ষার্থীরা	-11.2776
▁কৌশলগত	-11.2777
ল্লাহ	-11.2777
▁বাদে	-11.2779
▁ইউনেস্কো	-11.278
▁বিপণন	-11.278
▁মহাবিদ্যালয়	-11.278
▁সত্যই	-11.2783
আরবী	-11.2783
▁চাহিদার	-11.2783
▁কেরালা	-11.2785
▁ভাঙ	-11.2788
▁প্রহরী	-11.2791
▁ঝাঁক	-11.2791
ানুযায়ী	-11.2792
পিতা	-11.2793
▁ইয়াহ	-11.2794
নারায়ণ	-11.2797
▁চাহিদাগুলো	-11.2799
▁লৌহ	-11.2799
▁পরিত্রাণের	-11.28
▁যুক্তিসংগত	-11.28
▁সমর্পণ	-11.28
▁বধির	-11.2801
স্রাব	-11.2802
▁রাস	-11.2804
▁ফুটে	-11.2805
▁দুর্নীতির	-11.2808
▁ফ্লু	-11.2809
▁উড	-11.2811
▁হননি	-11.2811
পিএল	-11.2813
▁যন্ত্রের	-11.2817
জেস	-11.2817
দলের	-11.2818
▁পিস্তল	-11.2819
▁স্কট	-11.2819
▁পূরণকল্পে	-11.2819
নিয়ান	-11.282
▁গেলেও	-11.282
▁জাদুঘরে	-11.282
▁নবীন	-11.2822
য়েত	-11.2824
▁বাতাসের	-11.283
▁সতী	-11.283
▁এশিয়ায়	-11.2831
▁যথাযথভাবে	-11.2832
▁জনক	-11.2833
হাতে	-11.2834
সংযোগ	-11.2837
▁খাস	-11.2838
েটেড	-11.2838
▁ক্লেশ	-11.2838
▁হালনাগাদ	-11.2839
▁১৪৫	-11.2841
▁মুকুট	-11.2841
▁বনভূমি	-11.2843
▁অভ্যন্তর	-11.2844
▁কবিতার	-11.2847
▁সেক্ষেত্রে	-11.2848
▁নব্য	-11.2848
▁পেছনের	-11.2849
▁গভীরে	-11.285
▁যেদিন	-11.2851
▁অক্ষরে	-11.2852
▁থু	-11.2852
▁ফান্ড	-11.2854
কারণ	-11.2856
পড়া	-11.2858
▁গণপ্রজাতন্ত্রী	-11.2858
▁সর্বশক্তিমান	-11.2858
▁সুবাহদার	-11.2858
▁নিবিড়	-11.2858
▁বাগানে	-11.2859
▁ওমর	-11.286
▁বদ্বীপ	-11.286
▁চাইছে	-11.2862
১৯৯৯	-11.2863
▁পাচ্ছ	-11.2863
▁খাইয়ে	-11.2863
▁ইনস্টিটিউটের	-11.2866
য়েন্ট	-11.2867
▁দিদি	-11.2868
▁আগুনে	-11.287
বার্ষিক	-11.2872
▁আয়ু	-11.2873
্যাম	-11.2873
▁ফরম	-11.2873
বেগ	-11.2877
▁এনকোডিং	-11.2878
▁রেস্টুরেন্ট	-11.2878
▁স্বর্ণপদক	-11.2878
▁ঐক্যবদ্ধ	-11.2879
▁নির্মূল	-11.288
▁দুর্ঘটনার	-11.2882
▁কোরিয়ান	-11.2883
▁সৌ	-11.2884
▁কানা	-11.2886
▁দায়ূদকে	-11.2888
▁দেখিনি	-11.2889
▁রোমে	-11.2896
▁পরীক্ষামূলক	-11.2897
▁প্লাস্টিক	-11.2899
▁কৃষিজমি	-11.2899
ানুষ্ঠান	-11.2899
▁শ্রমিকের	-11.2904
▁বহুমুখী	-11.2905
▁সহযোগিতার	-11.2906
▁সুম	-11.2906
▁নির্দেশিত	-11.2908
মণ্ডলী	-11.2909
▁স্টেশনটি	-11.2912
ুরি	-11.2912
শিক্ষিত	-11.2913
▁অধিবাসীরা	-11.2916
হোম	-11.2916
▁মজবুত	-11.2918
▁অর্থহীন	-11.2918
▁ডিসপ্লে	-11.2918
ঞ	-11.2919
স্বাস্থ্য	-11.2922
▁যুক্তরাজ্যে	-11.2931
▁গণতন্ত্রের	-11.2934
▁থাকিবে	-11.2934
আত্মা	-11.2934
সিআই	-11.2938
▁রিজার্ভ	-11.2938
▁টল	-11.2938
যু	-11.2942
রিচ	-11.2944
▁সুরে	-11.2946
ত্রিশ	-11.2946
▁ইশ	-11.295
কাট	-11.2954
▁চালনা	-11.2954
▁মায়ানমারের	-11.2954
▁ব্রো	-11.2956
প্রচার	-11.2957
▁ভৌগলিক	-11.2958
▁অমান্য	-11.2958
▁রপ্তানিদ্রব্য	-11.2958
▁ভাইবোনেরা	-11.2961
▁ফিলিপাইনের	-11.2962
▁লোকটি	-11.2969
▁প্রশ্নটা	-11.297
▁বাসিন্দাদের	-11.2971
▁বণ্টন	-11.2974
▁পিন	-11.2974
▁রবীন্দ্র	-11.2977
▁মুদ্রিত	-11.2978
▁টেনিস	-11.2979
▁নিজেও	-11.2981
▁টুর্নামেন্টে	-11.2984
▁দলগুলোর	-11.2985
▁সুতা	-11.2989
▁মৃত্তিকার	-11.299
পোকা	-11.299
▁ঘোরা	-11.2992
▁পড়েছি	-11.2993
▁মেল	-11.2993
▁আইটেম	-11.2998
▁শোভাযাত্রা	-11.2998
▁অ্যাট	-11.2998
▁সংকীর্ণ	-11.2998
োয়ান	-11.2999
▁মোহন	-11.2999
▁ধ্বংসাত্মক	-11.3001
▁গ্যালারি	-11.3004
১৯৯৮	-11.3005
▁১০৪	-11.3006
▁পেশায়	-11.3006
▁অসিদ্ধতা	-11.3016
▁ষোল	-11.3018
▁মধুর	-11.3018
▁উল্লাস	-11.3019
▁গ্রীস	-11.302
▁সংঘটন	-11.302
▁পূর্ববঙ্গ	-11.3021
সর্ব	-11.3021
▁ইউরোপিয়ান	-11.3022
▁গ্রিন	-11.3027
▁ডিসি	-11.303
▁বারান্দা	-11.3038
মঙ্গল	-11.3039
াঘাত	-11.3041
আমেরিকান	-11.3043
▁প্রসেস	-11.3043
▁টনি	-11.3046
▁মূল্যে	-11.3047
ভঙ্গি	-11.3048
▁পাদ	-11.3052
যাহারা	-11.3052
চীন	-11.3053
▁গুটি	-11.3054
▁জানু	-11.3054
▁বাহরাইনের	-11.3056
পলি	-11.3057
▁জামাল	-11.3058
▁তাৎক্ষণিক	-11.3058
▁বিজ্ঞপ্তি	-11.3058
▁স্মৃতিচিহ্ন	-11.3059
▁পরস্পরকে	-11.3059
▁লক্ষ্যবস্তু	-11.306
▁আর্জেন্টিনার	-11.3062
▁চলাকালে	-11.3064
▁বপন	-11.3064
▁লেবাননের	-11.3065
১৯৯৬	-11.3067
▁ডুব	-11.3067
▁লোপ	-11.3067
▁ডট	-11.3068
▁তুলেন	-11.3069
▁বক্র	-11.3071
পরিচালক	-11.3073
পিয়া	-11.3074
মূর্তি	-11.3075
বশত	-11.3077
▁চাকা	-11.3077
▁ছেলেটি	-11.3077
▁টেবিলের	-11.3078
রাশি	-11.3078
▁নেতৃবৃন্দ	-11.3078
▁সুষ্ঠু	-11.3078
▁স্যুট	-11.3079
▁জামিন	-11.3079
আন	-11.308
▁নদীটি	-11.3082
▁গলায়	-11.3083
প্লি	-11.3085
▁যেতেন	-11.3089
▁আইনসভা	-11.309
স্পি	-11.3093
▁এসেছ	-11.3095
▁হায়দ্রাবাদ	-11.3099
মানি	-11.3099
▁পাঁচটা	-11.3106
বেক	-11.3106
হেল	-11.3107
স্ট্রো	-11.3107
▁পরিষদে	-11.3109
▁গার্ডেন	-11.3112
▁ব্যাটিং	-11.3113
▁সাক্ষাৎকারে	-11.3114
▁রিপাবলিক	-11.3114
▁পোড়ামাটি	-11.3119
▁ফসলের	-11.3121
▁ঘুমাতে	-11.3122
চালিত	-11.3126
▁স্টোরি	-11.3131
ারস	-11.3132
▁দিবসে	-11.3134
▁ডেভ	-11.3137
▁কোলা	-11.3137
▁পুঁজিবাদ	-11.3137
▁ফ্রান্সিস	-11.3138
বার্তা	-11.3139
▁ব্যায়াম	-11.3139
▁দেখেছিলাম	-11.314
▁বউ	-11.3142
নিয়ন	-11.3144
▁বাঁশের	-11.3145
গ্রাফি	-11.3149
▁বিবরণী	-11.3152
▁ফোর্ট	-11.3152
▁বাবামারা	-11.3159
▁বিধ্বস্ত	-11.316
▁ইসমাইল	-11.316
▁গ্রামাঞ্চলে	-11.316
▁নারায়ণগঞ্জ	-11.3161
▁থামিয়ে	-11.317
▁প্রত্যা	-11.3175
পরিবার	-11.3175
▁অপরাধে	-11.3179
▁দাবিতে	-11.318
▁ধর্মনিরপেক্ষ	-11.318
▁প্রদেয়	-11.318
▁শুকনো	-11.318
▁বিক্রির	-11.3181
সংবাদ	-11.3181
▁সোম	-11.3182
▁হারাতে	-11.3182
▁মানদণ্ড	-11.3183
▁প্রত্যেককে	-11.3183
▁শিখেছিলেন	-11.3183
মোহ	-11.3184
নাট্য	-11.3184
▁পাহারা	-11.3185
২০১৬	-11.3186
▁দেড়	-11.3187
▁রিজ	-11.3188
১৯৯৫	-11.3188
▁ইনিংস	-11.319
▁নেদারল্যান্ডস	-11.3192
▁লোহা	-11.3195
▁নিঃশ্বাস	-11.32
▁স্পোর্টস	-11.32
▁জগৎকে	-11.3201
▁তৈরিতে	-11.3203
▁শ্	-11.3204
▁পরিধি	-11.3205
▁শূ	-11.3207
▁জিমি	-11.3208
▁উচ্চশিক্ষা	-11.3209
তত্ত্ববিদ	-11.321
▁সারাংশ	-11.3212
▁পোড়া	-11.3212
ডাক	-11.3217
বাসীদের	-11.3217
▁খেলাটি	-11.3218
▁বৈবাহিক	-11.3221
▁রোহিঙ্গা	-11.3221
▁ভ্যাটিকান	-11.3221
ুণ	-11.3224
▁শেষদিকে	-11.3226
▁বিলাস	-11.3227
▁ধোয়া	-11.3227
▁মিউ	-11.3229
▁বন্দরের	-11.3232
▁বিনয়	-11.324
▁যৌগ	-11.3241
▁কন্	-11.3244
▁লেখাপড়া	-11.3244
▁উপমহাদেশের	-11.3245
ণ্ডা	-11.3245
▁১৯১২	-11.3247
▁প্রান্তরে	-11.3248
▁ফেরা	-11.325
▁ফিল	-11.325
▁মিত	-11.3251
াচরণ	-11.3251
▁ইভান	-11.3253
▁ইতিহাসবিদ	-11.3254
▁চলেছেন	-11.3254
▁অস্থি	-11.3259
নতুন	-11.326
▁ভার্চুয়াল	-11.3262
▁ক্ষমতাসীন	-11.3262
▁গুজরাট	-11.3262
▁ভালবাসতে	-11.3263
▁অপেরা	-11.3263
▁বরেন্দ্র	-11.3264
মায়েদের	-11.3264
▁ব্যাহত	-11.3264
▁উইমেন	-11.3267
▁হচ্ছি	-11.3272
▁অভ্	-11.3273
▁সম্ভবপর	-11.3273
্বী	-11.3274
নিয়ম	-11.3274
ব্লি	-11.3277
টিক্স	-11.3278
▁কেনিয়ার	-11.3281
▁উৎকৃষ্ট	-11.3283
▁ব্রাহ্ম	-11.3283
▁পেছন	-11.3285
▁পাঠায়	-11.3286
▁উড়িয়ে	-11.3289
ক্ষম	-11.329
ফুর	-11.329
যাহা	-11.3291
▁নরক	-11.3293
▁কই	-11.3293
▁মুক্তিযুদ্ধ	-11.3293
▁প্রায়শ	-11.3294
▁দয়ালু	-11.3294
খ্রিস্টপূর্বাব্দ	-11.3295
উনি	-11.3297
▁ছেদ	-11.3297
চারী	-11.3298
▁পোল	-11.3299
▁পিছনের	-11.33
▁মিউনিখ	-11.3303
▁যান্ত্রিক	-11.3303
▁মদ্যপান	-11.3304
▁জঙ্গি	-11.3306
▁সিরীয়	-11.3306
পদার্থ	-11.3308
▁টক	-11.3308
১৯৯৪	-11.3312
▁স্বাধীনভাবে	-11.3314
▁নিদ্রা	-11.3314
▁হেন	-11.3316
▁একাই	-11.3317
াভ	-11.3323
মন্দির	-11.3325
▁ভারি	-11.3325
▁আচ্ছাদিত	-11.3325
▁নমনীয়	-11.3325
▁জাদুকর	-11.3327
▁বিবি	-11.3327
▁স্নান	-11.3329
▁ডানা	-11.3331
▁আলোকিত	-11.3334
▁মোটেও	-11.3335
▁কাটার	-11.3338
▁সন্তানেরা	-11.3339
▁ইয়ু	-11.334
▁ইতালির	-11.3341
▁বন্ড	-11.3341
▁উত্স	-11.3342
▁চেনা	-11.3342
▁তফসিল	-11.3345
বস্তু	-11.3345
ফ্যা	-11.3346
▁প্রবর্তনের	-11.3347
▁ঐতিহ্যের	-11.3348
▁বধ	-11.3348
▁জ্বালানী	-11.335
▁ধারণাটি	-11.3351
শীপ	-11.3355
▁মেন	-11.3359
▁স্টোন	-11.3361
বৃক্ষ	-11.3363
▁তখনকার	-11.3365
▁কনফিগার	-11.3365
▁আর্সেনিক	-11.3366
▁গ্র্যাজুয়েট	-11.3366
▁ন্যূনতম	-11.3366
▁প্রশংসিত	-11.3366
▁বত্সর	-11.3366
▁কর্ণাটক	-11.3367
▁টুপি	-11.3368
▁একথা	-11.337
▁সদস্যগণ	-11.3371
ড়িয়ে	-11.3372
▁প্রতিলিপি	-11.3374
▁ব্যাথা	-11.3374
শ্রেণী	-11.3374
করি	-11.3376
▁সাময়িকভাবে	-11.3381
▁উপসাগর	-11.3384
▁পদোন্নতি	-11.3386
▁ইনি	-11.3387
নাটক	-11.3388
▁শর্তাবলী	-11.3389
▁দেহে	-11.3391
▁থাকতাম	-11.3394
▁খুনি	-11.3396
▁বিএ	-11.3396
▁ফার্সি	-11.3403
▁একেক	-11.3405
▁কাটানোর	-11.3405
▁উইলিয়ম	-11.3407
▁সংগঠক	-11.3407
▁বিএনপি	-11.3407
▁বস্তুত	-11.3409
▁স্বপ্নের	-11.341
▁লালন	-11.3411
▁এগুলোকে	-11.3412
ভান্ডার	-11.3413
▁প্রতিনিধিদের	-11.3414
▁আত্মায়	-11.3416
▁তিনবার	-11.3418
লিট	-11.3423
কানুন	-11.3424
▁মিশ্রিত	-11.3428
▁পরিচিতির	-11.3428
▁আইএসবিএন	-11.3428
▁উপস্থাপিত	-11.3428
▁ফার্স্ট	-11.3428
▁বায়ুমণ্ডল	-11.3429
▁মামা	-11.3432
▁বর্ণের	-11.3432
▁তরুণী	-11.3433
▁আলোকে	-11.3435
অর্থ	-11.3435
▁চাইবেন	-11.3436
▁ধরছে	-11.3436
▁বেকারত্ব	-11.3443
▁সপ্তা	-11.3444
▁রানে	-11.3448
▁ইউনিভার্স	-11.3449
▁অক্সিজেন	-11.3449
▁বাৎসরিক	-11.3449
পত্নী	-11.3449
▁অলঙ্কার	-11.345
▁বাগদাদ	-11.345
▁লত্তয়া	-11.3451
▁হাটবাজার	-11.3451
▁অগাস্ট	-11.3453
▁উগান্ডা	-11.3457
▁বন্দীদের	-11.3459
▁যাবৎ	-11.346
▁২০২০	-11.3461
▁সাঁ	-11.3463
▁দখলে	-11.3465
▁বিলুপ্তি	-11.3466
▁যৌবন	-11.3466
▁দৃঢ়তা	-11.3466
গুপ্ত	-11.347
▁দ্রাক্ষারস	-11.347
▁অর্থনীতিবিদ	-11.347
শোধ	-11.3473
▁ঢালা	-11.3475
▁পাঁচজন	-11.3475
▁লোম	-11.3476
▁চেষ্টায়	-11.3482
▁বদলা	-11.3484
▁সাইফ	-11.3485
▁সেইসমস্ত	-11.3486
সত্ত্ব	-11.3488
▁উপসংহার	-11.3489
▁বিষয়বস্তুর	-11.3489
▁স্বেচ্ছাসেবী	-11.3491
▁প্রবীণ	-11.3491
▁শ্রীলংকা	-11.3491
▁আলজেরিয়া	-11.3491
ুলেশন	-11.3492
আরবি	-11.3494
একর	-11.3495
▁প্লেয়ার	-11.3496
▁কন্স	-11.3499
মোচন	-11.3499
যিনি	-11.3504
▁জিজ্ঞাসাবাদ	-11.3507
▁সন্ধি	-11.3508
▁অধ্যক্ষের	-11.3509
▁পারলাম	-11.3511
▁অবতীর্ণ	-11.3512
▁চট্টোপাধ্যায়	-11.3512
▁শুভেচ্ছা	-11.3512
▁ধাঁধা	-11.3512
▁১৪০	-11.3513
▁উদয়	-11.3515
▁যাবতীয়	-11.3515
▁হরিণ	-11.3519
▁নুর	-11.3521
▁ইন্	-11.3522
▁গ্রেড	-11.3523
▁নম	-11.353
▁হেলেন	-11.3531
▁প্রোটোকল	-11.3533
▁ইস্পাত	-11.3534
▁দুর্ঘটনায়	-11.3536
▁রেকর্ডিং	-11.3536
বীজ	-11.3545
▁হইও	-11.3547
▁বিশৃঙ্খলা	-11.3547
▁ট্যাগ	-11.3551
▁ক্লাসের	-11.3554
▁ক্রেডিট	-11.3555
প্রত্য	-11.3555
▁বলছিলেন	-11.3555
▁স্টিল	-11.3559
▁সমীকরণ	-11.3559
ফান	-11.3559
▁বস্তি	-11.356
▁তুলনামূলক	-11.356
চ্ছেন	-11.3561
▁নিঃস	-11.3563
চিন্তা	-11.3567
▁তাত্ত্বিক	-11.3567
▁অ্যাকশন	-11.3576
▁প্রতারিত	-11.3576
▁পশুপাখি	-11.3576
▁জাভা	-11.3577
▁গোবিন্দ	-11.3579
▁নির্বোধ	-11.3581
▁জগ	-11.3585
মুখে	-11.3586
খানেক	-11.3586
▁মরিচ	-11.3587
▁বেল্ট	-11.3587
▁গ্রন্থটি	-11.3587
▁বিপদে	-11.359
▁উট	-11.359
▁মিলি	-11.3592
▁রিকো	-11.3596
▁অযৌক্তিক	-11.3597
▁অশুচি	-11.3597
▁থমাস	-11.3599
▁বিদ্ধ	-11.3599
▁অনিশ্চিত	-11.3599
▁সদস্যপদ	-11.36
▁পাকারাস্তা	-11.36
দ্রি	-11.3601
নাশক	-11.3602
▁রক্তপাত	-11.3603
উইক	-11.3603
▁লতা	-11.3615
চ্ছন্ন	-11.3615
▁বিনতি	-11.3616
দুঃখ	-11.3617
▁স্থিতি	-11.3618
▁বন্দ্যোপাধ্যায়	-11.3618
▁অলস	-11.3619
▁সন্তোষজনক	-11.3619
▁দারুন	-11.3621
▁টপ	-11.3621
▁বাস্তবায়িত	-11.3621
▁স্তূপ	-11.3621
ক্রান্ত	-11.3622
▁ফজলুল	-11.3624
▁মিমি	-11.3624
▁সীমান্তের	-11.3626
▁সুবিধাজনক	-11.3626
▁চারদিকে	-11.3627
সাগর	-11.3628
▁সই	-11.363
▁গ্রহের	-11.3633
▁কেনো	-11.3633
▁অস্তিত্বে	-11.3635
হরণ	-11.3637
স্থায়ী	-11.3638
পিএস	-11.3642
▁অবরুদ্ধ	-11.3646
▁আবরণ	-11.3649
▁অফলাইন	-11.365
▁বানর	-11.3651
ত্তি	-11.3659
▁ক্রমান্বয়ে	-11.3661
▁চওড়া	-11.3661
▁হাস্যরসাত্মক	-11.3661
▁নজরদারি	-11.3662
▁ভূতাত্ত্বিক	-11.3662
সূচী	-11.3663
▁মিট	-11.3668
সিরাজুল	-11.3676
▁মৈ	-11.368
▁অ্যাম্ব্রা	-11.3683
▁আম্পায়ার	-11.3683
▁গ্রাউন্ড	-11.3683
▁চিলি	-11.3683
▁দ্রব্যের	-11.3684
▁অন্তঃ	-11.3684
▁চার্লি	-11.3686
▁লুকানো	-11.3687
▁কারখানার	-11.3687
প্রভা	-11.3688
▁৫ম	-11.3688
▁অর্থদণ্ড	-11.3688
▁মার্থা	-11.3689
▁চলছিল	-11.369
বাহিত	-11.3694
▁ক্যাশ	-11.3695
কুয়া	-11.3696
▁সমালোচকদের	-11.37
▁বহিষ্কার	-11.3704
▁সহজাত	-11.3706
▁দুবার	-11.3707
▁সফরের	-11.3707
▁উপসর্গ	-11.3708
▁বসতে	-11.3708
▁দুর্গা	-11.3709
▁রাজতন্ত্র	-11.371
▁ফেরি	-11.3717
▁সুবর্ণ	-11.372
▁বিঘ্ন	-11.372
পরবর্তী	-11.3721
▁টেবিলে	-11.3723
স্বাধীনতা	-11.3725
▁অংক	-11.3725
▁পরিলক্ষিত	-11.3726
▁হযরত	-11.3726
▁জোগায়	-11.3726
▁শয্যা	-11.3726
▁শর্মা	-11.3726
▁গুদাম	-11.3727
▁সিট	-11.3727
রত্ন	-11.3729
▁ভেতরের	-11.373
▁থামাতে	-11.373
▁ব্রড	-11.3731
▁বিরাজ	-11.3731
▁চরণ	-11.3734
▁আঠা	-11.3735
ফ্রা	-11.3736
ভিস	-11.3741
▁১৯০০	-11.3743
▁আগুনের	-11.3744
▁প্রেমিক	-11.3745
▁উদ্দীপিত	-11.3747
▁সঞ্চার	-11.3747
▁নিছক	-11.3748
▁ক্ষুধার্ত	-11.3748
▁জং	-11.3749
▁উপভাষা	-11.3752
▁প্রতিকার	-11.3753
▁সূচক	-11.3756
▁করিয়াছিলেন	-11.3759
জাজ	-11.3761
▁বশে	-11.3762
▁গোয়া	-11.3764
▁সাবধানে	-11.3767
▁অন্তঃকরণ	-11.3768
▁স্ক্রিপ্ট	-11.3769
▁বিধায়	-11.3769
▁সিটিতে	-11.3769
▁আচ্ছাদন	-11.377
▁ছুট	-11.3777
▁জনসাধারণ	-11.3782
▁অসুস্থতার	-11.3783
▁পাইনি	-11.3785
পীড়ন	-11.3786
▁এঞ্জেল	-11.3787
▁ছাদের	-11.3788
▁দৃশ্যত	-11.3791
▁ওডিআই	-11.3792
▁দাঁতের	-11.3792
▁সদ্য	-11.3793
▁ছাই	-11.3793
▁ঘটিয়ে	-11.3793
▁বাতাসে	-11.3795
▁পৃষ্ঠপোষক	-11.3795
▁ডাকাতি	-11.3798
▁ইং	-11.3802
▁ডেমোটিক্স	-11.3812
▁ভিট্টোরিয়া	-11.3812
▁ইন্টারফেস	-11.3812
▁হিট	-11.3815
সিভ	-11.3816
লেখ	-11.3816
▁সূত্রে	-11.3819
▁ব্যবধান	-11.3819
▁ভ্রান্ত	-11.382
▁কামড়	-11.3822
▁সফলতার	-11.3823
▁ক্যাফে	-11.3827
▁শ্রেণীতে	-11.383
▁সাংগঠনিক	-11.3834
নিরীক্ষা	-11.3834
▁শীর্ষস্থানীয়	-11.3835
▁ডেইলি	-11.3835
▁ক্রিসমাস	-11.3835
▁কষ্টভোগ	-11.3836
▁পিঠে	-11.3839
▁১৯১১	-11.3842
ণ্ট	-11.3842
▁আশ্রম	-11.3846
লেক্স	-11.3848
▁কীসের	-11.385
ডাম	-11.385
▁টিক	-11.3851
কীর্তন	-11.3852
▁ক্ষণ	-11.3853
র্পণ	-11.3853
জ্জ্বল	-11.3854
▁রাজস্থান	-11.3854
▁পাকবাহিনীর	-11.3854
▁মাইক্রোসফট	-11.3856
▁সঙ্গেসঙ্গে	-11.3856
▁প্রবন্ধের	-11.3858
▁আমোদ	-11.3859
▁রয়েল	-11.386
▁নগ্ন	-11.386
▁নকশার	-11.386
▁সমকালীন	-11.3862
▁নিজাম	-11.3863
▁কপট	-11.3869
▁ভালবাস	-11.3871
হ্যাম	-11.3872
শিয়ার	-11.3875
▁সমাপ্তির	-11.3876
▁তালেবান	-11.3878
▁তাঁত	-11.388
োনিয়া	-11.3884
▁রোজা	-11.3884
ত্যা	-11.3887
▁১৯০৫	-11.3888
▁সিটির	-11.3889
▁বাচ্চার	-11.3894
▁উপগ্রহ	-11.3895
▁আন্ডার	-11.3896
▁দ্বিতীয়বার	-11.3898
▁রানা	-11.3899
ভেট	-11.3899
▁ভাইবোন	-11.3899
▁ট্যুর	-11.39
▁নির্বাসন	-11.39
▁উইনস্টন	-11.39
▁সাধিত	-11.39
তাবাদ	-11.3901
▁বর্ম	-11.3902
▁আর্ক	-11.3903
থী	-11.3905
▁দিয়াবলের	-11.3908
▁গ্র্যা	-11.3909
▁মন্দা	-11.3911
১৯৯৩	-11.3914
এমসি	-11.3918
রিয়াল	-11.392
▁জনেরও	-11.3921
▁চিড়িয়াখানা	-11.3922
▁কেন্দ্রবিন্দু	-11.3924
▁তাৎপর্যপূর্ণ	-11.3924
▁বাঁকা	-11.3926
প্রাচীন	-11.3926
▁প্রাপ্তি	-11.3927
▁বিমানবন্দরটি	-11.393
▁নট	-11.3931
▁শিম	-11.3935
▁ড্রাগন	-11.3936
দুই	-11.3937
▁কেয়ার	-11.3941
এফসি	-11.3943
▁জাহাঙ্গীর	-11.3943
▁পিস	-11.3944
▁ভাগই	-11.3944
াচারী	-11.3946
্রিক	-11.3946
▁ঘানা	-11.3952
▁প্রক্সি	-11.3952
▁রাখব	-11.3954
পিট	-11.3956
▁দাঁড়ানো	-11.396
▁শীর্ষে	-11.396
▁খিলাফত	-11.3966
▁নববর্ষ	-11.3968
▁আশাবাদী	-11.3972
▁মূ	-11.3976
▁সকালের	-11.3977
ঙ্খ	-11.3981
▁জোগান	-11.3982
▁ইতিহাসবেত্তা	-11.3988
▁সার্বজনীন	-11.3988
▁ব্যাস	-11.3988
▁পর্বতের	-11.399
কূল	-11.3991
▁স্টিভ	-11.3995
▁অ্যান্ট	-11.3996
দৃশ্য	-11.3997
▁দামি	-11.3999
আহ	-11.3999
পুর্ণ	-11.4003
▁বৈঠকে	-11.4005
▁বোনা	-11.4008
▁তীক্ষ্ণ	-11.401
▁সংস্পর্শে	-11.401
▁একুশে	-11.4011
▁স্ক্রীন	-11.4011
▁শর্তে	-11.4012
▁সেরকম	-11.4014
▁অনুরাগ	-11.4014
▁নম্বরে	-11.4017
▁স্কেল	-11.4017
১৯৭১	-11.4021
ধাম	-11.4023
▁প্রীতি	-11.4023
▁রন	-11.4025
▁খড়্গ	-11.4029
বাম	-11.4029
▁তাকান	-11.4031
▁পরীক্ষণ	-11.4033
▁টীকা	-11.4033
▁খুনের	-11.4034
▁দেখেছ	-11.4034
▁ছাত্রকে	-11.4038
▁অঙ্কিত	-11.4041
▁গির্জায়	-11.4041
▁বিনিয়োগকারী	-11.4043
▁হানি	-11.4044
▁তুলেছিলেন	-11.4044
মেয়ে	-11.4046
▁আগ্রা	-11.4048
▁ধারাবাহিকে	-11.405
▁আসবাবপত্র	-11.4055
▁আউটপুট	-11.4055
▁প্রাসঙ্গিক	-11.4055
▁ব্রুকলিন	-11.4055
▁শিথিল	-11.4055
▁বাঁচানোর	-11.4056
▁বিরক্তিকর	-11.4057
▁দানব	-11.4057
▁ত্রিত্ব	-11.4058
▁পেরেছেন	-11.4059
ঙ্কো	-11.406
▁১৯১০	-11.4063
▁৪র্থ	-11.4066
▁ডাক্তারের	-11.4069
▁শিখেছেন	-11.4071
যারা	-11.4075
▁সংশোধিত	-11.4077
▁ঠিকানায়	-11.408
▁ভগবান	-11.4081
দ্বার	-11.4083
▁ক্ষেত্রমত	-11.4087
▁সেমিনার	-11.409
▁বাদামি	-11.4092
▁বিপর্যয়ের	-11.4093
▁দাঁড়াতে	-11.4094
▁লেই	-11.4094
▁মনুষ্যের	-11.4096
▁কাঁধে	-11.4096
ধন্য	-11.4099
▁খুঁজছে	-11.41
▁রাশেদ	-11.41
▁কুর্দি	-11.41
বালি	-11.4101
▁উপাসনায়	-11.4102
▁চাপিয়ে	-11.4102
▁সাথী	-11.4103
ভিশন	-11.4104
▁১০৬	-11.4108
▁১৬০	-11.411
ক্টো	-11.4117
স্টন	-11.4118
▁রাখছে	-11.4121
▁ইতস্তত	-11.4122
▁জলদস্যু	-11.4122
▁থিষল	-11.4122
▁সম্বোধন	-11.4122
যিরমিয়	-11.4124
পরীক্ষা	-11.4124
▁কুখ্যাত	-11.4125
▁খুজ	-11.4129
▁ছিট	-11.4129
ডাউন	-11.4129
ন্ডু	-11.4129
▁সাটো	-11.413
▁জমে	-11.4134
▁কণ্ঠে	-11.4136
▁সংবিধানে	-11.4138
▁স্কয়ার	-11.4139
▁জগন্নাথ	-11.4144
▁আয়তাকার	-11.4144
▁আংটি	-11.4145
ার্ধ	-11.415
ণীয়	-11.4155
▁সদৃশ	-11.4157
▁ঝড়ের	-11.4158
কালো	-11.4159
▁ভৌত	-11.4162
▁ভেজা	-11.4165
▁গাড়িটা	-11.4167
▁ক্ষীণ	-11.4167
▁আগ্নেয়গিরি	-11.4167
▁মুরগি	-11.4168
▁একাগ্র	-11.4169
▁পরিস্থিতিকে	-11.4171
▁উপরন্তু	-11.4172
▁শোনো	-11.4175
▁ট্রেনে	-11.4177
চ্চা	-11.4179
ফেল	-11.4181
▁জোরদার	-11.4182
▁প্রোগ্রামিং	-11.4184
▁শামস	-11.4184
▁প্রত্ন	-11.4185
▁ফান	-11.4188
▁প্রেরক	-11.4189
হাজার	-11.4193
▁স্ট্রা	-11.4194
কানা	-11.4195
▁ইফি	-11.4196
▁অঙ্কন	-11.4198
শৃঙ্খলা	-11.42
▁নজরে	-11.4202
তখন	-11.4204
বিষয়গুলো	-11.4205
▁রাশিয়ায়	-11.4208
▁বিধিব্যবস্থা	-11.4209
▁রাজত্বকালে	-11.4209
▁উচ্চপদস্থ	-11.4212
▁পান্ডুলিপি	-11.4212
▁প্রলুব্ধ	-11.4212
▁ব্রাসেরো	-11.4212
▁জলাভূমি	-11.4212
শুদ্ধ	-11.4212
▁পর্দায়	-11.4213
প্রদ	-11.4214
িয়েল	-11.4215
▁দেরী	-11.4215
▁ফসলাদি	-11.4215
দ্রব্য	-11.4217
▁অনুমতিক্রমে	-11.4218
▁নম্রভাবে	-11.4218
▁বুঝেছি	-11.4221
▁বিক্ষোভকারীরা	-11.4227
১৯৬৯	-11.4229
াতীত	-11.423
▁ফিউ	-11.4231
▁আইনী	-11.4233
▁দুষ্	-11.4234
▁ঘূর্ণ	-11.4235
▁অনুপযুক্ত	-11.4235
▁অনুতাপ	-11.4235
▁উৎকর্ষ	-11.4235
পত্তন	-11.4236
বিয়ান	-11.4238
খাদ্য	-11.4241
▁সাক্ষাত	-11.4242
▁রকেট	-11.4242
৬০০	-11.4242
▁মেডেল	-11.4246
ছাত্রী	-11.4248
টাউন	-11.4253
▁এডুকেশন	-11.4257
▁নিরীহ	-11.4257
▁পটার	-11.4258
▁মিথ্যে	-11.4258
খ্রিস্ট	-11.4258
▁শব্দগুলো	-11.426
▁কুকুরের	-11.426
▁পাহাড়ে	-11.426
▁সংকটের	-11.4262
কার্য্য	-11.4264
▁ছিন্ন	-11.4265
▁গিটার	-11.4267
আরসি	-11.4269
▁আইল্যান্ড	-11.427
▁এস্টেট	-11.4271
▁বোধগম্য	-11.4273
ঙ্গাল	-11.4275
▁পারার	-11.4276
ন্নি	-11.4278
▁কোণে	-11.4279
▁লাভজনক	-11.428
▁বন্যপ্রাণী	-11.428
▁পাল্কি	-11.4281
▁হিটলার	-11.4282
▁মী	-11.4283
নেশন	-11.4284
▁প্রজাদের	-11.4284
▁সরবরাহকারী	-11.4286
দুল	-11.4287
▁বেড়াতে	-11.4292
উৎ	-11.4294
▁হায়দার	-11.4294
▁বিরোধিতার	-11.4295
▁হাঁটু	-11.4295
▁দেশগুলো	-11.4295
দ্বারা	-11.4297
▁অচল	-11.4299
▁পৌছে	-11.4301
▁দাউদ	-11.4304
▁বিছানায়	-11.4307
▁আর্মেনিয়া	-11.431
▁শ্রবণ	-11.4314
▁নোয়া	-11.4321
▁দানা	-11.4322
ব্রু	-11.4322
শিষ্ট	-11.4322
▁খোঁজা	-11.4324
▁বলছ	-11.4324
খালি	-11.4325
▁ঠাট্টা	-11.4326
▁শিখিয়েছিলেন	-11.4327
▁বিশ্বজুড়ে	-11.4329
▁বেড়েছে	-11.4329
▁ইসলামাবাদ	-11.4331
ভুমি	-11.4332
▁খ্রীষ্টানরা	-11.4333
▁বিদ্রোহীদের	-11.4335
বহুল	-11.4336
সামরিক	-11.4338
▁ক্রুশ	-11.434
▁সুরকার	-11.4342
▁অযথা	-11.4349
▁কার্যকারিতা	-11.4349
▁গ্রাফিক	-11.4349
▁নিস্তারপর্ব	-11.4349
▁টিকেট	-11.435
▁বনাঞ্চল	-11.4351
যীশু	-11.4352
▁উড়ান	-11.4354
▁রিও	-11.436
▁উৎসুক	-11.4361
▁ব্যাংকক	-11.4364
এন্ড	-11.4364
গাড়ি	-11.4365
▁স্ট্রিং	-11.4365
▁লোট	-11.4366
রহাট	-11.4366
▁মরোক্কো	-11.4367
▁ভেষজ	-11.4372
▁সাইপ্রাস	-11.4372
▁শুকিয়ে	-11.4372
▁অপচয়	-11.4372
▁ত্রিভুজ	-11.4372
গীতি	-11.4374
লোকেরা	-11.4376
▁১৯১৩	-11.4378
ছবি	-11.4379
▁এদন	-11.4381
▁সর্বকালে	-11.4383
বিজ্ঞানী	-11.4384
▁শর্ট	-11.4384
সিবি	-11.4387
▁শীতকালে	-11.4387
▁মোল্লা	-11.4389
▁পাঞ্জাবের	-11.439
▁দেখছেন	-11.439
▁লিগা	-11.4391
▁ঢোকা	-11.4391
সাইড	-11.4393
▁জম্মু	-11.4395
▁যুদ্ধাপরাধ	-11.4395
▁গেরিলা	-11.4395
প্রতিষ্ঠা	-11.4398
▁আসব	-11.4398
▁সাথির	-11.44
▁পিছন	-11.4401
▁স্নো	-11.4402
▁ভাঙ্গ	-11.4406
দৌ	-11.4409
▁কারি	-11.441
▁নত	-11.4411
▁১৮০	-11.4411
▁থিয়েটারে	-11.4412
▁সীল	-11.4414
▁সমূহের	-11.4414
▁মরিস	-11.4415
▁আবহ	-11.4415
▁পৃষ্ঠপোষকতা	-11.4416
▁বর্ষপঞ্জি	-11.4418
▁রচয়িতা	-11.4418
▁তিরস্কার	-11.4418
▁হুসাইন	-11.4418
▁সবশেষে	-11.4418
১৯৮৫	-11.442
▁দিতাম	-11.4428
▁গার্লস	-11.4429
শিয়াল	-11.443
▁প্রার্থীদের	-11.4436
গার্ড	-11.444
▁অত্যাবশ্যক	-11.4441
▁তেজস্ক্রিয়	-11.4441
▁সবজি	-11.4443
▁স্বাভাবিকভাবেই	-11.4444
▁অবিশ্বাস	-11.4446
▁কলেজটি	-11.4446
▁সক্ষমতা	-11.4447
▁আরবী	-11.4447
▁পাননি	-11.4447
▁ইভ	-11.4447
▁লোগো	-11.445
▁ছাত্রছাত্রীদের	-11.4453
▁শাস্ত্রপদগুলো	-11.4463
▁সেনানিবাস	-11.4464
▁আক্রমণকারী	-11.4466
লগ্ন	-11.4468
▁লঘু	-11.4468
দূতাবাস	-11.4469
কলসীয়	-11.4469
▁প্রাচীনকালের	-11.4469
কণ্ঠ	-11.4469
▁নাজিম	-11.447
▁বরণ	-11.4474
▁চলেছিল	-11.4475
▁পরিস্থিতিগুলো	-11.4475
জিৎ	-11.448
▁নিচ	-11.4482
▁কমাতে	-11.4483
▁প্রস্তাবনা	-11.4486
পল্লিবিদ্যুতায়ন	-11.4488
▁সখরিয়	-11.4488
কল্পে	-11.4488
▁বোনকে	-11.4489
▁ভূখন্ড	-11.4489
▁প্রকাশকের	-11.4491
সদস্য	-11.4492
▁পকেট	-11.4493
▁এসআর	-11.4495
▁বিবিধ	-11.4498
▁আজম	-11.4501
ন্দো	-11.4502
▁রীতির	-11.4504
ল্যাণ্ড	-11.4504
▁আইডিয়া	-11.4505
▁ধরি	-11.4505
ব্রো	-11.4505
▁১৯১৫	-11.451
▁ফক্স	-11.451
▁দ্বিপাক্ষিক	-11.4511
্ট্রা	-11.4512
▁দশটি	-11.4515
▁ধারাবাহিকতা	-11.4516
আরও	-11.4518
▁পৌঁছানো	-11.4518
▁১৯০৮	-11.4522
▁আম্মা	-11.4523
রামপুর	-11.4523
কাঠ	-11.4524
▁জার্সি	-11.4525
▁সমর্থকরা	-11.4528
▁ছবিঃ	-11.4533
▁ক্ষুব্ধ	-11.4534
▁শয়তানকে	-11.4538
▁ইমেজ	-11.4538
▁বরঞ্চ	-11.4538
▁অবিশ্বস্ত	-11.4546
১৯৯২	-11.4547
▁বাবিলন	-11.4549
▁নথিভুক্ত	-11.4549
▁মেষের	-11.4553
▁শরণার্থীদের	-11.4554
ধ্য	-11.4554
▁এখনকার	-11.4554
▁শ্রোতা	-11.4555
▁এথেন্স	-11.4558
▁উঠলো	-11.4558
▁বোঝেন	-11.4561
মেরি	-11.4562
▁ওসমান	-11.4565
▁গোলাকার	-11.4566
▁এমএ	-11.4566
▁কর্মকাণ্ডের	-11.4568
স্ম	-11.4569
▁ইটের	-11.4569
▁অবতার	-11.457
▁প্যাকেট	-11.457
▁ইস্রায়েলে	-11.4575
▁এতদিন	-11.4575
৩০০	-11.4577
ন্দ্রা	-11.4579
▁ঠোঁট	-11.4581
▁মেডিসিন	-11.4581
▁মহিমান্বিত	-11.4581
▁জমিদারদের	-11.4583
▁জোরপূর্বক	-11.4585
▁নিদর্শনাদি	-11.4585
▁রেহাই	-11.4585
কোম্পানী	-11.4587
ঞ্ছ	-11.4587
▁আনসার	-11.4588
▁আসছিল	-11.459
▁ক্রিম	-11.459
▁১২৫	-11.4591
▁১৯০৬	-11.4591
▁রাউ	-11.4592
▁ফরেস্ট	-11.4594
▁মৃদুতা	-11.4595
পূজা	-11.4595
▁ক্লান্তি	-11.4596
▁প্রক্রিয়াকরণ	-11.4596
▁লুক	-11.4599
▁পেলো	-11.4601
▁করিয়াছ	-11.4604
▁উত্তপ্ত	-11.4605
▁লংঘন	-11.4605
▁পাঠ্যপুস্তক	-11.4605
▁বিচার্য	-11.4605
▁সমাহিত	-11.4606
▁৭০০	-11.4607
▁ভাঁজ	-11.4607
কৃষ্ট	-11.4608
▁খুঁজছি	-11.4609
▁পালনকর্তা	-11.4612
জুন	-11.4613
▁বলিদানের	-11.4618
▁বিনাশ	-11.462
এনএস	-11.4621
▁দণ্ডে	-11.4621
▁কর্তৃপক্ষকে	-11.4624
▁খাঁজ	-11.4625
▁তিউনিশিয়া	-11.4626
▁আধিকারিক	-11.4628
▁আর্মেনীয়	-11.4628
▁লবণাক্ত	-11.4628
▁মমতা	-11.4629
▁অভিপ্রায়	-11.463
পর্য	-11.463
▁রেন	-11.4631
▁ব্যর্থতার	-11.4631
▁এঁকে	-11.4631
▁বিধানাবলী	-11.4631
▁সংঘর্ষে	-11.4632
▁থাকতো	-11.4632
▁ঝলক	-11.4632
▁হাজী	-11.4642
▁রেজি	-11.4645
ডান	-11.4646
▁বংশা	-11.4649
▁লাউ	-11.465
েশ্বরী	-11.4651
▁দ্বাদশ	-11.4652
▁সাবধানবাণী	-11.4653
▁টাকায়	-11.4653
▁কেপলার	-11.4653
▁অনুষ্ঠানটি	-11.4655
▁আজীবন	-11.4655
▁সেইরকম	-11.4656
ভুজ	-11.4659
▁দন্ত	-11.4669
▁রেডি	-11.4669
▁কার্ট	-11.4672
োপযোগী	-11.4676
▁রহিম	-11.4677
▁বইটির	-11.4679
▁পরপর	-11.468
▁খরা	-11.468
▁রঙিন	-11.4682
▁অসৎ	-11.4682
▁স্ত্রীদের	-11.4683
▁মানি	-11.4687
ষক	-11.4687
▁কোনরকম	-11.4689
▁আশীর্বাদগুলো	-11.4692
▁মুলত	-11.4692
▁রান্নাঘর	-11.4696
▁একচেটিয়া	-11.4699
▁উপত্যকায়	-11.47
▁ক্লার্ক	-11.4701
▁উপাচার্য	-11.4701
১৯৯১	-11.4702
▁কূপ	-11.4702
▁ব্যবসায়ীদের	-11.4703
দাম	-11.4704
▁ক্যাথ	-11.4705
▁পরিহিত	-11.4707
▁থ্র	-11.4708
▁প্রহার	-11.4709
▁ঢি	-11.4714
ছাড়া	-11.4717
▁প্রারম্ভ	-11.4718
সম্মান	-11.4721
৮০০	-11.4722
ট্রিক	-11.4722
▁হেফাজত	-11.4723
▁যাচ্ঞা	-11.4723
▁পুনর্নির্ধারণ	-11.4723
▁প্লাবনভূমি	-11.4724
▁অসমর্থ	-11.4724
মারী	-11.4725
▁জনমত	-11.4725
▁মহানগর	-11.4726
মুরগি	-11.4728
রুজ	-11.4729
▁হিজরি	-11.473
▁মালয়	-11.473
▁বিস্তৃতি	-11.4735
▁আইডি	-11.4735
▁ঝাল	-11.4737
▁জুতো	-11.4739
▁স্থানটি	-11.4742
▁পত্রিকাগুলো	-11.4744
▁বিভক্তি	-11.4744
▁বিভ্রান্তি	-11.4745
▁অস্বস্তি	-11.4745
▁অগণিত	-11.4747
▁জর্জরিত	-11.4747
▁অশোক	-11.4748
▁উত্সাহ	-11.4749
▁চাষাবাদ	-11.4749
▁অপরাধীদের	-11.4751
▁বাবামাদের	-11.4751
প্রসন্ন	-11.4755
যেখানে	-11.4756
▁বিশ্বাসযোগ্য	-11.4756
▁পানামা	-11.4756
▁কুচ	-11.4757
▁ব্রাউজ	-11.4758
▁আপ্রাণ	-11.4758
▁নিবে	-11.4758
ওয়াজ	-11.4761
▁লঞ্চ	-11.4762
মার্কিন	-11.4762
▁গোপনীয়	-11.4765
▁স্টোর	-11.4767
বাক	-11.477
▁অস্বীকৃতি	-11.4771
▁স্তন্যপায়ী	-11.4771
▁ত্যাগস্বীকার	-11.4771
▁ব্যয়বহুল	-11.4772
সিডি	-11.4773
▁অর্পিত	-11.4776
▁বাস্তবিকই	-11.4776
বাসি	-11.4777
ভূষণ	-11.478
▁ঢুকিয়ে	-11.4783
▁যাঁর	-11.4786
মুন	-11.4786
বাদি	-11.4788
▁নিবাস	-11.4792
▁অংশবিশেষ	-11.4793
▁মরিয়া	-11.4793
▁জ্বালিয়ে	-11.4795
▁পশ্চাৎ	-11.4795
▁ম্যানচেস্টার	-11.4795
▁আপেক্ষিক	-11.4795
▁ইনপুট	-11.4795
▁মেগা	-11.4798
▁স্কি	-11.4801
▁পর্যটকদের	-11.4805
মৃত	-11.4806
▁চাননি	-11.4806
শাখা	-11.4809
▁শিক্ষামূলক	-11.4812
▁হোল	-11.4816
▁বাঁক	-11.4817
▁উপনীত	-11.4817
▁পালাতে	-11.4819
▁শিকড়	-11.4819
▁স্থলে	-11.4821
▁গণহত্যার	-11.4821
▁চাচ্ছে	-11.4834
মেলা	-11.4837
▁থিম	-11.4839
▁ছাতা	-11.484
পিআর	-11.4841
▁বেক	-11.4842
▁কনভেনশন	-11.4843
▁প্রতিস্থাপিত	-11.4843
▁মরক্কো	-11.4843
▁এয়ারপোর্ট	-11.4844
▁আয়াত	-11.4845
▁মদ্য	-11.4846
▁কুড়	-11.4847
▁উইথ	-11.4847
▁বাউল	-11.485
সম্পত্তি	-11.485
▁১৯১৬	-11.4851
▁রিয়েল	-11.4854
দানকারী	-11.4855
উদ	-11.4858
▁ভাণ্ডার	-11.4864
এনসাইক্লোপিডিয়া	-11.4867
▁স্থলাভিষিক্ত	-11.4867
▁সূর্যাস্ত	-11.4867
▁গণভোট	-11.4867
▁এনক্রিপশন	-11.4868
▁জাম্বিয়া	-11.4868
▁যতটুকু	-11.4872
২০১৭	-11.4872
▁উঠিয়ে	-11.4873
সংগত	-11.4874
ঞ্চা	-11.4877
▁আবাদ	-11.4879
এমন	-11.488
▁নিরাশ	-11.4881
▁ভেবেছিল	-11.4884
▁বাহিনীতে	-11.4886
▁ঐতিহ্যগত	-11.4887
▁লিউ	-11.4888
▁গল্পটি	-11.4892
▁জাগা	-11.4893
▁কাপুর	-11.4893
▁শিক্ষিকা	-11.4893
▁জুরি	-11.4896
ঙ্ঘ	-11.4896
▁পালি	-11.4897
▁বিরোধীদের	-11.4898
ফরাসী	-11.4899
▁হাফ	-11.4899
▁গতিশীল	-11.4901
▁পালটে	-11.4901
▁রান্নার	-11.4901
টোন	-11.4903
▁কর্তা	-11.4903
▁হইলেন	-11.4904
▁সাবান	-11.4904
আইটি	-11.4908
সুন্দর	-11.4911
▁দিব্য	-11.4915
▁অংশগ্রহণকারীদের	-11.4915
▁ক্যাম্বোডিয়া	-11.4916
▁টেক্সাস	-11.4916
▁নাৎসি	-11.4917
▁ছাপাখানা	-11.4917
▁মরিয়মের	-11.492
ংগা	-11.4927
▁ধার্ম্মিকতা	-11.4929
▁বহর	-11.493
▁চলতি	-11.4932
্বি	-11.4938
▁অকৃত্রিম	-11.494
▁সচরাচর	-11.494
▁মধ্যস্থতা	-11.494
▁ইজি	-11.494
▁দুরে	-11.4941
গালা	-11.4943
▁ধারাবাহিকভাবে	-11.4944
▁স্বচ্ছতা	-11.4946
▁উপাসনাকে	-11.4946
▁কতটুকু	-11.4947
▁গণনাপুস্তক	-11.4948
▁পেট্রো	-11.495
মোঃ	-11.495
▁পরিশোধক	-11.4957
▁আধ্যাত্মিকতা	-11.4958
▁প্রতিকৃতি	-11.4963
▁সুস্বাদু	-11.4964
▁ফিল্টার	-11.4965
▁প্রগতিশীল	-11.4967
▁কথোপকথনের	-11.4969
▁শরৎ	-11.4969
▁ক্যাম	-11.4969
▁পরিবারগুলো	-11.4971
চিকিৎসা	-11.4972
বাইবেল	-11.4974
১৯৮৬	-11.4986
▁দিল্লিতে	-11.4986
নেত্র	-11.4986
▁দর্শনে	-11.4988
▁গমনাগমন	-11.4989
▁নেটিজেন	-11.4989
▁চীফ	-11.4989
▁ড্রাম	-11.4991
▁বিলোপ	-11.4994
ূষ	-11.4995
▁অন্তরঙ্গ	-11.4995
▁পরোক্ষভাবে	-11.4997
খিত	-11.5003
স্ট্রা	-11.5003
▁স্কাই	-11.5005
▁বাইবেলভিত্তিক	-11.5008
হ্যাঁ	-11.5009
কান্দা	-11.5009
▁ম্যাল	-11.5013
▁জনসাধারণ্যে	-11.5014
▁কর্দম	-11.5016
বিন্দু	-11.5016
▁কঙ্গো	-11.5019
▁শক্তিতে	-11.5022
▁কর্মকান্ডের	-11.5031
▁মোহনা	-11.5034
▁হারান	-11.5037
▁পেঁপে	-11.5038
▁ক্যাডেট	-11.5038
▁নিরূপিত	-11.5038
▁মতাদর্শ	-11.5038
▁রিভার	-11.504
বঙ্গ	-11.504
▁স্টিভেন	-11.504
▁মেমরি	-11.504
▁লিখছেন	-11.5041
▁অনুরূপভাবে	-11.5044
▁ফৌজদার	-11.5048
▁আরেকবার	-11.5051
▁আলাদাভাবে	-11.5051
▁সার্কাস	-11.5052
▁অস্কার	-11.5053
▁সমস্যাটা	-11.5053
▁পারতো	-11.5053
▁রাবার	-11.5055
পিয়ে	-11.5056
ভবিষ্য	-11.5062
▁কিংবদন্তি	-11.5063
▁সহজলভ্য	-11.5063
▁সারসংক্ষেপ	-11.5063
▁ফরৌণ	-11.5063
▁ইচ্ছাকৃতভাবে	-11.5063
▁মাহবুব	-11.5063
▁রিভিউ	-11.5063
▁জ্যামিতি	-11.5063
াবস্থায়	-11.5066
▁নিবেদন	-11.5067
▁কুইন	-11.5068
▁কার্যত	-11.5068
াধিকারসূত্রে	-11.5069
▁ওয়ারেন	-11.507
▁বিকেলে	-11.5072
▁জুল	-11.5072
▁আইপি	-11.5075
▁যাঁরা	-11.5078
পেট	-11.5078
বর্মণ	-11.5087
▁কোয়ার্টার	-11.5087
▁স্থূল	-11.5087
▁গদ্য	-11.5087
▁প্রত্নসম্পদ	-11.5088
র্ধ্বতন	-11.5089
▁মরোক্কোর	-11.5092
▁যিহূদীদের	-11.5093
▁সরো	-11.5093
▁ভারসাম্যপূর্ণ	-11.5094
▁উপলব্ধ	-11.5095
▁অমৃত	-11.5096
▁তাকায়	-11.5097
সংস্কৃতি	-11.5103
▁১২৭	-11.5104
মার্চ	-11.5105
▁চালাচ্ছে	-11.5106
এমএস	-11.5107
▁গৌর	-11.5108
▁কুম	-11.5112
▁স্পিকার	-11.5112
▁হিব্রু	-11.5113
▁অভিমত	-11.5114
▁এয়ারলাইন্স	-11.5116
▁অস্ট্রেলিয়ায়	-11.5116
▁ভাবছি	-11.5121
চরণ	-11.5127
▁ঘুরিয়ে	-11.513
সাত	-11.5136
পর্তুগীজ	-11.5137
▁কর্ত্তৃত্ব	-11.5137
▁বিতাড়িত	-11.5137
▁উন্মোচিত	-11.5137
▁মণিপুর	-11.5137
▁সাঈদ	-11.5137
নুযায়ী	-11.5139
▁কার্যাবলি	-11.5139
▁ছোটবেলা	-11.5145
লিস্ট	-11.5146
▁থাকবো	-11.5146
▁থ্রি	-11.5146
১৯৭০	-11.5147
▁মধ্যযুগের	-11.5151
▁গবেষণাগার	-11.5152
▁নিরপেক্ষতা	-11.5154
▁৮০০	-11.5156
ুতি	-11.5157
▁অপবাদ	-11.5157
▁শতাধিক	-11.5162
▁ধূলি	-11.5162
▁মূলধারার	-11.5162
▁অবিরত	-11.5163
▁টিউব	-11.5166
▁আমল	-11.5171
প্রতিষ্ঠিত	-11.5171
▁বলেননি	-11.5172
▁শত্রুতা	-11.5173
▁হবক্কূক	-11.5174
াত্মা	-11.5175
▁এরশাদ	-11.5178
▁অ্যানা	-11.5179
ভূক্ত	-11.5185
▁মেদিনীপুর	-11.5187
▁বুলগেরিয়া	-11.5187
▁গৌরবান্বিত	-11.5187
▁ইসরায়েলি	-11.5188
▁দায়বদ্ধ	-11.5189
▁চলচিত্র	-11.5192
শিক্ষক	-11.5193
▁ঝুঁকিপূর্ণ	-11.5197
▁অস্ট্রেলিয়ান	-11.5198
▁স্বচ্ছন্দ	-11.5199
▁ইয়াহিয়া	-11.5202
▁শৌলের	-11.5203
ন্ডেল	-11.5204
▁যিহুদিরা	-11.5206
▁ফেব্রুয়ারিতে	-11.521
▁স্পিন	-11.5211
▁তৎক্ষণাৎ	-11.5212
▁ফেলছে	-11.5213
▁শূকর	-11.5214
▁রানওয়ে	-11.5216
▁দেখিয়া	-11.5218
▁চিত্রশিল্পী	-11.5218
▁জুগিয়ে	-11.5218
▁পেতাম	-11.522
▁মেইন	-11.5226
▁হয়তোবা	-11.5229
▁ধরিয়া	-11.5231
▁বাক্যগুলি	-11.5234
কাব্য	-11.5235
▁সামন্ত	-11.5235
▁ওলন্দাজ	-11.5237
▁পঞ্চাশত্তমী	-11.5237
▁ম্যালেরিয়া	-11.5237
▁খাতুন	-11.5239
কুন	-11.5246
▁১৯০৯	-11.5247
তাহলে	-11.5247
আমাকে	-11.5248
▁নামানুসারে	-11.5248
▁খালেদ	-11.525
▁ট্র্যা	-11.5253
ওয়ার্ক	-11.5255
▁বাবিলের	-11.5259
▁ডিপ্লোমা	-11.5262
▁সংকুচিত	-11.5262
▁প্রাণবন্ত	-11.5262
▁ভিটামিন	-11.5262
▁সেপিয়েন্স	-11.5262
▁স্টিফেন	-11.5262
▁লড়াইয়ের	-11.5264
▁কুশ	-11.5265
▁আড়ালে	-11.5268
বহির্ভূত	-11.5272
যোগে	-11.5273
▁ফাস্ট	-11.5274
▁প্রদর্শনীর	-11.5277
▁দ্রব্যাদি	-11.5279
পাতি	-11.5279
▁আবহাওয়ার	-11.528
▁ক্র্যা	-11.5281
▁ইতি	-11.5284
▁আপাতদৃষ্টিতে	-11.5287
▁গতানুগতিক	-11.5287
▁পর্যবেক্ষক	-11.5287
▁মওলানা	-11.5287
▁মোমবাতি	-11.5287
▁জ্ঞাপন	-11.5287
▁স্কাউট	-11.5287
▁রওনা	-11.5287
▁কারাদন্ড	-11.5288
মূ	-11.529
▁সুন্নি	-11.5291
▁হুসেন	-11.5292
▁জিতেছে	-11.5294
▁থো	-11.5296
ফেয়ার	-11.5296
▁কয়িন	-11.5297
আখ	-11.5298
▁প্রসাদ	-11.5299
▁ড্রাগ	-11.5301
সদৃশ	-11.5302
▁কুড়ি	-11.5303
▁নেভা	-11.5306
▁জন্মায়	-11.5307
১৯৬২	-11.531
১৯৬৭	-11.5312
▁কর্পোরেট	-11.5312
▁ইস্টার্ন	-11.5312
▁সিক্রেট	-11.5312
▁হইবার	-11.5313
▁বলয়	-11.5313
▁কমানোর	-11.5314
হস্ত	-11.5315
▁মরি	-11.5317
▁মাস্টার্স	-11.5319
ংকার	-11.5321
▁মণ্ডল	-11.5323
▁হইয়াছিল	-11.5323
▁সালিস	-11.5328
▁দণ্ডিত	-11.533
ভার্স	-11.533
▁যিহোশূয়ের	-11.5331
▁মৌজা	-11.5335
▁গ্যালা	-11.5337
▁ক্ষেপণাস্ত্র	-11.5338
▁রেফারেন্স	-11.5338
▁বাহক	-11.5339
খোলা	-11.5341
হেড	-11.5341
▁ইংরেজদের	-11.5342
টিক্যাল	-11.5343
▁ধৈর্য্য	-11.5343
প্রেস	-11.5343
▁কুয়াশা	-11.5344
▁এড়ানোর	-11.5346
সচিব	-11.5347
ফিলিপীয়	-11.5348
▁কর্মস্থল	-11.5352
▁শুনবে	-11.5353
▁অন্ন	-11.5355
ঝু	-11.5357
▁বৃহ	-11.5359
▁সংহতি	-11.536
ইন্সপেক্টর	-11.5363
▁অশ্বারোহী	-11.5363
▁বিদ্রূপ	-11.5363
▁জলাধার	-11.5363
▁ফিল্মফেয়ার	-11.5363
▁অরণ্য	-11.5364
▁টেম্পল	-11.5364
▁স্মরণার্থক	-11.5364
▁বোম্বে	-11.5365
▁তিউনিসিয়া	-11.5367
▁রোজকার	-11.5374
বিধানসভা	-11.5374
রিয়াম	-11.5376
দানিয়েল	-11.5376
রাজ্যের	-11.5378
পুল	-11.5378
▁করিডোর	-11.5379
পৃথিবী	-11.538
▁এন্ট্রি	-11.538
▁১০৫	-11.5384
দখল	-11.5385
১৯৭৩	-11.5388
▁জগত	-11.5388
▁দৌলত	-11.5389
▁সংলাপ	-11.5389
▁জংশন	-11.539
▁নিখিল	-11.5391
▁উচ্চতায়	-11.5393
▁পনেরো	-11.5395
কিশোরী	-11.5395
▁মিশিয়ে	-11.5399
▁লাগত	-11.5403
▁মাউস	-11.5404
▁অ্যাপল	-11.5408
▁আকা	-11.5413
▁দাপ্তরিক	-11.5414
▁পরিবর্তনশীল	-11.5415
▁বেষ্টন	-11.5416
১৯৭৬	-11.5416
▁পরিস্কার	-11.5417
▁মালাখি	-11.5418
▁মাঝেমধ্যে	-11.5419
▁পাদরি	-11.542
▁অক্ষমতা	-11.542
▁চুক্তিবদ্ধ	-11.5421
▁১৩৯	-11.5422
▁হাতির	-11.5423
▁খাওয়ানো	-11.5424
▁করিন্থ	-11.5425
▁সাগরে	-11.5428
াপন্ন	-11.543
▁সার্ভে	-11.543
▁অনুপস্থিতি	-11.5433
▁গালি	-11.5439
▁শিয়ালদহ	-11.544
▁বুদ্ধিমত্তা	-11.544
▁স্মৃতিসৌধ	-11.544
▁পরীক্ষিত	-11.544
▁চাবিকাঠি	-11.544
▁বাড়িঘর	-11.5441
▁সারাজীবন	-11.5442
▁সানা	-11.5449
▁সদা	-11.5449
এসএফ	-11.5449
▁উড়	-11.545
▁পবিত্রতা	-11.5451
▁দ্বীপটি	-11.5452
▁ঘাম	-11.5453
▁উল্ল	-11.5456
গ্রেড	-11.5458
লব্ধ	-11.546
▁সুইস	-11.5462
▁বুট	-11.5464
▁পর্যায়ক্রমে	-11.5466
▁ভিক্টর	-11.5468
১৯৯০	-11.5468
হুয়া	-11.5469
▁বন্ধুত্বপূর্ণ	-11.5476
▁ধরেছিলেন	-11.5476
ইস্রায়েল	-11.5477
শহরে	-11.5478
▁সার্ক	-11.5479
▁অ্যান্টি	-11.5483
▁ঘনিষ্ঠভাবে	-11.5485
▁বসার	-11.5487
▁শব	-11.5487
▁তুল্য	-11.5488
▁মুসলমানরা	-11.5492
▁তিউনিশিয়ার	-11.5493
▁আনেন	-11.5498
আম	-11.5498
▁অধীর	-11.5498
নাদ	-11.5499
▁উইন	-11.55
▁উৎপাদনকারী	-11.5502
বিবেচনা	-11.5502
▁ফেটে	-11.5504
▁করিলে	-11.5507
▁৬ষ্ঠ	-11.5512
▁স্বায়ত্তশাসিত	-11.5517
▁পরম্পরাগত	-11.5517
▁ঈগল	-11.5518
▁বর্বর	-11.5519
▁কসম	-11.552
▁রানার	-11.552
▁নির্দয়	-11.5521
মিনা	-11.5522
▁কর্মক্ষেত্রে	-11.5522
আশাক	-11.5524
▁পারবেনা	-11.5524
েন্দ্রিয়	-11.5529
লেবীয়	-11.5529
▁মুহূর্তের	-11.553
▁জেট	-11.5536
▁উনার	-11.5539
▁প্রেরিতরা	-11.554
নালী	-11.554
▁ফেনী	-11.554
▁সিন্ডিকেট	-11.5543
▁সঞ্চিত	-11.5543
১৯৬৪	-11.5544
▁ফরওয়ার্ড	-11.5544
দর্শী	-11.5545
▁আর্দ্র	-11.5546
▁লুসি	-11.5547
▁আদিবাসীদের	-11.5547
ুফ	-11.5548
▁পরামর্শদাতা	-11.5552
▁ধারন	-11.5554
▁জ্যাকসন	-11.5562
হাতি	-11.5562
▁লাসার	-11.5564
▁সামার	-11.5568
▁এনক্রিপ্ট	-11.5568
▁প্রথিতযশা	-11.5568
▁ষোড়শ	-11.5568
▁শোকার্ত	-11.5569
▁পড়েছিলাম	-11.557
সংস্থান	-11.5578
▁থান	-11.5578
▁সনি	-11.5583
▁পাটনা	-11.5586
▁হবাকে	-11.5588
বার্ড	-11.5589
মেষ	-11.5591
▁রূ	-11.5593
▁কারু	-11.5594
ুষ	-11.5594
▁আতিথেয়তা	-11.5594
▁ডেভেলপার	-11.5594
▁ভরণপোষণ	-11.5594
▁মোস্তফা	-11.5594
▁অশুভ	-11.5594
▁কাহিনি	-11.5594
▁ব্রিটিশরা	-11.5596
▁সার্থক	-11.5599
▁রানি	-11.5599
▁সংযুক্তি	-11.5603
▁পরিচ্ছন্ন	-11.5603
▁গ্রাহকদের	-11.5608
▁গোম	-11.5611
▁রুপি	-11.5612
▁বর্ণবাদ	-11.5616
▁দাড়ি	-11.5618
▁ধন্য	-11.5618
▁মোটেই	-11.5619
▁অসার	-11.5619
▁ভুট্টো	-11.562
▁মনোনিবেশ	-11.562
▁গরীব	-11.562
▁আমানত	-11.5621
▁হাঁট	-11.5623
▁বর্ডার	-11.5623
▁প্রশিক্ষক	-11.5623
সুখ	-11.5625
▁অন্যত্র	-11.5627
▁অসম্পূর্ণ	-11.5628
ডাঙ্গা	-11.5628
়	-11.5629
ছোট	-11.5635
বিস্তার	-11.5635
▁ক্ষেত	-11.5636
▁পাত্তয়া	-11.5641
েটের	-11.5643
জ্যাক	-11.5646
▁সুড়ঙ্গ	-11.5647
▁অনিশ্চয়তা	-11.5647
▁ভাট	-11.5647
▁আব্দুল্লাহ	-11.5647
ছাত্রীদের	-11.5649
▁লোহিত	-11.565
▁সহিংস	-11.5652
▁পরদিন	-11.5652
যত	-11.5653
▁সেরে	-11.5653
▁অরি	-11.566
▁এইমাত্র	-11.5661
ভদ্র	-11.5662
▁খ্রিষ্ট	-11.5662
▁ফোর	-11.5663
▁গার্ল	-11.5664
▁অমিত	-11.5665
▁পৌঁছেছিল	-11.5665
▁তাহাই	-11.5667
▁দীউয়ান	-11.5673
▁পকেটে	-11.5673
▁ইয়ং	-11.5673
তাহা	-11.5673
ঞ্জু	-11.5676
▁মোঃ	-11.5678
▁শৈল	-11.5679
৪০০	-11.5681
▁সঙ্ঘ	-11.5682
▁যাত্রীদের	-11.5683
▁কোটা	-11.5683
ধ্বংস	-11.5686
▁বাক্সটা	-11.5692
ঁয়া	-11.5696
▁সমাজবিজ্ঞান	-11.5696
প্স	-11.5698
▁পোলা	-11.5698
▁সংমিশ্রণ	-11.5699
▁তাঁবু	-11.5699
▁বিক্রম	-11.5699
▁আকুল	-11.5699
▁বাসনা	-11.57
▁গতিপথ	-11.5701
স্ট্যা	-11.5701
▁পার্ল	-11.5705
▁পড়ত	-11.5709
▁নিরসন	-11.5713
রাজনৈতিক	-11.5714
▁মিথ্যাবাদী	-11.5715
▁বিনয়ী	-11.5719
▁ধর্ম্ম	-11.5723
সিরিয়া	-11.5723
▁উদারতা	-11.5724
▁এলোমেলো	-11.5725
▁আত্মজীবনী	-11.5725
▁শার্লক	-11.5726
▁মার্ভেল	-11.5727
আইন	-11.5727
শোভিত	-11.5728
১৯৮৪	-11.5729
▁দাঁড়ান	-11.5729
সালে	-11.5733
▁রাখত	-11.5738
▁স্বাগতিক	-11.574
▁লক্ষ্যগুলো	-11.5742
আলা	-11.5743
▁চিলির	-11.5744
▁রেখেছি	-11.5745
সাইট	-11.5748
▁নিরূপণ	-11.5752
▁দামেস্ক	-11.5752
▁প্রত্যক্ষদর্শী	-11.5752
▁ব্যক্তিবর্গ	-11.5757
▁মান্য	-11.5759
▁অনুসারীরা	-11.5759
চরিত	-11.576
▁বেদি	-11.5761
▁বিলিয়ে	-11.5762
▁রজার	-11.5764
▁এমএস	-11.5766
▁ফাদার	-11.5773
▁জেরা	-11.5774
▁ছাগ	-11.5778
▁১১২	-11.5778
▁গালীল	-11.5779
▁অনেকদিন	-11.5779
▁ভাসমান	-11.5782
তাহার	-11.5782
▁নবায়ন	-11.5783
▁ফোনটা	-11.5785
▁টুলবার	-11.5786
ঞ্জেল	-11.5788
▁গ্যারি	-11.5789
উয়ি	-11.579
▁তুলুন	-11.579
▁দুর্দশার	-11.579
▁চিত্রকর্ম	-11.5794
▁প্রশ্নটি	-11.5795
▁ডেস্ক	-11.5796
হৃত	-11.58
▁জানবে	-11.5802
▁রচনায়	-11.5802
▁ঘুরতে	-11.5803
▁সদ	-11.5804
▁বৈশাখ	-11.5805
▁রাষ্ট্রসংঘ	-11.5806
▁ঝাঁ	-11.5809
▁তাকাও	-11.5809
▁উইকি	-11.5813
▁মহারাজা	-11.5814
▁কভার	-11.5816
প্রার্থী	-11.5819
▁ক্রী	-11.5821
▁জোগানো	-11.5823
▁বদলি	-11.5824
▁পাম	-11.5826
▁ট্রু	-11.5827
রাইট	-11.5829
জাপান	-11.583
▁শৈল্পিক	-11.5831
▁ব্লার্ব	-11.5832
▁পোলিশ	-11.5832
▁রমজান	-11.5832
▁মূলতঃ	-11.5836
▁ভিক্ষা	-11.5837
১৯৬০	-11.5841
▁বাঁচতে	-11.5841
▁আমলা	-11.5842
▁সামি	-11.5844
দায়িত্ব	-11.5846
▁দিবো	-11.585
▁বিকেল	-11.5854
▁আঁট	-11.5854
▁জাঁ	-11.5856
লাহ	-11.5857
▁চিকিত্সা	-11.5858
▁অপরাজিত	-11.5858
▁গীতিকার	-11.5858
▁পর্ব্বত	-11.5858
▁তলোয়ার	-11.5858
▁দাড়িয়ে	-11.5862
▁শেষপর্যন্ত	-11.5863
যুগান্ত	-11.5868
কাঠামো	-11.587
▁কিছুজন	-11.5872
জেনারেল	-11.5873
▁ছাড়তে	-11.5874
ঁটে	-11.5875
▁শাহী	-11.5876
▁গাঁথ	-11.5879
সাং	-11.5881
▁ছেঁ	-11.5884
১৯৬৮	-11.5889
▁দক্ষিণপূর্ব	-11.5889
▁ট্যাঙ্ক	-11.589
▁ডানদিকে	-11.589
▁বৈশিষ্ট্যাবলী	-11.589
উরি	-11.5891
▁কীর্তি	-11.5892
দুষ্ট	-11.5895
▁রাজনীতিক	-11.5895
▁ভাতা	-11.5896
শাবক	-11.5896
১৯৬৫	-11.5898
▁পাড়	-11.5901
▁ব্যবহারযোগ্য	-11.5902
▁কলম্বিয়ার	-11.5902
ভ্রাতৃসমাজ	-11.5903
▁মঙ্গলভাব	-11.5905
▁দেশসমূহ	-11.5905
▁ইলীশায়	-11.5911
▁অনিচ্ছা	-11.5912
▁ভুট্টা	-11.5913
াইজেশন	-11.5916
মিক্স	-11.5917
▁পুড়ে	-11.5919
▁মনোবিজ্ঞান	-11.592
▁১৯০৪	-11.5922
▁জ্যোতির্বিজ্ঞান	-11.5924
▁আসক্তি	-11.5927
▁সুশীল	-11.5928
▁বিভেদ	-11.5928
▁নৌকায়	-11.5931
▁প্রাচীনেরা	-11.5938
▁লাইব্রেরী	-11.5938
▁ইলেক্ট্রনিক	-11.5938
▁শৃঙ্গ	-11.5938
▁মানসিকতা	-11.594
▁পরিভাষা	-11.5941
গ্রাহী	-11.5942
▁শুটিং	-11.5942
▁চিফ	-11.5943
▁কেপ	-11.5943
▁এশিয়াটিক	-11.5943
▁দুনিয়ার	-11.5948
▁শ্রেণিতে	-11.5952
▁সালমান	-11.5955
হিম	-11.5956
▁কারখানায়	-11.5956
▁বক্তৃতায়	-11.5956
বুর্গ	-11.5962
▁ত্রিনিদাদ	-11.5965
▁হাস্যকর	-11.5965
▁রাইজিং	-11.5966
▁দূতেদের	-11.5966
▁চৌদ্দ	-11.5966
▁সচিবালয়	-11.5966
কলাপ	-11.5973
▁দত্তক	-11.5973
▁শেখায়	-11.5976
▁আশপাশ	-11.5979
দাওয়া	-11.598
ঐ	-11.5981
সভাপতি	-11.5982
▁প্রদীপ	-11.5988
▁ডিম্ব	-11.5988
▁গম্ভীর	-11.5992
▁বিয়োগ	-11.5992
▁সর্বশ্রেষ্ঠ	-11.5993
▁আন্দ্রে	-11.5993
থেরাপি	-11.5994
▁শত্রুরা	-11.5995
▁পরিসরে	-11.5996
▁চরিত্রটি	-11.6
▁টেরি	-11.6003
১৯৮০	-11.6004
▁আবাসন	-11.6005
▁পরজাতীয়	-11.6006
▁আয়না	-11.6012
▁চাঁদা	-11.6012
জাতিগণের	-11.6013
▁হোমো	-11.6019
▁অংশীদারিত্ব	-11.6019
▁তুর্কী	-11.602
▁যাজকদের	-11.6023
১৯৮৮	-11.6023
ুরিয়া	-11.6024
▁ড্রামা	-11.6026
▁ফকির	-11.6026
গেল	-11.6026
▁ভ্যালি	-11.6027
▁পাদদেশ	-11.6031
▁চর্ম	-11.6034
চাপ	-11.6037
▁রাজকুমার	-11.6046
▁নেতৃস্থানীয়	-11.6047
▁অনিয়মিত	-11.6047
▁স্ট্যাটাস	-11.6047
▁ক্ষতিগ্রস্থ	-11.6047
এলএ	-11.6048
ফার্সী	-11.6048
▁নামাজ	-11.6048
টেশন	-11.6049
▁দিঘি	-11.6049
১৯৮৯	-11.605
▁কঠোরভাবে	-11.6051
পরিবর্তন	-11.6051
▁সনে	-11.6052
▁প্রত্নতত্ত্ব	-11.6052
▁অবকাশ	-11.6054
▁দক্ষিণাঞ্চল	-11.6054
▁জনবহুল	-11.6055
▁বুশ	-11.6057
▁ডিজাইনার	-11.6057
ঙ্গেল	-11.6062
সমুহ	-11.6062
ব্লা	-11.6063
▁যু	-11.6067
▁দরিদ্রতা	-11.607
▁অমূল্য	-11.6073
স্বরে	-11.6074
▁পুনরুজ্জীবিত	-11.6074
▁ভূমধ্যসাগর	-11.6074
সালা	-11.6077
▁বহিঃ	-11.6079
▁১৪৪	-11.608
▁পাঠ্যাংশ	-11.6085
ইন্টার	-11.6085
▁নেদারল্যান্ড	-11.6086
▁কোরো	-11.6089
▁ফৌজদারি	-11.6091
▁ভাজা	-11.6091
▁গ্রন্থি	-11.6095
▁রাখলে	-11.61
▁তাকালো	-11.6101
▁অন্ত্যেষ্টিক্র	-11.6101
▁অপর্যাপ্ত	-11.6101
অক্সাইড	-11.6102
▁সেসময়	-11.6105
▁সমাজচ্যুত	-11.6105
পাঁচ	-11.6106
▁দোল	-11.6106
ড্রো	-11.6109
▁পরিশ্রমী	-11.6113
▁চতুর	-11.6114
▁নিকাশ	-11.6115
এনডি	-11.6118
▁বিশৃঙ্খল	-11.6122
▁পাঁ	-11.6123
▁সেটিং	-11.6124
▁জোড়	-11.6126
▁প্রশ্রয়	-11.6129
▁ভুগছে	-11.6129
▁অবমাননা	-11.6129
▁অভিভূত	-11.613
▁পালনকর্তার	-11.6132
▁চক্রান্ত	-11.6132
▁প্রকাশকরা	-11.6133
তাহারা	-11.6135
▁টেড	-11.6137
দশা	-11.6142
াণু	-11.6143
ঘণ্টা	-11.6145
মাহ	-11.6147
▁ঘটান	-11.6154
▁গাজার	-11.6154
▁তদ্	-11.6156
▁অস্ত্রোপচার	-11.6156
▁ডিফেন্স	-11.6156
▁স্ক্রিনশট	-11.6156
▁লৌহশিল্প	-11.6157
▁ভিয়েনা	-11.6157
▁শুনানি	-11.6158
▁অশ্রু	-11.6163
সেরা	-11.6163
▁এসকল	-11.6163
▁বিশ্বস্ততার	-11.6163
১৯৮৭	-11.6165
পৃ	-11.6177
▁সমু	-11.6179
▁খুঁটি	-11.6181
▁আণবিক	-11.6184
▁পেট্রোলিয়াম	-11.6184
▁বশ্যতা	-11.6184
▁শপিং	-11.6184
▁দিনগুলোতে	-11.6185
▁মিরপুর	-11.6186
▁পরিচালকগোষ্ঠী	-11.6187
▁যাদুঘর	-11.6187
▁বিব্রত	-11.6188
▁স্পেনে	-11.6189
▁পশ্চাদ্	-11.619
▁কেন্ট	-11.6192
▁উপজাতীয়	-11.6195
▁উইলসন	-11.6196
ব্বি	-11.6204
▁সংক্রামক	-11.6211
▁হুমায়ুন	-11.6211
▁জীবনযাত্রার	-11.6212
▁বিবেকানন্দ	-11.6212
▁বিক্রিয়া	-11.6213
▁কোনোরকম	-11.6213
▁দরজাটা	-11.6216
পুঞ্জ	-11.6217
▁প্রবেশদ্বার	-11.6217
▁অবাস্তব	-11.6218
▁দেশব্যাপী	-11.6219
১৯৭৪	-11.6219
▁আতঙ্কিত	-11.6223
▁কুটির	-11.6223
▁লিখন	-11.6227
▁উগান্ডার	-11.6228
▁দাড়াও	-11.6228
▁শ্যামা	-11.623
▁বছরগুলিতে	-11.6231
▁বৈসাদৃশ্য	-11.6239
▁অবক্ষয়	-11.6239
▁ফোকাস	-11.624
▁সমুদ্রপৃষ্ঠ	-11.624
▁ময়দা	-11.6242
▁পলল	-11.6242
▁খাবে	-11.6243
▁চিত্রকলা	-11.6249
▁কান্ড	-11.6251
▁ফ্রম	-11.6256
▁প্রতিপালন	-11.6257
▁উপনিবেশিক	-11.626
এমএল	-11.6262
▁দৃঢ়সংকল্প	-11.6266
▁প্রায়শ্চিত্ত	-11.6267
▁জাজিরা	-11.6267
▁আলফা	-11.6269
▁কাশি	-11.627
▁আদা	-11.6271
▁ভারপ্রাপ্ত	-11.6272
১৯৮১	-11.6272
▁সুগন্ধি	-11.6284
নূতন	-11.6285
▁জোগানোর	-11.6286
মর্যাদা	-11.6286
▁তরফ	-11.6291
▁অভিবাদন	-11.6295
▁অকপট	-11.6295
▁মৃত্যুদন্ড	-11.6298
▁আচ্ছন্ন	-11.6299
ষ্ট্র	-11.6302
▁বাদাম	-11.6302
▁ভারশন	-11.6302
▁এধরনের	-11.6305
▁আলোয়	-11.6309
▁টিচার	-11.631
▁পাড়ে	-11.631
▁আয়ত্ত	-11.6312
▁পাওনা	-11.6317
বালক	-11.632
▁মোশিকে	-11.6321
▁নির্জন	-11.6322
▁আশ্বস্ত	-11.6322
▁উত্থিত	-11.6322
▁টেকসই	-11.6323
▁সেন্সরশিপ	-11.6323
▁মালামাল	-11.6324
▁ছদ্মনাম	-11.6324
▁ডিভিডি	-11.6325
১৯৮৩	-11.6328
▁বেবি	-11.6329
▁চ্যাম্পিয়নস	-11.6329
বেদন	-11.6333
▁সার্বভৌমত্বের	-11.6334
▁তাজিক	-11.6334
▁কিংস	-11.6337
াক্ষ	-11.6339
▁কতগুলো	-11.634
▁সদয়ভাবে	-11.634
▁দীর্ঘকাল	-11.6343
▁যিহো	-11.6343
▁আত্ন	-11.6346
▁প্রযুক্ত	-11.635
▁বিরূপ	-11.635
▁গাইতে	-11.635
▁চব্বিশ	-11.635
▁বার্ধক্য	-11.635
▁সার্জেন্ট	-11.6351
▁সাইড	-11.6351
▁মেটানোর	-11.6352
▁পাদ্রি	-11.6354
▁অতিথিদের	-11.6355
▁ঢোকার	-11.6355
▁আবাসস্থল	-11.6356
▁করুণ	-11.6356
▁দর্শনীয়	-11.6357
▁সন্ত	-11.6359
১৯৪৭	-11.6361
▁তলদেশ	-11.6362
▁বসিয়ে	-11.6366
▁উন্ম	-11.6369
উত্তম	-11.6369
▁হেবল	-11.6375
▁টিভিতে	-11.6376
▁পডকাস্ট	-11.6379
▁প্রত্যুত্তর	-11.6379
▁কেঁদে	-11.6379
▁জিয়াউর	-11.6379
▁দেশগুলির	-11.6382
▁ক্যারি	-11.6384
▁স্তব	-11.6384
▁জানতো	-11.6385
▁হিন্দুধর্ম	-11.6387
▁এমপি	-11.6388
১৯৭৭	-11.6388
জানা	-11.639
▁মাসুদ	-11.6391
অতি	-11.6395
▁লাগতে	-11.6397
▁মানুষজন	-11.6399
▁আসবো	-11.6402
▁পেটার	-11.6403
▁ক্ষমতাপ্রাপ্ত	-11.6406
▁নিঃস্বার্থ	-11.6407
▁জোগাড়	-11.6407
বাইট	-11.6408
▁বাফটা	-11.6408
▁ব্যাপী	-11.6408
গুই	-11.6411
▁ছত্রাক	-11.6415
▁নাট্যকার	-11.6418
▁আংশিকভাবে	-11.6425
ইয়েমেন	-11.6427
▁দীর্ঘসময়	-11.6429
ৌল	-11.6432
▁ওয়েস্টার্ন	-11.6435
▁সম্বন্ধ	-11.6435
▁লরেন্স	-11.6435
▁কোরআন	-11.6436
▁তাম্র	-11.6436
▁হাফিজ	-11.6437
নব্বই	-11.644
▁সেবক	-11.6444
সম্পূর্ণ	-11.6447
▁১৯০৭	-11.6448
▁ইউএন	-11.645
▁ভন	-11.6451
▁রুচি	-11.6455
▁সাইমন	-11.6456
▁অনুশোচনা	-11.6463
▁অ্যানিমেশন	-11.6463
▁কীটপতঙ্গ	-11.6463
▁ডগলাস	-11.6463
▁মোহাম্মাদ	-11.6463
▁নতুবা	-11.6463
▁অন্ততপক্ষে	-11.6463
▁নিকোলাস	-11.6465
▁উর্বর	-11.6466
▁উপস্থিতিতে	-11.6466
▁সম্মানসূচক	-11.6469
▁সত্তর	-11.647
▁রয়েছি	-11.6472
এখানে	-11.6473
▁চাকমা	-11.6475
▁বহির্ভূত	-11.648
▁আতি	-11.6484
▁অনাথ	-11.6485
▁বডি	-11.6491
▁মুহুর্ত	-11.6492
▁আপনাদিগকে	-11.6492
▁পিতামহ	-11.6492
▁আবিস্কার	-11.6492
▁ধূপ	-11.6493
▁ইন্দ্র	-11.6494
▁রোপণ	-11.6494
▁গবাদি	-11.6494
▁মাল্টি	-11.6495
▁ধ্রুপদী	-11.6497
▁সমাজতন্ত্র	-11.6499
▁আর্মেনিয়ার	-11.65
▁সোপান	-11.6503
▁রক্ষাকারী	-11.6504
▁আপা	-11.651
▁ছুড়ে	-11.651
▁সিদ্দিকী	-11.6511
পরিচ্ছন্ন	-11.6513
জমি	-11.6514
বান্ধব	-11.6518
▁প্রফুল্ল	-11.652
▁সফ্টওয়্যার	-11.652
▁সেহেতু	-11.652
▁খাদ্যশস্য	-11.6521
দর্শিতা	-11.6522
গণনা	-11.6523
▁পারলো	-11.6524
পাপ	-11.6525
▁নিশ্চিতরূপে	-11.6526
▁দেশগুলিতে	-11.653
▁রেঞ্জ	-11.6531
▁বেশকিছু	-11.6537
▁বিচক্ষণ	-11.6537
▁স্কিম	-11.6538
▁ঘোষণাকারী	-11.6539
▁পরোক্ষ	-11.654
▁কিছুতেই	-11.6545
নবিংশ	-11.6547
▁জাকার্তা	-11.6549
▁কুয়া	-11.6549
▁নির্বাচক	-11.6549
▁গেয়েছিলেন	-11.6551
▁হাওয়ার্ড	-11.6553
▁মানিক	-11.6555
ম্বে	-11.6556
▁ফেলল	-11.6558
▁শিকারী	-11.6561
▁পোর্টাল	-11.6563
▁সমস্যাগুলি	-11.6564
▁কবরস্থান	-11.6569
▁সফরকারী	-11.6575
বিষয়	-11.6577
▁ডাব্লিউডাব্লিউই	-11.6577
▁সোহরাওয়ার্দী	-11.6577
▁নিরীক্ষণ	-11.6577
▁জিম্মি	-11.6577
▁প্রতিমাপূজা	-11.6578
▁পোষ্ট	-11.6578
▁টার্গেট	-11.6578
▁গর্ভধারণ	-11.6578
▁সাংহাই	-11.6578
▁পরিষ্কারভাবে	-11.6579
হিয়া	-11.658
▁গ্রাম্য	-11.658
▁ফজল	-11.6581
▁শাহবাগ	-11.6582
▁দৃঢ়প্রত্যয়ী	-11.6585
▁ওস্তাদ	-11.6587
▁ড্যানি	-11.6589
▁পাম্প	-11.6597
▁যোনি	-11.6598
▁বেদ	-11.6598
এসএম	-11.6599
▁পাপপূর্ণ	-11.6604
▁সহকর্মীদের	-11.6606
▁শমরীয়	-11.6606
▁সিগন্যাল	-11.6606
▁জবাবদিহি	-11.6606
▁নির্ভুল	-11.6606
▁আত্মত্যাগ	-11.6606
▁উদ্ধত	-11.6606
▁হাঙ্গেরি	-11.6606
▁ইজারা	-11.6607
▁ড্রোন	-11.6609
▁আকি	-11.6609
▁ভ্রমণকারী	-11.661
▁মিশেল	-11.661
▁সেনাদের	-11.6612
হাউস	-11.6618
▁ভাসা	-11.663
▁চাচ্ছেন	-11.6634
▁আম্মু	-11.6635
▁যাচ্ছিলেন	-11.6636
▁অ্যানি	-11.6638
▁ইরাকি	-11.664
নৈতিক	-11.6642
▁উত্তরপূর্ব	-11.6643
▁কমানো	-11.6645
▁ফশে	-11.6646
▁সুপারি	-11.6653
▁ধরিয়ে	-11.6653
▁সাহারা	-11.6655
কামি	-11.6655
▁মরণ	-11.6655
▁শেখেন	-11.6655
▁দাহ	-11.6656
নিয়ন্ত্রিত	-11.6657
জার্মান	-11.6657
▁মেটাতে	-11.6663
▁মৌমাছি	-11.6664
▁কেনাকাটা	-11.6664
▁কারাবন্দী	-11.6665
ড্রে	-11.6666
▁শারীরিকভাবে	-11.667
স্লাভ	-11.6671
▁জনগণনা	-11.6671
▁সচল	-11.6674
পৃথিবীর	-11.6679
সংঘ	-11.6679
▁সুলতানি	-11.668
প্রয়োগ	-11.6685
টিকিয়ে	-11.6687
▁চিপ	-11.6687
▁ঘটনাটা	-11.6688
▁জোন্স	-11.6688
▁পাবো	-11.669
সহিষ্ণু	-11.6692
▁দার্জিলিং	-11.6693
▁সাহচর্য	-11.6693
▁কুষ্টিয়া	-11.6693
▁তাম্রশাসন	-11.6693
গাছা	-11.6701
▁রিভ	-11.6702
▁ট্রাই	-11.6709
দীপ্ত	-11.6713
মাস্টার	-11.6713
▁শেষবার	-11.6714
ফিশ	-11.6716
▁অভিজ্ঞতাগুলো	-11.6716
▁অবাঞ্ছিত	-11.6722
▁অর্থোডক্স	-11.6722
▁উরুগুয়ে	-11.6722
▁জীবাশ্ম	-11.6722
▁ব্যাকটেরিয়া	-11.6722
▁সর্বমহান	-11.6722
▁উৎপাদক	-11.6722
▁ঢেলে	-11.6722
▁ছদ্মবেশ	-11.6722
▁রশ্মি	-11.6722
▁সারিতে	-11.6724
▁ছাঁচ	-11.6724
▁অবসরপ্রাপ্ত	-11.6727
▁শুনলাম	-11.6728
▁জিনোম	-11.6728
ডাল	-11.6731
▁নেভি	-11.6736
জেলা	-11.6737
▁মূল্যরূপ	-11.6738
১৯৭৮	-11.6738
▁তথ্যাদি	-11.6739
খেলা	-11.674
▁মনুষ্যদের	-11.6742
▁দিচ্ছিল	-11.6742
াইট	-11.6745
▁পিঠ	-11.6746
▁দেখেনি	-11.6747
▁জানলে	-11.6748
▁ফেলেছিলেন	-11.6749
সৎক্রিয়া	-11.6749
বর্ত্তী	-11.675
▁প্রাচুর্য	-11.6751
▁বাল্যবিবাহ	-11.6751
▁সজাগ	-11.6751
▁সম্মিলন	-11.6751
▁বান্ধবী	-11.6752
▁বিধিনিষেধ	-11.6752
টোয়েন্টি	-11.6752
কাঠি	-11.6752
▁পরিশোধিত	-11.6754
▁প্যান্ট	-11.6754
▁মুক্তিবাহিনী	-11.6755
▁অঙ্গরাজ্য	-11.6756
▁ফ্লে	-11.6758
▁আভা	-11.6763
▁পিসি	-11.6763
▁বুঝেছ	-11.6769
▁জিভি	-11.6769
▁টেপ	-11.6772
▁ট্যাংক	-11.6778
▁কাঁধ	-11.6779
▁বেচে	-11.6779
ঘন্টা	-11.678
ঙ্কি	-11.678
▁অলাভজনক	-11.678
▁হাকিম	-11.6781
▁এড়ানো	-11.6786
▁শাসনব্যবস্থা	-11.6789
▁লিচু	-11.6792
▁উপলক্ষ	-11.6793
▁ধার্ম্মিক	-11.6795
▁ঢিবি	-11.6795
▁শার্	-11.6796
▁প্রাঙ্গণে	-11.6797
মুলক	-11.6799
▁মজুরী	-11.68
▁বলছো	-11.6801
▁আঁশ	-11.6803
বিচ্ছিন্ন	-11.6803
▁প্রাইম	-11.6808
▁খাঁচা	-11.681
সাবস্ক্রাইব	-11.681
▁ক্যামারলেনগো	-11.681
▁নির্ম্মাণ	-11.681
▁পীলাত	-11.681
▁চলাফেরা	-11.681
▁ধোঁকা	-11.681
▁উৎখাত	-11.681
▁নিবদ্ধ	-11.681
▁চর্বি	-11.6811
▁আর্মেনিয়ান	-11.6814
▁আড়াই	-11.6815
▁লাওস	-11.6815
ডিএস	-11.6817
▁কনিষ্ঠ	-11.6818
▁গীতা	-11.682
তাহাদের	-11.6823
▁পাঠ্যক্রম	-11.6826
▁দর্প	-11.6828
তলী	-11.6829
কোয়া	-11.6829
▁ধার্মিকতার	-11.683
▁আখতার	-11.683
চলচ্চিত্র	-11.6832
▁তীব্রতা	-11.6833
▁আব্দ	-11.6833
▁ব্রাজিলে	-11.6835
▁বোঝে	-11.6835
▁অষ্টাদশ	-11.6839
▁ফুসফুস	-11.6839
▁সম্ভাষণ	-11.6839
▁স্পীকার	-11.6839
▁মেকানিক	-11.6842
▁জিডিপি	-11.6842
▁বিরাজমান	-11.6843
স্থানীয়	-11.6846
▁গিয়েছি	-11.6846
▁ধারক	-11.6848
▁বাড়ে	-11.6848
▁দীন	-11.6848
▁১৯০১	-11.6851
▁পালটা	-11.6854
রাষ্ট্রপতি	-11.6863
ঘোষ	-11.6864
▁বারাক	-11.6865
আনন্দ	-11.6865
▁অভিবাসীদের	-11.6867
▁ব্যাটালিয়ন	-11.6869
▁সাংকেতিক	-11.6869
▁সমকামিতা	-11.6869
▁ডারউইন	-11.6869
▁ফোঁটা	-11.6869
▁খাত্তয়া	-11.687
প্রসূত	-11.687
▁মহাকাব্য	-11.687
▁কার্লোস	-11.687
▁ডেঙ্গু	-11.6872
▁ছুঁ	-11.6873
গঠন	-11.6875
▁প্রবাল	-11.6876
▁ফেললে	-11.6882
▁অসহযোগ	-11.6884
▁খালাস	-11.6885
▁আশ্চর্য্য	-11.6885
▁আচার্য	-11.6888
▁পুর্ব	-11.689
▁বিষয়াদি	-11.6891
অনুষ্ঠান	-11.6892
▁রক্ষক	-11.6894
▁পেয়েছ	-11.6897
▁অচিরেই	-11.6898
▁অবিচ্ছেদ্য	-11.6898
▁ডেমোক্রেটিক	-11.6898
▁ছোঁয়া	-11.6898
▁ডুমুর	-11.6899
▁ফাটল	-11.6902
১৯৮২	-11.6904
▁নার্সিং	-11.6906
▁খোলাখুলিভাবে	-11.6906
শাহী	-11.6907
▁কতজন	-11.6911
▁কারবার	-11.6914
▁উচু	-11.6916
ত্থ	-11.6918
অফ	-11.6921
যেন	-11.6921
▁গণেশ	-11.6925
▁অ্যাকাডেমি	-11.6928
▁ক্যান্টনমেন্ট	-11.6928
▁কিয়ার্শ	-11.6928
▁হত্যাকান্ড	-11.6928
▁সেইসাথে	-11.6928
▁শহরতলি	-11.6928
▁সিন্দুক	-11.6929
▁পুনর্স্থাপন	-11.6929
▁ডিজনি	-11.693
▁শফিক	-11.6931
▁জনসন	-11.6931
▁আশু	-11.6933
▁পাওলো	-11.6933
▁প্রবৃত্তি	-11.6937
▁পাঞ্জাবি	-11.6939
▁মেরী	-11.694
ন্ধা	-11.6942
পাখি	-11.6944
বিস্তর	-11.6945
পন্যাসিক	-11.6947
▁হংকংয়ে	-11.6949
১৯৭৫	-11.6949
▁কাসা	-11.6949
▁সিরাজ	-11.6951
শূণ্য	-11.6952
▁নিমন্ত্রণ	-11.6958
▁প্রাদুর্ভাব	-11.6958
▁হিষ্কিয়	-11.6958
▁বিশ্লেষক	-11.6958
▁স্মার্ট	-11.6958
▁টেক্সটাইল	-11.6959
▁রূৎ	-11.6959
▁হনোক	-11.6959
▁নানাবিধ	-11.696
▁অগ্রিম	-11.696
▁ময়দান	-11.6961
▁লিজ	-11.6964
োভিচ	-11.6965
▁গাজায়	-11.6966
কুন্ড	-11.6972
▁প্রকট	-11.6973
▁লেবু	-11.6977
▁সৈন্যদল	-11.698
দৈর্ঘ্য	-11.6982
▁নখ	-11.6983
▁ইন্ডি	-11.6984
▁মৃৎপাত্র	-11.6987
▁হেপবার্ন	-11.6987
▁সংশয়	-11.6988
▁বৃত্তাকার	-11.6988
▁অগ্রণী	-11.6989
▁প্রত্যন্ত	-11.699
▁বোনেরা	-11.6992
▁রানার্স	-11.6995
বিষয়টা	-11.6995
ন্তু	-11.6997
▁ভল	-11.6997
ব্রত	-11.7004
▁কামার	-11.7007
▁বংশধরদের	-11.7013
শুধু	-11.7015
▁পার্টিতে	-11.7017
▁কিরগিজস্তান	-11.7018
▁সতেরো	-11.7018
▁মনিটর	-11.7018
▁ডানহাতি	-11.7018
▁অম্ল	-11.7019
▁অনুভূত	-11.702
ড়ু	-11.7026
▁দুবছর	-11.703
▁শুনেছিল	-11.7031
▁গন্ড	-11.7032
ভক্ত	-11.7032
▁মল্ল	-11.7041
প্রদর্শন	-11.7042
প্রার্থনা	-11.7042
কনস্যুলেট	-11.7047
▁আকাঙ্ক্ষী	-11.7047
▁ফেইসবুক	-11.7047
▁সন্দেহভাজন	-11.7047
▁পতঙ্গ	-11.7047
▁নির্বিশেষে	-11.7047
▁স্লাইড	-11.7048
▁উপস্থাপক	-11.7049
মতী	-11.7053
▁বিরুদ্ধ	-11.7054
▁চেয়েছেন	-11.7056
ন্বিত	-11.7056
▁ভিত	-11.7057
▁মোজা	-11.7058
▁পূর্ববাংলা	-11.7058
▁ডিনার	-11.706
▁চেইন	-11.7063
▁নভো	-11.7063
▁অবক্ষেপ	-11.7063
▁প্রতিযোগিতামূলক	-11.7064
▁ভাবছেন	-11.7065
▁আন্তরিকতা	-11.7067
▁উপবাস	-11.7068
প্রথা	-11.7071
▁আপেল	-11.7072
সমৃদ্ধ	-11.7072
▁৩৫০	-11.7073
▁কার্ডিনাল	-11.7078
▁অনিবার্য	-11.7078
▁ব্রত	-11.7079
▁দেবদেবী	-11.7079
▁কার্যবিধি	-11.708
র্ণা	-11.708
▁ঠিকানাবই	-11.7081
ন্ট্রি	-11.7083
▁পেশী	-11.7087
▁সহায়	-11.7088
কাহারও	-11.7089
▁টানেল	-11.7089
▁নিকোল	-11.7095
▁সিরিয়ায়	-11.7095
এসআই	-11.71
▁শট	-11.7101
বয়স্ক	-11.7105
▁বাস্তবিক	-11.7106
পররাষ্ট্রমন্ত্রী	-11.7107
[...]
