{
  "src_word2id": {
    "<pad>": 0,
    "<s>": 1,
    "</s>": 2,
    "<unk>": 3,
    "s": 4,
    ".": 5,
    "\u2581the": 6,
    ",": 7,
    "\u2581of": 8,
    "\u2581and": 9,
    "\u2581to": 10,
    "\u2581in": 11,
    "\u2581a": 12,
    "\u2581": 13,
    "'": 14,
    "\u2581is": 15,
    "ed": 16,
    "-": 17,
    "ing": 18,
    "\u2581that": 19,
    "\u2581for": 20,
    "\u2581was": 21,
    "\u2581\"": 22,
    "t": 23,
    "\u2581The": 24,
    "d": 25,
    "\u2581I": 26,
    "\u2581on": 27,
    "\u2581(": 28,
    ":": 29,
    "\u2581with": 30,
    "?": 31,
    "\u2581be": 32,
    "\u2581as": 33,
    "\u2581you": 34,
    "\u2581by": 35,
    ")": 36,
    "\u2581it": 37,
    "\u2581are": 38,
    "\u2581his": 39,
    "\u2581from": 40,
    "ly": 41,
    "\u2581not": 42,
    "y": 43,
    "\u2581he": 44,
    "\u2581have": 45,
    "\u2581or": 46,
    "\u2581at": 47,
    "a": 48,
    "\u2581-": 49,
    "er": 50,
    "\u2581this": 51,
    "\u2581an": 52,
    "\"": 53,
    "\u2581we": 54,
    "m": 55,
    "\u2581In": 56,
    "n": 57,
    "e": 58,
    "\u2581A": 59,
    "al": 60,
    "\u2581will": 61,
    "i": 62,
    "\u2581has": 63,
    "\u2581were": 64,
    "\u2581their": 65,
    "re": 66,
    "\u2581who": 67,
    "\u2581can": 68,
    "r": 69,
    "\u2581He": 70,
    "\u2581one": 71,
    "\u2581all": 72,
    "!": 73,
    "\u2581Jehovah": 74,
    "\u2581had": 75,
    "es": 76,
    "\u2581they": 77,
    "\u2581God": 78,
    ";": 79,
    ".\"": 80,
    "in": 81,
    "th": 82,
    "\u2581which": 83,
    "\u2581It": 84,
    "\u2581do": 85,
    "\u2581me": 86,
    "\u2581about": 87,
    "\u2581also": 88,
    "\u2581but": 89,
    "\u2581our": 90,
    "\u2581people": 91,
    "\u2581your": 92,
    "o": 93,
    "b": 94,
    "\u2581been": 95,
    "c": 96,
    "\u2581time": 97,
    "\u2581him": 98,
    "\u2581out": 99,
    "\u2581what": 100,
    "k": 101,
    "\u2581up": 102,
    "\u2581us": 103,
    "\u2581her": 104,
    "S": 105,
    "\u2581re": 106,
    "\u2581them": 107,
    "\u2581my": 108,
    "\u2581other": 109,
    "\u2581so": 110,
    "or": 111,
    "\u2581when": 112,
    "le": 113,
    "h": 114,
    "g": 115,
    "\u2581would": 116,
    "\u2581first": 117,
    "\u2581more": 118,
    "\u2581What": 119,
    "ll": 120,
    "\u2581no": 121,
    "\u2581You": 122,
    "\u2581there": 123,
    "an": 124,
    "ur": 125,
    "ri": 126,
    "\u2581S": 127,
    "\u2581de": 128,
    "\u2581some": 129,
    "li": 130,
    "\u2581may": 131,
    "l": 132,
    "\u2581Bangladesh": 133,
    "la": 134,
    "I": 135,
    "\u2581such": 136,
    "\u2581This": 137,
    "\u2581under": 138,
    "\u2581We": 139,
    "ar": 140,
    "\u2581Jesus": 141,
    "]": 142,
    "\u2581[": 143,
    "na": 144,
    "\u2581over": 145,
    "\u2581life": 146,
    "\u25811": 147,
    "\u2581Bible": 148,
    "\u2581into": 149,
    "il": 150,
    "A": 151,
    "\u2581any": 152,
    "\u2581than": 153,
    "ation": 154,
    "\u2581she": 155,
    "\u2581two": 156,
    "\u2581like": 157,
    "\u2581un": 158,
    "\u2581'": 159,
    "),": 160,
    "\u2581its": 161,
    "\u2581C": 162,
    "u": 163,
    "\u2581if": 164,
    "%": 165,
    "\u2581after": 166,
    "\u2581many": 167,
    "el": 168,
    "on": 169,
    "\u2581only": 170,
    "ra": 171,
    "\u2581years": 172,
    "ma": 173,
    "ul": 174,
    "w": 175,
    "\u2581did": 176,
    "able": 177,
    "\u2581know": 178,
    "\u2581work": 179,
    "ve": 180,
    "P": 181,
    "p": 182,
    "ers": 183,
    "ic": 184,
    "E": 185,
    "ta": 186,
    "C": 187,
    "\u258118": 188,
    "\u2581made": 189,
    "...": 190,
    "\u2581world": 191,
    "\u2581those": 192,
    "ment": 193,
    "\u2581B": 194,
    "at": 195,
    "\u2581But": 196,
    "\u2581man": 197,
    "te": 198,
    "ity": 199,
    "/": 200,
    "\u2581good": 201,
    "ti": 202,
    "st": 203,
    "\u2581And": 204,
    "\u2581these": 205,
    "ion": 206,
    "\u25812": 207,
    "z": 208,
    "\u2581should": 209,
    "\u2581said": 210,
    "en": 211,
    "\u2581India": 212,
    "ro": 213,
    "\u2581new": 214,
    "se": 215,
    "\u2581could": 216,
    "\u2581government": 217,
    "\u2581how": 218,
    "ne": 219,
    "it": 220,
    "man": 221,
    "\u2581No": 222,
    "\u2581E": 223,
    "\u2581make": 224,
    "M": 225,
    "D": 226,
    "\u2581now": 227,
    "us": 228,
    "de": 229,
    "\u2581How": 230,
    "\u2581They": 231,
    "\u2581way": 232,
    "\u2581where": 233,
    "f": 234,
    "\u2581For": 235,
    "\u2581help": 236,
    "\u2581most": 237,
    "\u2581Re": 238,
    "ent": 239,
    "B": 240,
    "\u2581day": 241,
    "\u2581part": 242,
    "et": 243,
    "\u2581She": 244,
    "\u2581being": 245,
    "\u2581(19": 246,
    "lo": 247,
    "ck": 248,
    "\u2581just": 249,
    "ir": 250,
    "\u2581As": 251,
    "ce": 252,
    "to": 253,
    "\u2581F": 254,
    "\u258119": 255,
    "pur": 256,
    "\u2581go": 257,
    "ate": 258,
    "T": 259,
    "\u2581through": 260,
    "\u2581So": 261,
    "\u2581against": 262,
    "\u2581see": 263,
    "id": 264,
    "\u2581well": 265,
    "the": 266,
    "\u258110": 267,
    "\u2581used": 268,
    "\u2581get": 269,
    "\u2581even": 270,
    "ter": 271,
    "\u2581name": 272,
    "\u2581country": 273,
    "\u2581If": 274,
    "\u2581use": 275,
    "\u2581right": 276,
    ",\"": 277,
    "\u2581then": 278,
    "\u2581Na": 279,
    "\u2581back": 280,
    "\u2581between": 281,
    "\u2581because": 282,
    "\u2581take": 283,
    "O": 284,
    "\u2581need": 285,
    "\u2581love": 286,
    "\u2581during": 287,
    "\u25813": 288,
    "\u2581family": 289,
    "\u2581before": 290,
    "\u2581To": 291,
    "ist": 292,
    "ry": 293,
    "\u2581con": 294,
    "\u2581very": 295,
    "est": 296,
    "ia": 297,
    "\u2581P": 298,
    "\u2581K": 299,
    "\u2581On": 300,
    "vi": 301,
    "\u2581year": 302,
    "\u2581O": 303,
    "\u25816": 304,
    "ness": 305,
    "\u2581here": 306,
    "\u2581M": 307,
    "as": 308,
    "\u2581number": 309,
    "um": 310,
    "\u2581come": 311,
    "\u2581There": 312,
    "\u258115": 313,
    "\u2581When": 314,
    "\u2581G": 315,
    "\u2581want": 316,
    "\u2581three": 317,
    "\u2581own": 318,
    "\u2581does": 319,
    "The": 320,
    "sh": 321,
    "\u2581Bengal": 322,
    "\u2581down": 323,
    "me": 324,
    "1": 325,
    "ting": 326,
    "\u2581D": 327,
    "am": 328,
    "\u2581Indian": 329,
    ").": 330,
    "is": 331,
    "im": 332,
    "\u2581Ha": 333,
    "ba": 334,
    "ru": 335,
    "\u258112": 336,
    "mi": 337,
    "\u2581Ma": 338,
    "\u2581p": 339,
    "\u2581don": 340,
    "\u2581Ba": 341,
    "di": 342,
    "\u25817": 343,
    "un": 344,
    "\u2581T": 345,
    "\u2581dis": 346,
    "\u2581Do": 347,
    "\u2581children": 348,
    "\u2581De": 349,
    "\u2581home": 350,
    "ad": 351,
    "\u2581must": 352,
    "ha": 353,
    "ge": 354,
    "\u2581st": 355,
    "age": 356,
    "va": 357,
    "\u2581system": 358,
    "ive": 359,
    "\u2581place": 360,
    "\u2581At": 361,
    "\u2581b": 362,
    "\u2581end": 363,
    "ol": 364,
    "\u2581New": 365,
    "ated": 366,
    "\u2581W": 367,
    "\u2581same": 368,
    "\u2581state": 369,
    "\u258117": 370,
    "\u25818": 371,
    "\u258114": 372,
    "F": 373,
    "ism": 374,
    "\u2581co": 375,
    "\u25815": 376,
    "ni": 377,
    "\u2581long": 378,
    "\u2581things": 379,
    "\u2581person": 380,
    "6": 381,
    "ian": 382,
    "\u258111": 383,
    "\u2581found": 384,
    "\u2581That": 385,
    "\u2581U": 386,
    "\u2581film": 387,
    "\u2581An": 388,
    "\u258120": 389,
    "\u2581others": 390,
    "\u25814": 391,
    "7": 392,
    "ty": 393,
    "\u2581much": 394,
    "go": 395,
    "\u2581water": 396,
    "ci": 397,
    "\u2581shall": 398,
    "\u2581Ra": 399,
    "\u2581known": 400,
    "\u2581called": 401,
    "ot": 402,
    "\u2581Be": 403,
    "\u258116": 404,
    "ance": 405,
    "\u2581death": 406,
    "\u2581After": 407,
    "ant": 408,
    "\u2581became": 409,
    "\u2581become": 410,
    "\u2581human": 411,
    "ary": 412,
    "\u2581Al": 413,
    "\u2581order": 414,
    "\u2581power": 415,
    "\u2581e": 416,
    "\u2581example": 417,
    "mo": 418,
    "ke": 419,
    "less": 420,
    "ya": 421,
    "ga": 422,
    "\u2581while": 423,
    "5": 424,
    "\u2581another": 425,
    "fi": 426,
    "\u258113": 427,
    "G": 428,
    "\u2581La": 429,
    "\u2581city": 430,
    "ish": 431,
    "N": 432,
    "ful": 433,
    "\u2581women": 434,
    "0": 435,
    "\u2581both": 436,
    "\u2581Ja": 437,
    "H": 438,
    "\u2581war": 439,
    "\u2581Ka": 440,
    "\u2581Pakistan": 441,
    "em": 442,
    "\u25819": 443,
    "\u2581find": 444,
    "\u2581district": 445,
    "\u2581last": 446,
    "\u2581different": 447,
    "\u2581Dhaka": 448,
    "ted": 449,
    "\u2581say": 450,
    "ine": 451,
    "\u2581Sa": 452,
    "\u2581think": 453,
    "\u2581University": 454,
    "\u2581Why": 455,
    "K": 456,
    "3": 457,
    "\u2581each": 458,
    "\u2581page": 459,
    "\u2581men": 460,
    "\u2581later": 461,
    "ous": 462,
    "\u2581c": 463,
    "\u2581His": 464,
    "\u2581still": 465,
    "ch": 466,
    "ak": 467,
    "\u2581give": 468,
    "\u2581Paul": 469,
    "lu": 470,
    "min": 471,
    "\u2581land": 472,
    "4": 473,
    "\u2581came": 474,
    "da": 475,
    "co": 476,
    "R": 477,
    "\u2581World": 478,
    "\u2581Christian": 479,
    "\u2581book": 480,
    "\u2581took": 481,
    "x": 482,
    "\u2581Kingdom": 483,
    "ling": 484,
    "\u2581hand": 485,
    "pa": 486,
    "\u2581including": 487,
    "\u2581set": 488,
    "\u2581heart": 489,
    "\u2581All": 490,
    "\u2581public": 491,
    "ka": 492,
    "be": 493,
    "\u2581population": 494,
    "9": 495,
    "hi": 496,
    "\u2581service": 497,
    "\u2581school": 498,
    "\u2581got": 499,
    "\u2581One": 500,
    "tra": 501,
    "\u2581School": 502,
    "\u2581house": 503,
    "\u2581important": 504,
    "\u2581John": 505,
    "\u2581never": 506,
    "\u2581pre": 507,
    "\u2581Ro": 508,
    "\u2581However": 509,
    "j": 510,
    "\u2581great": 511,
    "\u2581century": 512,
    "\u2581father": 513,
    "\u2581since": 514,
    ".-": 515,
    "ut": 516,
    "\u2581am": 517,
    "\u2581head": 518,
    "per": 519,
    "\u2581show": 520,
    "\u2581every": 521,
    "\u2581around": 522,
    "\u2581national": 523,
    "\u2581view": 524,
    "tion": 525,
    "L": 526,
    "\u2581among": 527,
    "\u2581local": 528,
    "ating": 529,
    "\u2581area": 530,
    "\u2581second": 531,
    "no": 532,
    "\u2581too": 533,
    "\u2581million": 534,
    "\u2581says": 535,
    "\u2581without": 536,
    "\u2581off": 537,
    "\u2581sub": 538,
    "ah": 539,
    "\u2581pro": 540,
    "\u2581Khan": 541,
    "\u2581Go": 542,
    "\u2581days": 543,
    "\u2581post": 544,
    "har": 545,
    "tic": 546,
    "\u2581en": 547,
    "\u2581support": 548,
    "he": 549,
    "\u2581per": 550,
    "\u2581Some": 551,
    "\u2581Man": 552,
    "\u2581United": 553,
    "ence": 554,
    "wa": 555,
    "\u2581law": 556,
    "\u2581might": 557,
    "\u2581Bo": 558,
    "\u2581N": 559,
    "\u2581Christ": 560,
    "\u2581going": 561,
    "\u2581earth": 562,
    "\u2581congregation": 563,
    "up": 564,
    "\u2581spirit": 565,
    "\u2581period": 566,
    "ja": 567,
    "do": 568,
    "\u2581political": 569,
    "\u2581National": 570,
    "ca": 571,
    "\u2581following": 572,
    "W": 573,
    "\u2581few": 574,
    "\u2581means": 575,
    "ies": 576,
    "\u2581group": 577,
    "U": 578,
    "\u2581four": 579,
    "\u2581young": 580,
    "rs": 581,
    "\u2581St": 582,
    "son": 583,
    "\u2581g": 584,
    "\u2581ma": 585,
    "\u2581di": 586,
    ".\"-": 587,
    "\u2581again": 588,
    "\u2581Con": 589,
    "pe": 590,
    "\u2581Ta": 591,
    "\u2581Witnesses": 592,
    "\u2581Act": 593,
    "\u2581Mo": 594,
    "\u2581car": 595,
    "bi": 596,
    "\u2581age": 597,
    "\u2581Da": 598,
    "\u2581why": 599,
    "\u2581left": 600,
    "\u2581study": 601,
    "ton": 602,
    "\u2581keep": 603,
    "\u2581social": 604,
    "\u2581today": 605,
    "\u2581away": 606,
    "ten": 607,
    "\u2581Po": 608,
    "\u2581Fa": 609,
    "op": 610,
    "\u2581put": 611,
    "\u2581started": 612,
    "ud": 613,
    "\u2581War": 614,
    "\u2581look": 615,
    "\u2581(1": 616,
    "\u2581won": 617,
    "\u2581ex": 618,
    "\u2581course": 619,
    "\u2581news": 620,
    "\u2581May": 621,
    "\u2581began": 622,
    "\u2581read": 623,
    "\u2581team": 624,
    "\u2581live": 625,
    "\u2581Pro": 626,
    "\u2581language": 627,
    "\u2581case": 628,
    "\u2581Pa": 629,
    "mon": 630,
    "\u2581information": 631,
    "\u2581high": 632,
    "ho": 633,
    "\u2581wrote": 634,
    "\u2581old": 635,
    "gu": 636,
    "\u2581given": 637,
    "\u2581faith": 638,
    "\u2581H": 639,
    "\u2581spiritual": 640,
    "\u2581education": 641,
    "\u2581free": 642,
    "\u2581words": 643,
    "000": 644,
    "\u2581Lo": 645,
    "\u2581son": 646,
    "land": 647,
    "\u2581mother": 648,
    "\u2581until": 649,
    "ial": 650,
    "nd": 651,
    "\u2581mo": 652,
    "\u2581truth": 653,
    "2": 654,
    "\u2581English": 655,
    "\u2581true": 656,
    "\u258125": 657,
    "\u2581Su": 658,
    "\u2581Me": 659,
    "\u2581let": 660,
    "\u2581early": 661,
    "\u2581present": 662,
    "po": 663,
    "\u2581R": 664,
    "\u2581times": 665,
    "\u2581little": 666,
    "\u2581...": 667,
    "\u2581something": 668,
    "\u2581video": 669,
    "\u2581members": 670,
    "\u2581born": 671,
    "gi": 672,
    "\u2581Christians": 673,
    "\u2581J": 674,
    "V": 675,
    "bo": 676,
    "ities": 677,
    "\u2581feel": 678,
    "\u2581College": 679,
    "?\"": 680,
    "\",": 681,
    "\u2581food": 682,
    "ab": 683,
    "\u2581often": 684,
    "\u2581village": 685,
    "\u2581Mi": 686,
    "\u2581tell": 687,
    "\u2581Government": 688,
    "\u2581small": 689,
    "\u2581March": 690,
    "\u2581himself": 691,
    "\u2581several": 692,
    "\u2581member": 693,
    "\u2581With": 694,
    "\u2581Mar": 695,
    "\u258124": 696,
    "\u2581Muslim": 697,
    "der": 698,
    "\u2581High": 699,
    "\u2581side": 700,
    "\u2581km": 701,
    "ise": 702,
    "ie": 703,
    "\u2581role": 704,
    "\u2581My": 705,
    "\u2581mind": 706,
    "\u2581held": 707,
    "\u2581British": 708,
    "\u2581Co": 709,
    "Y": 710,
    "om": 711,
    "\u2581special": 712,
    "\u2581ra": 713,
    "\u2581min": 714,
    "\u2581Le": 715,
    "v": 716,
    "led": 717,
    "nt": 718,
    "\u2581fact": 719,
    "\u2581la": 720,
    "\u2581Peter": 721,
    "\u258130": 722,
    "hu": 723,
    "\u2581non": 724,
    "\u2581South": 725,
    "\u2581development": 726,
    "\u2581child": 727,
    "way": 728,
    "\u2581form": 729,
    "\u2581open": 730,
    "\u2581These": 731,
    "ap": 732,
    "\u258121": 733,
    "\u2581full": 734,
    "\u2581best": 735,
    "mp": 736,
    "\u2581line": 737,
    "\u2581money": 738,
    "ized": 739,
    "ki": 740,
    "\u2581hope": 741,
    "\u2581far": 742,
    "\u2581making": 743,
    "ship": 744,
    "one": 745,
    "\u2581real": 746,
    "\u2581Vi": 747,
    "\u2581result": 748,
    "\u2581media": 749,
    "\u2581t": 750,
    "\u2581five": 751,
    "\u2581large": 752,
    "\u2581within": 753,
    "za": 754,
    "\u2581face": 755,
    "\u2581religious": 756,
    "\".": 757,
    "\u2581next": 758,
    "\u2581parents": 759,
    "ction": 760,
    "\u2581along": 761,
    "\u2581rate": 762,
    "\u2581King": 763,
    "\u2581countries": 764,
    "\u258123": 765,
    "\u2581kind": 766,
    "os": 767,
    "ner": 768,
    "tan": 769,
    "\u2581East": 770,
    "\u2581went": 771,
    "ure": 772,
    "\u2581West": 773,
    "ng": 774,
    "\u2581word": 775,
    "\u2581report": 776,
    "\u2581December": 777,
    "ward": 778,
    "men": 779,
    "\u2581building": 780,
    "\u2581told": 781,
    "\u2581history": 782,
    "\u2581act": 783,
    "\u2581pa": 784,
    "\u2581thought": 785,
    "\u2581message": 786,
    "\u2581upon": 787,
    "\u2581believe": 788,
    "\u2581Sha": 789,
    "\u2581January": 790,
    "\u2581By": 791,
    "\u2581received": 792,
    "\u2581though": 793,
    "\u2581project": 794,
    "\u2581police": 795,
    "ally": 796,
    "-19": 797,
    "\u2581hard": 798,
    "\u2581International": 799,
    "\u2581able": 800,
    "\u2581always": 801,
    "\u2581published": 802,
    "\u2581having": 803,
    "\u2581doing": 804,
    "\u2581established": 805,
    "\u2581comp": 806,
    "\u2581Bar": 807,
    "\u2581taken": 808,
    "\u2581April": 809,
    "tor": 810,
    "\u2581Ga": 811,
    "\u2581Ho": 812,
    "\u2581talk": 813,
    "\u2581Ca": 814,
    "ang": 815,
    "ite": 816,
    "ee": 817,
    "\u2581brother": 818,
    ":1": 819,
    "\u2581really": 820,
    "\u2581L": 821,
    "\u2581Ar": 822,
    "\u2581light": 823,
    "\u2581health": 824,
    "\u2581region": 825,
    "\u2581Li": 826,
    "gra": 827,
    "bu": 828,
    "ran": 829,
    "we": 830,
    "\u2581body": 831,
    "time": 832,
    "\u2581less": 833,
    "\u2581night": 834,
    "\u2581ha": 835,
    "\u2581students": 836,
    "ji": 837,
    "\u2581Di": 838,
    "tro": 839,
    "\u2581field": 840,
    "\u2581Ne": 841,
    "\u2581bring": 842,
    "\u2581According": 843,
    "\u2581wife": 844,
    "\u2581August": 845,
    "\u2581account": 846,
    "\u2581point": 847,
    "\u2581ten": 848,
    "\u2581however": 849,
    "\u2581woman": 850,
    "pp": 851,
    "ip": 852,
    "\u2581Ali": 853,
    "\u2581share": 854,
    "han": 855,
    "\u2581short": 856,
    "\u2581From": 857,
    "\u2581international": 858,
    "\u2581main": 859,
    "\u2581learn": 860,
    "\u25812011": 861,
    "\u2581Shah": 862,
    "und": 863,
    "\u2581ever": 864,
    "\u2581reason": 865,
    "\u2581six": 866,
    "\u2581turn": 867,
    "\u2581office": 868,
    "8": 869,
    "\u2581business": 870,
    "\u2581control": 871,
    "\u2581together": 872,
    "\u2581call": 873,
    "\u2581living": 874,
    "\u2581American": 875,
    "tri": 876,
    "\u2581Ni": 877,
    "\u2581Cha": 878,
    "00": 879,
    "\u2581gave": 880,
    "\u2581change": 881,
    "\u2581died": 882,
    "\u2581vi": 883,
    "\u2581Now": 884,
    "\u2581inter": 885,
    "\u2581various": 886,
    "line": 887,
    "\u2581done": 888,
    "ver": 889,
    "\u2581During": 890,
    "ize": 891,
    "ig": 892,
    "20": 893,
    "\u2581w": 894,
    "\u2581President": 895,
    "\u258122": 896,
    "\u2581better": 897,
    "con": 898,
    "ex": 899,
    "\u2581ca": 900,
    "\u2581Bi": 901,
    "born": 902,
    "ber": 903,
    "\u2581June": 904,
    "\u2581Yes": 905,
    "\u2581Israel": 906,
    "\u2581level": 907,
    "ster": 908,
    "\u2581Gu": 909,
    "nk": 910,
    "qui": 911,
    "\u2581question": 912,
    "\u2581Mu": 913,
    "sha": 914,
    "Picture": 915,
    "\u2581Not": 916,
    "\u2581Dr": 917,
    "\u2581whole": 918,
    "\u2581worship": 919,
    "com": 920,
    "\u2581respect": 921,
    "\u2581named": 922,
    "\u2581Se": 923,
    "ub": 924,
    "\u2581list": 925,
    "\u2581cannot": 926,
    "\u2581mean": 927,
    "\u2581care": 928,
    "ard": 929,
    "\u2581leave": 930,
    "\u2581bank": 931,
    "\u2581consider": 932,
    "\u2581situation": 933,
    "\u2581October": 934,
    "\u2581Then": 935,
    "\u2581Islam": 936,
    "\u2581ba": 937,
    "and": 938,
    "\u2581based": 939,
    "our": 940,
    "\u2581Many": 941,
    "les": 942,
    "\u2581al": 943,
    "ning": 944,
    "\u2581Can": 945,
    "du": 946,
    "\u2581process": 947,
    "\u2581former": 948,
    "\u2581due": 949,
    "\u2581start": 950,
    "\u2581July": 951,
    "\u2581close": 952,
    "\u2581February": 953,
    "\u2581play": 954,
    "\u2581mis": 955,
    "ach": 956,
    "\u2581Who": 957,
    "\u2581cause": 958,
    "\u2581movement": 959,
    "cu": 960,
    "\u2581town": 961,
    "\u2581killed": 962,
    "\u2581strong": 963,
    "\u2581Let": 964,
    "\u2581court": 965,
    "\u2581near": 966,
    "\u2581include": 967,
    "\u2581sure": 968,
    "\u2581played": 969,
    "\u2581bo": 970,
    "\u2581using": 971,
    "\u2581file": 972,
    "\u2581Award": 973,
    "che": 974,
    "\u2581November": 975,
    "\u2581Minister": 976,
    "ical": 977,
    "\u2581subject": 978,
    "\u2581States": 979,
    "que": 980,
    "\u2581experience": 981,
    "\u2581general": 982,
    "\u2581cl": 983,
    "ow": 984,
    "\u2581bad": 985,
    "\u2581League": 986,
    "\u2581li": 987,
    "\u2581apostle": 988,
    "\u2581Hindu": 989,
    "\u2581value": 990,
    "fa": 991,
    "ai": 992,
    "\u2581material": 993,
    "ving": 994,
    "\u2581asked": 995,
    "\u2581brothers": 996,
    "red": 997,
    "\u2581Your": 998,
    "ring": 999,
    "\u2581Ri": 1000,
    "\u2581located": 1001,
    "\u2581road": 1002,
    "\u2581sin": 1003,
    "\u2581September": 1004,
    "gg": 1005,
    "\u2581attack": 1006,
    "\u2581total": 1007,
    "dy": 1008,
    "\u2581seen": 1009,
    "\u2581class": 1010,
    "shi": 1011,
    "kh": 1012,
    "\u2581k": 1013,
    "\u2581Word": 1014,
    "ik": 1015,
    "\u2581knowledge": 1016,
    "\u2581marriage": 1017,
    "ac": 1018,
    "\u2581themselves": 1019,
    "\u25812014": 1020,
    "\u2581community": 1021,
    "\u2581David": 1022,
    "\u2581ask": 1023,
    "\u2581serve": 1024,
    "\u2581personal": 1025,
    "\u2581activities": 1026,
    "\u2581north": 1027,
    "\u2581imp": 1028,
    "\u2581station": 1029,
    "tar": 1030,
    "vo": 1031,
    "chi": 1032,
    "\u2581possible": 1033,
    "ag": 1034,
    "\u2581Our": 1035,
    "\u2581capital": 1036,
    "\u2581already": 1037,
    "\u2581visit": 1038,
    "\u2581company": 1039,
    "\u2581blog": 1040,
    "\u2581thing": 1041,
    "\u2581peace": 1042,
    "\u2581return": 1043,
    "\u2581im": 1044,
    "\u2581ministry": 1045,
    "ions": 1046,
    "\u2581king": 1047,
    "\u2581Ex": 1048,
    "\u2581Ju": 1049,
    "\u2581major": 1050,
    "\u2581matter": 1051,
    "\u2581common": 1052,
    "\u2581Un": 1053,
    "\u2581sp": 1054,
    "\u2581art": 1055,
    "wi": 1056,
    "\u2581understand": 1057,
    "gar": 1058,
    "\u2581Wa": 1059,
    "\u2581saw": 1060,
    "ft": 1061,
    "\u2581rights": 1062,
    "\u2581army": 1063,
    "\u2581dead": 1064,
    "\u2581provide": 1065,
    "\u2581follow": 1066,
    "fe": 1067,
    "\u2581Ki": 1068,
    "\u2581China": 1069,
    "\u2581San": 1070,
    "\u2581Am": 1071,
    "\u2581f": 1072,
    "ph": 1073,
    "tch": 1074,
    "\u2581upazila": 1075,
    "\u2581research": 1076,
    "tu": 1077,
    "\u2581record": 1078,
    "\u2581female": 1079,
    "\u2581average": 1080,
    "tal": 1081,
    "\u2581gr": 1082,
    "dar": 1083,
    "15": 1084,
    "\u2581Even": 1085,
    "\u2581future": 1086,
    "od": 1087,
    "\u2581Shi": 1088,
    "\u258126": 1089,
    "au": 1090,
    "\u2581fear": 1091,
    "\u2581text": 1092,
    "\u2581program": 1093,
    "ble": 1094,
    "\u2581sent": 1095,
    "\u2581economic": 1096,
    "\u2581Si": 1097,
    "\u2581District": 1098,
    "lin": 1099,
    "ell": 1100,
    "\u2581blood": 1101,
    "\u25812013": 1102,
    "\u2581self": 1103,
    "ron": 1104,
    "lic": 1105,
    "mer": 1106,
    "\u2581past": 1107,
    "\u2581fine": 1108,
    "\u2581areas": 1109,
    "\u2581purpose": 1110,
    "\u2581Mr": 1111,
    "\u2581position": 1112,
    "\u2581Hu": 1113,
    "\u2581lead": 1114,
    "\u2581market": 1115,
    "\u2581yet": 1116,
    "\u2581once": 1117,
    "\u2581Ko": 1118,
    "\u2581written": 1119,
    "\u2581religion": 1120,
    "ani": 1121,
    "\u2581General": 1122,
    "\u2581allow": 1123,
    "side": 1124,
    "mit": 1125,
    "\u2581freedom": 1126,
    "\u2581Sam": 1127,
    "\u2581series": 1128,
    "ration": 1129,
    "\u2581temple": 1130,
    "\u2581military": 1131,
    "\u2581Ministry": 1132,
    "\u2581created": 1133,
    "\u2581hold": 1134,
    "ious": 1135,
    "\u2581Are": 1136,
    "\u2581male": 1137,
    "\u2581site": 1138,
    "nu": 1139,
    "\u2581practice": 1140,
    "\u2581modern": 1141,
    "\u25812012": 1142,
    "\u2581ho": 1143,
    "ture": 1144,
    "ven": 1145,
    "\u2581led": 1146,
    "ep": 1147,
    "\u2581anything": 1148,
    "\u2581US": 1149,
    "\u2581brought": 1150,
    "king": 1151,
    "day": 1152,
    "\u2581na": 1153,
    "\u2581river": 1154,
    "q": 1155,
    "ganj": 1156,
    "\u2581Asia": 1157,
    "pt": 1158,
    "\u2581bar": 1159,
    "\u2581soon": 1160,
    "ec": 1161,
    "\u2581society": 1162,
    "\u2581taking": 1163,
    "ual": 1164,
    "ore": 1165,
    "ice": 1166,
    "\u2581months": 1167,
    "\u2581husband": 1168,
    "\u2581Her": 1169,
    "\u2581south": 1170,
    "\u2581friend": 1171,
    "war": 1172,
    "\u2581rule": 1173,
    "\u258128": 1174,
    "\u2581Cor": 1175,
    "kar": 1176,
    "\u2581working": 1177,
    "\u2581lost": 1178,
    "\u2581Car": 1179,
    "ology": 1180,
    "\u2581Cup": 1181,
    "\u2581popular": 1182,
    "\u258127": 1183,
    "row": 1184,
    "\u2581se": 1185,
    "\u2581Pi": 1186,
    "\u2581benefit": 1187,
    "\u2581similar": 1188,
    "\u2581(2": 1189,
    "\u2581Bengali": 1190,
    "\u2581nothing": 1191,
    "\u2581Don": 1192,
    "\u2581meeting": 1193,
    "\u2581da": 1194,
    "\u25812010": 1195,
    "5)": 1196,
    "\u25811,": 1197,
    "\u2581speak": 1198,
    "\u2581lo": 1199,
    "\u2581interest": 1200,
    "\u2581etc": 1201,
    "ever": 1202,
    "\u2581air": 1203,
    "\u2581fire": 1204,
    "\u2581Where": 1205,
    "\u2581culture": 1206,
    "\u2581cr": 1207,
    "\u2581Day": 1208,
    "ana": 1209,
    "tain": 1210,
    "ight": 1211,
    "\u2581run": 1212,
    "ey": 1213,
    "\u2581party": 1214,
    "\u2581considered": 1215,
    "\u2581move": 1216,
    "\u2581demand": 1217,
    "\u2581ground": 1218,
    "\u2581date": 1219,
    "\u2581built": 1220,
    "\u2581faithful": 1221,
    "\u2581Jo": 1222,
    "ler": 1223,
    "ations": 1224,
    "\u2581pi": 1225,
    "\u2581pay": 1226,
    "rit": 1227,
    "\u2581story": 1228,
    "\u2581month": 1229,
    "\u2581command": 1230,
    "\u2581stay": 1231,
    "\u2581boy": 1232,
    "\u2581literacy": 1233,
    "\u2581plan": 1234,
    "\u2581someone": 1235,
    "ding": 1236,
    "\u2581eyes": 1237,
    "\u2581daughter": 1238,
    "\u2581wrong": 1239,
    "\u2581room": 1240,
    "\u2581ones": 1241,
    "\u25812015": 1242,
    "\u2581ancient": 1243,
    "\u2581Father": 1244,
    "pro": 1245,
    "\u2581foreign": 1246,
    "tter": 1247,
    "\u2581Langdon": 1248,
    "\u2581bi": 1249,
    "\u2581especially": 1250,
    "\u2581served": 1251,
    "ay": 1252,
    "\u2581article": 1253,
    "\u2581music": 1254,
    "\u2581State": 1255,
    "mar": 1256,
    "\u2581access": 1257,
    "\u2581Satan": 1258,
    "\u25812016": 1259,
    "\u2581effect": 1260,
    "\u2581lives": 1261,
    "\u2581o": 1262,
    "\u2581whom": 1263,
    "\u2581teaching": 1264,
    "\u2581While": 1265,
    "\u2581season": 1266,
    "\u2581problem": 1267,
    "\u2581El": 1268,
    "\u2581single": 1269,
    "\u2581(18": 1270,
    "\u2581didn": 1271,
    "\u2581saying": 1272,
    "act": 1273,
    "\u2581half": 1274,
    "\u2581Africa": 1275,
    "\u2581stop": 1276,
    "\u2581reading": 1277,
    "\u2581po": 1278,
    "\u2581according": 1279,
    "\u2581Of": 1280,
    "\u2581Since": 1281,
    "\u258129": 1282,
    "\u2581Best": 1283,
    "\u2581seven": 1284,
    "\u2581Well": 1285,
    "\u2581rest": 1286,
    "\u2581continue": 1287,
    "\u2581coming": 1288,
    "\u2581door": 1289,
    "ped": 1290,
    "\u2581Corinthians": 1291,
    "\u2581clear": 1292,
    "ries": 1293,
    "\u2581Je": 1294,
    "\u2581America": 1295,
    "\u2581letter": 1296,
    "\u2581North": 1297,
    "sion": 1298,
    "\u2581Oh": 1299,
    "\u2581protect": 1300,
    "ko": 1301,
    "\u2581test": 1302,
    "for": 1303,
    "\u2581least": 1304,
    "ative": 1305,
    "ny": 1306,
    "\u2581term": 1307,
    "\u2581week": 1308,
    "\u2581Lord": 1309,
    "out": 1310,
    "\u2581V": 1311,
    "ible": 1312,
    "uddin": 1313,
    "\u2581ch": 1314,
    "\u2581appointed": 1315,
    "tin": 1316,
    "her": 1317,
    "\u2581available": 1318,
    "\u2581certain": 1319,
    "\u2581du": 1320,
    "\u2581further": 1321,
    "\u2581le": 1322,
    "\u2581lot": 1323,
    "\u2581List": 1324,
    "\u2581released": 1325,
    "\u2581Or": 1326,
    "\u2581issue": 1327,
    "\u2581sense": 1328,
    "\u2581Law": 1329,
    "\u2581stand": 1330,
    "ham": 1331,
    "ified": 1332,
    "\u2581nation": 1333,
    "\u2581moved": 1334,
    "bb": 1335,
    "az": 1336,
    "\u2581problems": 1337,
    "\u25812018": 1338,
    "\u2581met": 1339,
    "\u2581desire": 1340,
    "\u2581please": 1341,
    "\u2581sign": 1342,
    "ram": 1343,
    "lan": 1344,
    "ze": 1345,
    "\u2581ago": 1346,
    "by": 1347,
    "if": 1348,
    "\u2581address": 1349,
    "\u25812009": 1350,
    "ile": 1351,
    "ld": 1352,
    "\u2581felt": 1353,
    "\u2581key": 1354,
    "\u2581Although": 1355,
    "\u2581Son": 1356,
    "\u2581event": 1357,
    "pi": 1358,
    "\u2581People": 1359,
    "ns": 1360,
    "\u2581relationship": 1361,
    "\u2581host": 1362,
    "\u2581ti": 1363,
    "val": 1364,
    "\u2581image": 1365,
    "\u2581section": 1366,
    "nce": 1367,
    "\u2581va": 1368,
    "\u2581sh": 1369,
    "\u2581institutions": 1370,
    "\u2581mu": 1371,
    "\u2581final": 1372,
    "use": 1373,
    "\u2581college": 1374,
    "\u2581minister": 1375,
    "\u2581whether": 1376,
    "\u2581Bangla": 1377,
    "\u2581offer": 1378,
    "\u2581needed": 1379,
    "\u2581conduct": 1380,
    "\u2581Because": 1381,
    "ator": 1382,
    "\u2581married": 1383,
    "\u2581almost": 1384,
    "\u2581ta": 1385,
    "\u2581writing": 1386,
    "\u2581Matthew": 1387,
    "\u2581cur": 1388,
    "\u2581questions": 1389,
    "\u2581east": 1390,
    "\u2581outside": 1391,
    "\u2581trust": 1392,
    "\u2581career": 1393,
    "\u25810": 1394,
    "\u25812017": 1395,
    "lar": 1396,
    "\u2581Pre": 1397,
    "\u2581official": 1398,
    "ple": 1399,
    "\u2581enough": 1400,
    "\u2581friends": 1401,
    "\u2581late": 1402,
    "\u2581election": 1403,
    "bar": 1404,
    "tha": 1405,
    "\u2581character": 1406,
    "\u2581enjoy": 1407,
    "\u25813:1": 1408,
    "\u2581Har": 1409,
    "\u2581Bha": 1410,
    "ved": 1411,
    "\u2581private": 1412,
    "\u2581remember": 1413,
    "\u2581formed": 1414,
    "\u2581force": 1415,
    "\u2581Union": 1416,
    "ide": 1417,
    "\u2581fellow": 1418,
    "\u2581joined": 1419,
    "\u25812008": 1420,
    "\u2581Mon": 1421,
    "\u2581Most": 1422,
    "\u258131": 1423,
    "rate": 1424,
    "\u2581Council": 1425,
    "\u258150": 1426,
    "\u258140": 1427,
    "\u2581training": 1428,
    "iv": 1429,
    "\u2581books": 1430,
    "ised": 1431,
    "\u2581trade": 1432,
    "\u2581pe": 1433,
    "\u2581Per": 1434,
    "\u2581current": 1435,
    "4)": 1436,
    "ff": 1437,
    "\u2581security": 1438,
    "vers": 1439,
    "\u2581sound": 1440,
    "\u2581centre": 1441,
    "\u2581third": 1442,
    "\u2581Bank": 1443,
    "cha": 1444,
    "\u2581type": 1445,
    "av": 1446,
    "\u2581black": 1447,
    "cent": 1448,
    "\u2581Court": 1449,
    "\u2581En": 1450,
    "\u2581job": 1451,
    "\u2581difficult": 1452,
    "\u2581City": 1453,
    "\u2581sa": 1454,
    "\u2581organization": 1455,
    "\u2581writer": 1456,
    "\u2581die": 1457,
    "\u2581natural": 1458,
    "\u2581continued": 1459,
    "\u2581attention": 1460,
    "ming": 1461,
    "!\"": 1462,
    "mal": 1463,
    "\u2581Please": 1464,
    "ization": 1465,
    "\u2581receive": 1466,
    "\u2581works": 1467,
    "\u2581fall": 1468,
    "\u2581front": 1469,
    "\u2581Upazila": 1470,
    "\u2581document": 1471,
    "\u2581wanted": 1472,
    "ok": 1473,
    "\u2581star": 1474,
    "sta": 1475,
    "Ma": 1476,
    "\u2581Mal": 1477,
    "\u2581poor": 1478,
    "tta": 1479,
    "\u2581Ti": 1480,
    "J": 1481,
    "\u2581provided": 1482,
    "\u2581Twitter": 1483,
    "\u2581president": 1484,
    "\u2581trans": 1485,
    "\u2581charge": 1486,
    "den": 1487,
    "\u2581pain": 1488,
    "\u2581author": 1489,
    "\u2581cricket": 1490,
    "\u2581Qu": 1491,
    "7)": 1492,
    "\u2581fish": 1493,
    "\u2581concern": 1494,
    "\u2581reach": 1495,
    "ari": 1496,
    "You": 1497,
    "\u2581across": 1498,
    "\u2581deep": 1499,
    "\u2581Pra": 1500,
    "let": 1501,
    "ef": 1502,
    "\u2581involved": 1503,
    "lt": 1504,
    "gram": 1505,
    "\u2581Come": 1506,
    "\u2581accept": 1507,
    "dic": 1508,
    "\u25812007": 1509,
    "mor": 1510,
    "\u2581Col": 1511,
    "\u2581Commission": 1512,
    "\u2581low": 1513,
    "su": 1514,
    "\u2581everything": 1515,
    "\u2581answer": 1516,
    "\u2581heaven": 1517,
    "\u2581behind": 1518,
    "ctor": 1519,
    "\u2581exist": 1520,
    "\u2581decision": 1521,
    "\u2581holy": 1522,
    "\u2581Europe": 1523,
    "\u2581action": 1524,
    "\u2581Bangladeshi": 1525,
    "6)": 1526,
    "\u2581prayer": 1527,
    "\u2581try": 1528,
    "ib": 1529,
    "\u2581Du": 1530,
    "old": 1531,
    "\u2581York": 1532,
    "\u2581display": 1533,
    "ral": 1534,
    "\u2581heard": 1535,
    "gan": 1536,
    "10": 1537,
    "\u2581higher": 1538,
    "\u2581picture": 1539,
    "tive": 1540,
    "\u2581tra": 1541,
    "\u2581included": 1542,
    "\u2581Timothy": 1543,
    "\u2581Congress": 1544,
    "\u2581Psalm": 1545,
    "\u2581England": 1546,
    "\u2581Bu": 1547,
    "\u2581reported": 1548,
    "\u2581sea": 1549,
    "\u2581giving": 1550,
    "\u2581hear": 1551,
    "\u2581knew": 1552,
    "fu": 1553,
    "\u2581block": 1554,
    "ition": 1555,
    "\u2581match": 1556,
    "\u2581rather": 1557,
    "30": 1558,
    "ju": 1559,
    "\u2581Facebook": 1560,
    "ery": 1561,
    "\u2581top": 1562,
    "\u2581See": 1563,
    "\u2581magazine": 1564,
    "\u2581ge": 1565,
    "\u2581wall": 1566,
    "\u2581cha": 1567,
    "\u2581Chinese": 1568,
    "\u2581French": 1569,
    "ists": 1570,
    "tle": 1571,
    "\u2581campaign": 1572,
    "\u2581degree": 1573,
    "van": 1574,
    "\u2581above": 1575,
    "\u2581hours": 1576,
    "\u2581percent": 1577,
    "\u2581pioneer": 1578,
    "\u2581Chittagong": 1579,
    "\u2581fa": 1580,
    "\u2581deal": 1581,
    "\u2581break": 1582,
    "\u2581travel": 1583,
    "\u2581m": 1584,
    "qu": 1585,
    "\u2581student": 1586,
    "\u2581Just": 1587,
    "\u2581Department": 1588,
    "\u2581authority": 1589,
    "\u2581Sen": 1590,
    "\u2581happy": 1591,
    "br": 1592,
    "\u2581operation": 1593,
    "\u2581(1)": 1594,
    "\u2581girl": 1595,
    "\u2581turned": 1596,
    "\u2581voice": 1597,
    "\u2581thus": 1598,
    "eg": 1599,
    "\u2581director": 1600,
    "\u2581disc": 1601,
    "\u2581protest": 1602,
    "\u2581necessary": 1603,
    "\u2581physical": 1604,
    "\u2581ways": 1605,
    "\u2581contact": 1606,
    "\u25812:1": 1607,
    "istic": 1608,
    "ou": 1609,
    "ability": 1610,
    "\u2581literature": 1611,
    "nch": 1612,
    "\u2581meet": 1613,
    "\u2581success": 1614,
    "\u2581idea": 1615,
    "\u2581spread": 1616,
    "\u2581Egypt": 1617,
    "\u2581developed": 1618,
    "\u2581Z": 1619,
    "12": 1620,
    "\u2581Calcutta": 1621,
    "\u2581avoid": 1622,
    "\u2581stage": 1623,
    "hal": 1624,
    "\u2581remain": 1625,
    "iya": 1626,
    "\u2581source": 1627,
    "ura": 1628,
    "\u2581groups": 1629,
    "\u2581events": 1630,
    "\u2581either": 1631,
    "\u2581First": 1632,
    "jo": 1633,
    "ash": 1634,
    "\u2581tax": 1635,
    "\u2581create": 1636,
    "\u2581central": 1637,
    "50": 1638,
    "We": 1639,
    "nder": 1640,
    "\u2581anti": 1641,
    "\u2581Ru": 1642,
    "\u2581Japan": 1643,
    "\u2581European": 1644,
    "\u2581cost": 1645,
    "2)": 1646,
    "\u2581Main": 1647,
    "\u2581Ch": 1648,
    "\u2581needs": 1649,
    "form": 1650,
    "\u2581elected": 1651,
    "\u2581big": 1652,
    "\u2581states": 1653,
    "\u2581happened": 1654,
    "\u2581Rahman": 1655,
    "\u2581Party": 1656,
    "\u2581science": 1657,
    "\u2581workers": 1658,
    "\u2581inside": 1659,
    "\u2581fruit": 1660,
    "\u2581Education": 1661,
    "\u2581listen": 1662,
    "\u2581civil": 1663,
    "\u2581Read": 1664,
    "\u2581Ad": 1665,
    "\u2581fight": 1666,
    "ev": 1667,
    "lam": 1668,
    "ue": 1669,
    "\u2581production": 1670,
    "med": 1671,
    "\u2581Test": 1672,
    "\u2581Yeah": 1673,
    "pri": 1674,
    "\u25811.": 1675,
    "\u2581disease": 1676,
    "ably": 1677,
    "\u2581Gra": 1678,
    "ong": 1679,
    "right": 1680,
    "part": 1681,
    "\u2581online": 1682,
    "\u2581meetings": 1683,
    "\u2581forces": 1684,
    "\u2581History": 1685,
    "\u2581pray": 1686,
    "\u25812.": 1687,
    "\u2581represent": 1688,
    "\u2581Islamic": 1689,
    "\u2581title": 1690,
    "ned": 1691,
    "\u2581disciples": 1692,
    "\u2581worked": 1693,
    "\u2581helped": 1694,
    "25": 1695,
    "\u2581app": 1696,
    "\u2581legal": 1697,
    "amp": 1698,
    "cing": 1699,
    "ged": 1700,
    "\u2581preaching": 1701,
    "\u2581clean": 1702,
    "\u2581hundred": 1703,
    "\u2581Pan": 1704,
    "\u2581witness": 1705,
    "\u2581Pat": 1706,
    "\u2581toward": 1707,
    "\u2581addition": 1708,
    "sign": 1709,
    "\u2581Academy": 1710,
    "\u2581reflect": 1711,
    "\u2581Time": 1712,
    "\u2581increase": 1713,
    "\u2581ship": 1714,
    "\u2581films": 1715,
    "\u2581eight": 1716,
    "\u2581seat": 1717,
    "\u2581sister": 1718,
    "\u2581joy": 1719,
    "\u2581meaning": 1720,
    "\u2581lack": 1721,
    "\u2581selected": 1722,
    "ea": 1723,
    "nda": 1724,
    "9)": 1725,
    "\u2581Kar": 1726,
    "\u2581morning": 1727,
    "8)": 1728,
    "\u2581hands": 1729,
    "\u2581hi": 1730,
    "hat": 1731,
    "\u2581enter": 1732,
    "\u2581Director": 1733,
    "\u2581mentioned": 1734,
    "\u2581largest": 1735,
    "\u2581Sal": 1736,
    "\u2581evidence": 1737,
    "\u2581kill": 1738,
    "\u2581happen": 1739,
    "\u2581beginning": 1740,
    "\u2581Board": 1741,
    "\u2581Lu": 1742,
    "\u2581honor": 1743,
    "\u2581sun": 1744,
    "\u2581hospital": 1745,
    "\u2581walk": 1746,
    "\u2581university": 1747,
    "\u2581followed": 1748,
    "\u2581policy": 1749,
    "\u2581Jerusalem": 1750,
    "\u2581Mark": 1751,
    "\u2581learned": 1752,
    "\u2581Song": 1753,
    "\u2581services": 1754,
    "\u2581Ahmed": 1755,
    "ging": 1756,
    "\u2581whose": 1757,
    "\u2581construction": 1758,
    "\u2581River": 1759,
    "\u2581network": 1760,
    "Matthew": 1761,
    "year": 1762,
    "\u2581maintain": 1763,
    "dra": 1764,
    "\u2581content": 1765,
    "ina": 1766,
    "\u2581Kolkata": 1767,
    "\u2581shows": 1768,
    "\u2581100": 1769,
    "\u2581Th": 1770,
    "\u2581Institute": 1771,
    "\u2581moment": 1772,
    "ek": 1773,
    "11": 1774,
    "\u2581entire": 1775,
    "ama": 1776,
    "\u2581officer": 1777,
    "\u2581claim": 1778,
    "\u2581attempt": 1779,
    "hara": 1780,
    "\u2581passed": 1781,
    "\u2581su": 1782,
    "ku": 1783,
    "\u2581website": 1784,
    "nes": 1785,
    "\u2581Te": 1786,
    "hy": 1787,
    "\u2581usually": 1788,
    "ger": 1789,
    "port": 1790,
    "\u2581influence": 1791,
    "13": 1792,
    "\u2581data": 1793,
    "\u2581design": 1794,
    "\u2581add": 1795,
    "\u2581plant": 1796,
    "ric": 1797,
    "\u2581Arab": 1798,
    "\u2581Service": 1799,
    "\u2581vote": 1800,
    "-2": 1801,
    "\u2581Hi": 1802,
    "\u2581ro": 1803,
    "\u2581watch": 1804,
    "\u2581humans": 1805,
    "\u2581union": 1806,
    "oc": 1807,
    "\u2581search": 1808,
    "end": 1809,
    "cle": 1810,
    "\u2581getting": 1811,
    "\u2581television": 1812,
    "\u2581gonna": 1813,
    "\u2581Good": 1814,
    "fin": 1815,
    "ear": 1816,
    "\u2581Greek": 1817,
    "\u2581sexual": 1818,
    "24": 1819,
    "\u25812006": 1820,
    "\u2581par": 1821,
    "\u2581Could": 1822,
    "light": 1823,
    "\u2581parts": 1824,
    "\u2581traditional": 1825,
    "vel": 1826,
    "\u2581Division": 1827,
    "\u2581loving": 1828,
    "\u2581Committee": 1829,
    "\u2581object": 1830,
    "work": 1831,
    "ung": 1832,
    "\u2581amount": 1833,
    "\u2581prison": 1834,
    "\u2581challenge": 1835,
    "pose": 1836,
    "\u2581journalist": 1837,
    "\u2581London": 1838,
    "\u2581bear": 1839,
    "\u2581user": 1840,
    "ification": 1841,
    "\u2581yourself": 1842,
    "\u2581sacrifice": 1843,
    "\u2581active": 1844,
    "\u2581approach": 1845,
    "ther": 1846,
    "\u2581nu": 1847,
    "\u2581separate": 1848,
    "\u2581original": 1849,
    "\u2581Australia": 1850,
    "\u2581throughout": 1851,
    "23": 1852,
    "set": 1853,
    "ens": 1854,
    "ffi": 1855,
    "uk": 1856,
    "\u2581port": 1857,
    "\u2581Ya": 1858,
    "\u25815:1": 1859,
    "\u2581decided": 1860,
    "\u2581leaders": 1861,
    "\u2581pen": 1862,
    "ban": 1863,
    "\u2581Ph": 1864,
    "\u2581Sir": 1865,
    "izing": 1866,
    "ath": 1867,
    "\u2581Film": 1868,
    "\u2581Great": 1869,
    "\u2581trying": 1870,
    "\u2581send": 1871,
    "sol": 1872,
    "\u2581languages": 1873,
    "\u2581Za": 1874,
    "low": 1875,
    "ps": 1876,
    "\u2581Year": 1877,
    "\u2581comment": 1878,
    "\u2581Did": 1879,
    "\u2581recent": 1880,
    "zi": 1881,
    "\u2581Ku": 1882,
    "io": 1883,
    "(": 1884,
    "\u2581Sp": 1885,
    "\u2581sha": 1886,
    "\u2581phone": 1887,
    "-3": 1888,
    "\u2581computer": 1889,
    "\u2581fi": 1890,
    "car": 1891,
    "\u2581link": 1892,
    "No": 1893,
    "\u2581Like": 1894,
    "\u2581Russian": 1895,
    "iti": 1896,
    "rat": 1897,
    "yan": 1898,
    "\u2581counsel": 1899,
    "\u2581debut": 1900,
    "\u2581teach": 1901,
    "\u2581request": 1902,
    "\u2581Those": 1903,
    "\u2581perfect": 1904,
    "\u2581Other": 1905,
    "\u2581Sri": 1906,
    "\u2581changed": 1907,
    "\u2581train": 1908,
    "\u2581individual": 1909,
    "ker": 1910,
    "\u2581rural": 1911,
    "\u2581related": 1912,
    "\u2581Star": 1913,
    "\u2581nor": 1914,
    "\u2581Prime": 1915,
    "\u2581couple": 1916,
    "dha": 1917,
    "In": 1918,
    "\u2581tried": 1919,
    "\u2581comes": 1920,
    "\u2581ju": 1921,
    "\u2581Yet": 1922,
    "\u2581conditions": 1923,
    "\u2581Get": 1924,
    "\u2581cover": 1925,
    "\u2581basis": 1926,
    "\u2581Ab": 1927,
    "\u2581servants": 1928,
    "\u2581anyone": 1929,
    "\u2581kept": 1930,
    "\u2581violence": 1931,
    "\u2581game": 1932,
    "\u2581mosque": 1933,
    "\u2581Muhammad": 1934,
    "bor": 1935,
    "ren": 1936,
    "\u2581James": 1937,
    "\u2581price": 1938,
    "\u2581itself": 1939,
    "\u2581fe": 1940,
    "\u2581super": 1941,
    "\u2581thinking": 1942,
    "\u2581gold": 1943,
    "ug": 1944,
    "\u2581Under": 1945,
    "\u2581Women": 1946,
    "night": 1947,
    "\u2581ja": 1948,
    "\u2581space": 1949,
    "AR": 1950,
    "\u25813.": 1951,
    "40": 1952,
    "\u2581direct": 1953,
    "\u2581Abdul": 1954,
    "\u2581trial": 1955,
    "\u2581Bas": 1956,
    "\u2581leader": 1957,
    "\u2581slave": 1958,
    "\u2581famous": 1959,
    "He": 1960,
    "\u2581folder": 1961,
    "\u2581method": 1962,
    "\u2581window": 1963,
    "\u2581newspaper": 1964,
    "of": 1965,
    "\u2581Dis": 1966,
    "\u2581Cricket": 1967,
    "\u2581fair": 1968,
    "\u2581else": 1969,
    "\u2581THE": 1970,
    "\u2581secret": 1971,
    "\u25814:1": 1972,
    "ates": 1973,
    "\u2581prevent": 1974,
    "\u2581Internet": 1975,
    "\u2581Thus": 1976,
    "wan": 1977,
    "\u2581industry": 1978,
    "ium": 1979,
    "\u2581opened": 1980,
    "\u2581build": 1981,
    "\u2581chief": 1982,
    "gh": 1983,
    "\u2581Thank": 1984,
    "\u2581application": 1985,
    "\u2581prophet": 1986,
    "\u2581Art": 1987,
    "\u2581cut": 1988,
    "\u2581longer": 1989,
    "ded": 1990,
    "\u2581consist": 1991,
    "\u2581Raj": 1992,
    "\u2581wish": 1993,
    "\u2581Here": 1994,
    "\u2581Republic": 1995,
    "\u2581(2)": 1996,
    "\u2581Photo": 1997,
    "\u2581Today": 1998,
    "\u2581depend": 1999,
    "\u2581origin": 2000,
    "ier": 2001,
    "par": 2002,
    "\u2581west": 2003,
    "\u2581alone": 2004,
    "\u25811:1": 2005,
    "\u2581occasion": 2006,
    "\u2581produced": 2007,
    "\u2581center": 2008,
    "cep": 2009,
    "ley": 2010,
    "\u2581species": 2011,
    "\u2581Society": 2012,
    "\u2581looking": 2013,
    "\u2581award": 2014,
    "\u2581ruler": 2015,
    "\u2581financial": 2016,
    "\u2581likely": 2017,
    "af": 2018,
    "\u2581leading": 2019,
    "\u2581serving": 2020,
    "\u2581paper": 2021,
    "\u2581response": 2022,
    "\u2581version": 2023,
    "\u2581Will": 2024,
    "\u2581write": 2025,
    "\u2581v": 2026,
    "-20": 2027,
    "\u2581Science": 2028,
    "\u2581allowed": 2029,
    "\u2581described": 2030,
    "\u2581speech": 2031,
    "\u2581appeared": 2032,
    "\u2581families": 2033,
    "\u2581earlier": 2034,
    "\u2581direction": 2035,
    "\u2581check": 2036,
    "cy": 2037,
    "\u2581serious": 2038,
    "\u2581daily": 2039,
    "\u2581eat": 2040,
    "\u2581ill": 2041,
    "\u2581god": 2042,
    "\u2581fast": 2043,
    "\u2581doubt": 2044,
    "\u2581unit": 2045,
    "zz": 2046,
    "ita": 2047,
    "4,": 2048,
    "\u2581caused": 2049,
    "\u2581nations": 2050,
    "\u2581independent": 2051,
    "\u2581complete": 2052,
    "my": 2053,
    "ES": 2054,
    "0)": 2055,
    "\u2581Later": 2056,
    "des": 2057,
    "\u2581census": 2058,
    "\u2581Luke": 2059,
    "\u2581Wi": 2060,
    "\u2581primary": 2061,
    "\u2581ver": 2062,
    "\u2581discussion": 2063,
    "gue": 2064,
    "\u2581develop": 2065,
    "\u2581island": 2066,
    "\u2581em": 2067,
    "\u25814.": 2068,
    "\u2581Work": 2069,
    "\u2581Roman": 2070,
    "\u2581begin": 2071,
    "\u25811971": 2072,
    "\u2581i": 2073,
    "\u2581birth": 2074,
    "aries": 2075,
    "\u2581ban": 2076,
    "\u2581everyone": 2077,
    "\u2581judge": 2078,
    "\u2581j": 2079,
    "\u2581German": 2080,
    "\u2581lu": 2081,
    "\u2581medical": 2082,
    "\u2581comfort": 2083,
    "ify": 2084,
    "\u2581church": 2085,
    "\u2581announced": 2086,
    "mark": 2087,
    "\u2581opportunity": 2088,
    "nagar": 2089,
    "17": 2090,
    "\u2581Scriptures": 2091,
    "\u2581mankind": 2092,
    "\u2581border": 2093,
    "\u2581taught": 2094,
    "\u2581mid": 2095,
    "\u2581regular": 2096,
    "\u2581returned": 2097,
    "\u258132": 2098,
    "\u2581thank": 2099,
    "\u2581youth": 2100,
    "\u2581towards": 2101,
    "\u2581makes": 2102,
    "\u2581mass": 2103,
    "\u2581II": 2104,
    "16": 2105,
    "\u2581convention": 2106,
    "\u258133": 2107,
    "\u2581changes": 2108,
    "\u2581apply": 2109,
    "John": 2110,
    "\u2581step": 2111,
    "mate": 2112,
    "tric": 2113,
    "\u2581stone": 2114,
    "\u2581custom": 2115,
    "\u2581Hall": 2116,
    "\u2581pressure": 2117,
    "\u2581press": 2118,
    "\u2581nature": 2119,
    "\u2581Kha": 2120,
    "\u2581gift": 2121,
    "\u2581oil": 2122,
    "\u2581figure": 2123,
    "thi": 2124,
    "\u2581Human": 2125,
    "\u2581rep": 2126,
    "\u2581pass": 2127,
    "\u2581constitute": 2128,
    "\u2581actually": 2129,
    "\u2581organ": 2130,
    "\u2581cases": 2131,
    "\u2581win": 2132,
    "\u2581required": 2133,
    "\u2581cross": 2134,
    "len": 2135,
    "lish": 2136,
    "\u2581model": 2137,
    "\u2581sir": 2138,
    "\u2581Fe": 2139,
    "\u2581equal": 2140,
    "tur": 2141,
    "\u2581opposition": 2142,
    "\u2581Iran": 2143,
    "ese": 2144,
    "\u2581rules": 2145,
    "\u2581Global": 2146,
    "\u2581respond": 2147,
    "\u2581sometimes": 2148,
    "fl": 2149,
    "\u2581matters": 2150,
    "\u2581Another": 2151,
    "\u2581forest": 2152,
    "\u2581wicked": 2153,
    "\u2581song": 2154,
    "\u2581statement": 2155,
    "\u2581wide": 2156,
    "\u2581authorities": 2157,
    "\u2581structure": 2158,
    "ree": 2159,
    "\u2581studies": 2160,
    "\u2581Ram": 2161,
    "\u258160": 2162,
    "\u2581Central": 2163,
    "\u2581Look": 2164,
    "\u2581attitude": 2165,
    "\u2581Watchtower": 2166,
    "\u2581draw": 2167,
    "\u2581refer": 2168,
    "\u2581AD": 2169,
    "\u2581reports": 2170,
    "lia": 2171,
    "\u2581fund": 2172,
    "abad": 2173,
    "\u2581nearly": 2174,
    "lit": 2175,
    "\u2581Fi": 2176,
    "\u2581elders": 2177,
    "hood": 2178,
    "wo": 2179,
    "\u2581wise": 2180,
    "\u2581efforts": 2181,
    "\u2581save": 2182,
    "\u2581Saudi": 2183,
    "\u2581feet": 2184,
    "\u2581Isaiah": 2185,
    "\u2581murder": 2186,
    "\u2581province": 2187,
    "gen": 2188,
    "ign": 2189,
    "\u2581instead": 2190,
    "\u2581Char": 2191,
    "\u2581Army": 2192,
    "\u2581blogger": 2193,
    "\u2581raised": 2194,
    "\u2581artist": 2195,
    "60": 2196,
    "\u2581urban": 2197,
    "ye": 2198,
    "\u2581Mosque": 2199,
    "\u2581wonder": 2200,
    "kin": 2201,
    "ara": 2202,
    "\u2581Such": 2203,
    "\u2581ourselves": 2204,
    "\u2581communication": 2205,
    "uch": 2206,
    "\u2581Their": 2207,
    "\u2581issues": 2208,
    "22": 2209,
    "\u2581kingdom": 2210,
    "\u2581Two": 2211,
    "AN": 2212,
    "\u2581lived": 2213,
    "\u2581Muslims": 2214,
    "\u2581TV": 2215,
    "\u2581Bal": 2216,
    "\u2581added": 2217,
    "\u2581kid": 2218,
    "\u2581cor": 2219,
    "1)": 2220,
    "\u2581expression": 2221,
    "rd": 2222,
    "\u2581mi": 2223,
    "\u2581football": 2224,
    "\u2581rich": 2225,
    "\u2581division": 2226,
    "dia": 2227,
    "\u2581seems": 2228,
    "\u2581express": 2229,
    "\u2581sy": 2230,
    "26": 2231,
    "\u2581failed": 2232,
    "\u2581Afghanistan": 2233,
    "\u2581perform": 2234,
    "\u2581simply": 2235,
    "\u2581greater": 2236,
    "\u2581wisdom": 2237,
    "\u2581Association": 2238,
    "\u2581cultural": 2239,
    "14": 2240,
    "mu": 2241,
    "\u2581France": 2242,
    "\u2581effort": 2243,
    "\u2581significant": 2244,
    "\u2581although": 2245,
    "\u2581cap": 2246,
    "\u2581color": 2247,
    "\u2581crime": 2248,
    "vent": 2249,
    "ose": 2250,
    "\u2581discuss": 2251,
    "\u2581gain": 2252,
    "ches": 2253,
    "\u2581join": 2254,
    "tation": 2255,
    "\u2581si": 2256,
    "\u2581cell": 2257,
    "\u2581worth": 2258,
    "\u2581soul": 2259,
    "\u2581powerful": 2260,
    "27": 2261,
    "\u2581Ge": 2262,
    "\u2581constituency": 2263,
    "\u2581Proverbs": 2264,
    "\u2581club": 2265,
    "\u2581sector": 2266,
    "iz": 2267,
    "\u2581Population": 2268,
    "\u2581indicate": 2269,
    "uck": 2270,
    "\u2581false": 2271,
    "\u2581code": 2272,
    "ria": 2273,
    "\u2581count": 2274,
    "\u2581wait": 2275,
    "\u2581facilities": 2276,
    "teen": 2277,
    "\u2581Min": 2278,
    "pir": 2279,
    "\u258135": 2280,
    "\u2581ready": 2281,
    "vid": 2282,
    "\u2581commercial": 2283,
    "log": 2284,
    "aj": 2285,
    "\u2581release": 2286,
    "\u2581Delhi": 2287,
    "fo": 2288,
    "\u2581poet": 2289,
    "\u2581box": 2290,
    "\u2581Show": 2291,
    "\u2581symbol": 2292,
    "dom": 2293,
    "\u2581regarding": 2294,
    "\u2581Have": 2295,
    "\u2581Asian": 2296,
    "\u2581songs": 2297,
    "\u2581declared": 2298,
    "\u2581laws": 2299,
    "so": 2300,
    "illa": 2301,
    "\u2581commission": 2302,
    "kha": 2303,
    "\u2581Life": 2304,
    "\u2581Assembly": 2305,
    "\u2581doctor": 2306,
    "atory": 2307,
    "\u2581politician": 2308,
    "point": 2309,
    "ua": 2310,
    "\u2581arrested": 2311,
    "\u2581para": 2312,
    "\u2581Far": 2313,
    "\u2581tradition": 2314,
    "\u2581grow": 2315,
    "\u2581effective": 2316,
    "\u2581correct": 2317,
    "\u2581card": 2318,
    "\u2581Sc": 2319,
    "\u2581player": 2320,
    "\u2581white": 2321,
    "\u2581location": 2322,
    "\u2581responsibility": 2323,
    "\u2581foot": 2324,
    "\u2581cities": 2325,
    "ov": 2326,
    "\u2581individuals": 2327,
    "\u2581guard": 2328,
    "33": 2329,
    "\u2581regard": 2330,
    "\u2581places": 2331,
    "\u2581educational": 2332,
    "\u2581battle": 2333,
    "\u2581soil": 2334,
    "\u2581annual": 2335,
    "\u2581red": 2336,
    "\u25812005": 2337,
    "\u2581ne": 2338,
    "\u25812000": 2339,
    "\u2581professional": 2340,
    "\u2581Tri": 2341,
    "\u2581sex": 2342,
    "\u2581Adam": 2343,
    "cr": 2344,
    "\u2581Bra": 2345,
    "\u2581terms": 2346,
    "\u2581quite": 2347,
    "\u2581opinion": 2348,
    "ants": 2349,
    "\u2581mountain": 2350,
    "\u2581stories": 2351,
    "\u2581privilege": 2352,
    "\u2581task": 2353,
    "ney": 2354,
    "\u2581guy": 2355,
    "\u2581gives": 2356,
    "\u2581perhaps": 2357,
    "\u25816:1": 2358,
    "\u2581moral": 2359,
    "\u2581adult": 2360,
    "\u2581Ke": 2361,
    "\u25812,": 2362,
    "\u2581ve": 2363,
    "\u2581flood": 2364,
    "like": 2365,
    "\u2581Ser": 2366,
    "ute": 2367,
    "\u2581round": 2368,
    "\u2581Olympic": 2369,
    "room": 2370,
    "\u2581transport": 2371,
    "\u2581reached": 2372,
    "\u2581lower": 2373,
    "\u2581preach": 2374,
    "\u2581quality": 2375,
    "\u2581cre": 2376,
    "\u2581Open": 2377,
    "\u2581introduced": 2378,
    "\u2581conflict": 2379,
    "\u2581Acts": 2380,
    "tern": 2381,
    "\u2581Moses": 2382,
    "\u2581growth": 2383,
    "\u2581sq": 2384,
    "\u2581completed": 2385,
    "\u2581goal": 2386,
    "\u2581Tom": 2387,
    "\u2581occur": 2388,
    "\u2581beautiful": 2389,
    "\u2581principles": 2390,
    "tract": 2391,
    "\u2581produce": 2392,
    "bra": 2393,
    "\u2581Hat": 2394,
    "ook": 2395,
    "ological": 2396,
    "\u2581attend": 2397,
    "\u2581Pe": 2398,
    "\u2581condition": 2399,
    "\u2581style": 2400,
    "70": 2401,
    "\u2581hit": 2402,
    "\u2581Russia": 2403,
    "cor": 2404,
    "vol": 2405,
    "\u2581Public": 2406,
    "\u2581Sur": 2407,
    "ER": 2408,
    "\u2581Sub": 2409,
    "\u2581firm": 2410,
    "put": 2411,
    "-18": 2412,
    "\u2581strength": 2413,
    "uc": 2414,
    "\u2581management": 2415,
    "\u2581belong": 2416,
    "\u2581relations": 2417,
    "\u2581belief": 2418,
    "\u2581priest": 2419,
    "\u2581rain": 2420,
    "\u2581simple": 2421,
    "bha": 2422,
    "\u2581status": 2423,
    "\u2581pu": 2424,
    "\u2581Chief": 2425,
    "\u2581Hey": 2426,
    "\u2581camp": 2427,
    "\u2581crowd": 2428,
    "80": 2429,
    "\u2581table": 2430,
    "uri": 2431,
    "\u2581remained": 2432,
    "It": 2433,
    "\u2581Voices": 2434,
    "\u2581minutes": 2435,
    "\u2581Use": 2436,
    "\u2581particular": 2437,
    "59": 2438,
    "\u2581basic": 2439,
    "\u2581showed": 2440,
    "\u2581programme": 2441,
    "lor": 2442,
    "\u2581buy": 2443,
    "\u2581Egyptian": 2444,
    "\u2581import": 2445,
    "vin": 2446,
    "\u2581ob": 2447,
    "\u2581therefore": 2448,
    "gal": 2449,
    "yo": 2450,
    "Do": 2451,
    "\u2581exp": 2452,
    "\u2581Pakistani": 2453,
    "\u2581writes": 2454,
    "\u2581railway": 2455,
    "\u2581rank": 2456,
    "\u2581Jews": 2457,
    "AT": 2458,
    "ullah": 2459,
    "\u2581increased": 2460,
    "\u2581Kan": 2461,
    "\u2581Mah": 2462,
    "86": 2463,
    "19": 2464,
    "\u2581Fo": 2465,
    "\u2581manner": 2466,
    "var": 2467,
    "\u2581den": 2468,
    "\u2581performance": 2469,
    "\u2581focus": 2470,
    "\u2581energy": 2471,
    "\u2581fla": 2472,
    "3)": 2473,
    "bul": 2474,
    "\u2581inform": 2475,
    "\u2581Mas": 2476,
    "cho": 2477,
    "\u2581Gi": 2478,
    "\u2581fully": 2479,
    "\u2581App": 2480,
    "85": 2481,
    "\u2581piece": 2482,
    "\u2581Revelation": 2483,
    "\u2581mark": 2484,
    "\u2581Parliament": 2485,
    "\u2581strengthen": 2486,
    "\u2581Inter": 2487,
    "\u2581branch": 2488,
    "based": 2489,
    "\u2581Mary": 2490,
    "\u2581recorded": 2491,
    "\u2581carry": 2492,
    "\u2581loss": 2493,
    "\u2581forward": 2494,
    "hold": 2495,
    "99": 2496,
    "\u2581justice": 2497,
    "\u2581Dar": 2498,
    "lf": 2499,
    "73": 2500,
    "\u2581stated": 2501,
    "\u2581seem": 2502,
    "\u2581gas": 2503,
    "\u2581activity": 2504,
    "\u2581safe": 2505,
    "\u2581thousands": 2506,
    "\u2581Mor": 2507,
    "\u2581chapter": 2508,
    "lect": 2509,
    "\u2581elections": 2510,
    "\u2581tri": 2511,
    "\u2581agricultural": 2512,
    "rist": 2513,
    "\u2581praise": 2514,
    "ome": 2515,
    "rr": 2516,
    "\u2581export": 2517,
    "ila": 2518,
    "\u2581responsible": 2519,
    "\u2581thousand": 2520,
    "\u2581below": 2521,
    "\u2581Tra": 2522,
    "\u2581dance": 2523,
    "\u2581spoke": 2524,
    "\u2581territory": 2525,
    "\u2581size": 2526,
    "\u2581global": 2527,
    "\u2581results": 2528,
    "gon": 2529,
    "\u2581administration": 2530,
    "ties": 2531,
    "\u2581novel": 2532,
    "rk": 2533,
    "\u2581believed": 2534,
    "\u2581independence": 2535,
    "\u2581Over": 2536,
    "\u2581Would": 2537,
    "now": 2538,
    "\u2581damage": 2539,
    "\u2581note": 2540,
    "\u2581sat": 2541,
    "\u2581mar": 2542,
    "\u2581risk": 2543,
    "\u2581rise": 2544,
    "\u2581directed": 2545,
    "\u2581Sun": 2546,
    "wn": 2547,
    "\u2581particularly": 2548,
    "\u2581dream": 2549,
    "\u2581spent": 2550,
    "\u2581sleep": 2551,
    "bal": 2552,
    "\u2581establish": 2553,
    "Psalm": 2554,
    "wal": 2555,
    "89": 2556,
    "\u2581appear": 2557,
    "\u2581highest": 2558,
    "\u2581master": 2559,
    "\u2581suggest": 2560,
    "\u2581complex": 2561,
    "\u2581committee": 2562,
    "\u2581Okay": 2563,
    "\u2581Does": 2564,
    "\u2581Pri": 2565,
    "76": 2566,
    "\u2581Sultan": 2567,
    "\u2581easy": 2568,
    "ray": 2569,
    "\u2581base": 2570,
    "\u2581suffering": 2571,
    "\u2581Name": 2572,
    "\u2581tree": 2573,
    "\u25812004": 2574,
    "\u2581teacher": 2575,
    "ency": 2576,
    "\u2581store": 2577,
    "8.": 2578,
    "\u2581expect": 2579,
    "\u2581politics": 2580,
    "\u2581centuries": 2581,
    "ising": 2582,
    "char": 2583,
    "93": 2584,
    "\u2581followers": 2585,
    "\u2581bound": 2586,
    "pet": 2587,
    "section": 2588,
    "\u2581environment": 2589,
    "\u2581carried": 2590,
    "\u2581progress": 2591,
    "\u2581touch": 2592,
    "\u2581animals": 2593,
    "og": 2594,
    "\u2581channel": 2595,
    "bit": 2596,
    "\u2581flow": 2597,
    "\u2581finally": 2598,
    "\u2581trouble": 2599,
    "\u2581supply": 2600,
    "\u2581middle": 2601,
    "\u2581wood": 2602,
    "\u2581leg": 2603,
    "\u2581users": 2604,
    "\u2581doesn": 2605,
    "shed": 2606,
    "\u2581heavenly": 2607,
    "92": 2608,
    "ement": 2609,
    "\u2581Job": 2610,
    "can": 2611,
    "over": 2612,
    "\u2581rock": 2613,
    "ugh": 2614,
    "\u2581editor": 2615,
    "\u2581limited": 2616,
    "ators": 2617,
    "\u2581radio": 2618,
    "fr": 2619,
    "\u2581Che": 2620,
    "\u2581offered": 2621,
    "34": 2622,
    "\u2581Nepal": 2623,
    "\u2581prove": 2624,
    "\u2581feelings": 2625,
    "\u2581difference": 2626,
    "\u2581Air": 2627,
    "05": 2628,
    "uring": 2629,
    "\u2581circumstances": 2630,
    "\u2581Though": 2631,
    "\u2581path": 2632,
    "\u2581fo": 2633,
    "\u2581choice": 2634,
    "\u2581favor": 2635,
    "\u2581inspired": 2636,
    "\u2581Development": 2637,
    "\u258137": 2638,
    "pre": 2639,
    "84": 2640,
    "01": 2641,
    "06": 2642,
    "\u2581Buddhist": 2643,
    "\u2581More": 2644,
    "\u2581normal": 2645,
    "18": 2646,
    "\u2581reasons": 2647,
    "fect": 2648,
    "\u2581patient": 2649,
    "hra": 2650,
    "\u2581Up": 2651,
    "\u2581showing": 2652,
    "\u2581ball": 2653,
    "71": 2654,
    "\u2581Em": 2655,
    "\u2581eye": 2656,
    "ade": 2657,
    "\u2581includes": 2658,
    "\u2581House": 2659,
    "\u25812019": 2660,
    "\u2581Professor": 2661,
    "tical": 2662,
    "\u2581increasing": 2663,
    "94": 2664,
    "\u2581positive": 2665,
    "\u2581citizens": 2666,
    "long": 2667,
    "\u2581concerned": 2668,
    "\u2581Israelites": 2669,
    "\u258134": 2670,
    "\u2581beyond": 2671,
    "\u2581refuge": 2672,
    "\u2581Germany": 2673,
    "hen": 2674,
    "\u2581property": 2675,
    "\u2581angel": 2676,
    "\u2581movie": 2677,
    "\u2581Sea": 2678,
    "ix": 2679,
    "\u2581households": 2680,
    "\u2581shown": 2681,
    "\u2581comments": 2682,
    "\u2581arrangement": 2683,
    "74": 2684,
    "\u2581ru": 2685,
    "Acts": 2686,
    "83": 2687,
    "\u258170": 2688,
    "\u2581happiness": 2689,
    "\u2581probably": 2690,
    "\u2581improve": 2691,
    "98": 2692,
    "\u2581looked": 2693,
    "\u2581anointed": 2694,
    "rap": 2695,
    "08": 2696,
    "91": 2697,
    "cid": 2698,
    "\u2581board": 2699,
    "\u2581tournament": 2700,
    "\u2581Va": 2701,
    "lock": 2702,
    "Q": 2703,
    "bil": 2704,
    "\u2581gone": 2705,
    "\u2581spend": 2706,
    "What": 2707,
    "\u2581Gha": 2708,
    "\u25811990": 2709,
    "\u2581proper": 2710,
    "58": 2711,
    "\u2581Early": 2712,
    "\u2581association": 2713,
    "\u2581deliver": 2714,
    "\u2581bit": 2715,
    "\u2581founded": 2716,
    "-17": 2717,
    "\u2581playing": 2718,
    "\u2581Pur": 2719,
    "\u2581generation": 2720,
    "anda": 2721,
    "Z": 2722,
    "\u2581server": 2723,
    "\u2581immediately": 2724,
    "\u2581Sheikh": 2725,
    "\u2581importance": 2726,
    "\u2581ran": 2727,
    "\u2581African": 2728,
    "5,": 2729,
    "\u2581Jewish": 2730,
    "\u2581Ban": 2731,
    "\u2581creation": 2732,
    "\u2581provides": 2733,
    "90": 2734,
    "cal": 2735,
    "28": 2736,
    "\u2581bloggers": 2737,
    "\u2581Solomon": 2738,
    "\u2581choose": 2739,
    "69": 2740,
    "\u2581constitution": 2741,
    "\u2581quickly": 2742,
    "\u2581range": 2743,
    "well": 2744,
    "cate": 2745,
    "\u2581successful": 2746,
    "\u2581collection": 2747,
    "\u2581session": 2748,
    "\u2581exercise": 2749,
    "\u2581department": 2750,
    "dal": 2751,
    "para": 2752,
    "she": 2753,
    "\u2581Park": 2754,
    "\u2581skill": 2755,
    "\u2581pan": 2756,
    "\u2581northern": 2757,
    "\u2581accepted": 2758,
    "\u2581explain": 2759,
    "some": 2760,
    "\u2581sell": 2761,
    "\u2581myself": 2762,
    "\u2581Church": 2763,
    "\u2581mainly": 2764,
    "acy": 2765,
    "mun": 2766,
    "\u2581teachers": 2767,
    "\u2581majority": 2768,
    "\u2581parties": 2769,
    "\u2581specific": 2770,
    "\u2581Before": 2771,
    "07": 2772,
    "ING": 2773,
    "\u2581credit": 2774,
    "\u2581band": 2775,
    "\u2581wa": 2776,
    "anga": 2777,
    "\u2581shared": 2778,
    "ulation": 2779,
    "\u2581error": 2780,
    "\u2581seek": 2781,
    "\u2581western": 2782,
    "\u2581officers": 2783,
    "\u2581reform": 2784,
    "mber": 2785,
    "je": 2786,
    "88": 2787,
    "\u2581talking": 2788,
    "\u2581era": 2789,
    "77": 2790,
    "\u2581technology": 2791,
    "67": 2792,
    "\u2581col": 2793,
    "\u2581Any": 2794,
    "\u2581tu": 2795,
    "\u2581Tim": 2796,
    "\u2581schools": 2797,
    "\u2581Iranian": 2798,
    "\u2581Mughal": 2799,
    "\u2581Club": 2800,
    "\u2581strike": 2801,
    "\u2581understanding": 2802,
    "eous": 2803,
    "\u2581females": 2804,
    "\u2581recently": 2805,
    "\u2581sur": 2806,
    "\u2581Every": 2807,
    "\u2581billion": 2808,
    "8,": 2809,
    "\u2581mail": 2810,
    "hin": 2811,
    "\u2581instance": 2812,
    "\u2581function": 2813,
    "87": 2814,
    "ngle": 2815,
    "hor": 2816,
    "ON": 2817,
    "hand": 2818,
    "app": 2819,
    "\u2581determined": 2820,
    "\u2581Par": 2821,
    "\u2581older": 2822,
    "\u2581bus": 2823,
    "\u2581Literacy": 2824,
    "2.": 2825,
    "\u2581points": 2826,
    "\u2581%": 2827,
    "off": 2828,
    "\u2581multi": 2829,
    "\u2581currently": 2830,
    "\u25812001": 2831,
    "\u2581burn": 2832,
    "\u2581screen": 2833,
    "\u2581Image": 2834,
    "09": 2835,
    "\u2581establishment": 2836,
    "\u2581bin": 2837,
    "\u2581connection": 2838,
    "nic": 2839,
    "\u2581Chi": 2840,
    "\u2581sum": 2841,
    "body": 2842,
    "\u2581permission": 2843,
    "all": 2844,
    "hir": 2845,
    "ock": 2846,
    "78": 2847,
    "\u2581Pu": 2848,
    "\u2581Cho": 2849,
    "dis": 2850,
    "\u2581wind": 2851,
    "\u2581ability": 2852,
    "\u2581photograph": 2853,
    "ping": 2854,
    "fer": 2855,
    "ire": 2856,
    "\u2581Empire": 2857,
    "\u2581setting": 2858,
    "jan": 2859,
    "hel": 2860,
    "lum": 2861,
    "not": 2862,
    "\u2581Nations": 2863,
    "\u2581Khal": 2864,
    "\u2581Japanese": 2865,
    "\u2581messages": 2866,
    "lip": 2867,
    "\u2581miles": 2868,
    "\u2581treatment": 2869,
    "\u2581becoming": 2870,
    "hil": 2871,
    "\u2581supported": 2872,
    "\u2581killing": 2873,
    "\u2581lesson": 2874,
    "\u2581Road": 2875,
    "\u2581presence": 2876,
    "akh": 2877,
    "\u2581soldiers": 2878,
    "\u2581demonstrate": 2879,
    "\u2581worldwide": 2880,
    "\u2581nine": 2881,
    "\u2581Company": 2882,
    "\u2581appeal": 2883,
    "fully": 2884,
    "\u2581Consider": 2885,
    "\u2581promise": 2886,
    "ically": 2887,
    "82": 2888,
    "cc": 2889,
    "ress": 2890,
    "CC": 2891,
    "dri": 2892,
    "\u2581institution": 2893,
    "2,": 2894,
    "31": 2895,
    "\u2581opening": 2896,
    "\u2581Tu": 2897,
    "\u2581provisions": 2898,
    "gro": 2899,
    "\u2581running": 2900,
    "\u2581appropriate": 2901,
    "ox": 2902,
    "\u2581sources": 2903,
    "\u2581review": 2904,
    "\u2581drug": 2905,
    "\u2581goes": 2906,
    "\u2581Abraham": 2907,
    "\u2581divided": 2908,
    "\u2581income": 2909,
    "\u2581actor": 2910,
    "\u2581Syria": 2911,
    "\u2581affect": 2912,
    "\u2581log": 2913,
    "lie": 2914,
    "\u2581Brother": 2915,
    "\"?": 2916,
    "21": 2917,
    "\u2581Western": 2918,
    "\u2581referred": 2919,
    "\u2581companies": 2920,
    "\u2581hill": 2921,
    "\u2581Water": 2922,
    "Luke": 2923,
    "04": 2924,
    "\u2581agreement": 2925,
    "\u2581associated": 2926,
    "pon": 2927,
    "\u2581appreciate": 2928,
    "\u2581About": 2929,
    "\u2581incident": 2930,
    "\u2581Earth": 2931,
    "\u2581accounts": 2932,
    "\u2581Among": 2933,
    "\u2581Joseph": 2934,
    "\u2581candidate": 2935,
    "\u2581limit": 2936,
    "\u2581sort": 2937,
    "\u2581eventually": 2938,
    "scription": 2939,
    "\u2581learning": 2940,
    "cious": 2941,
    "\u25811996": 2942,
    "\u2581generally": 2943,
    "\u2581matches": 2944,
    "ular": 2945,
    "ography": 2946,
    "68": 2947,
    "\u2581festival": 2948,
    "\u2581bodies": 2949,
    "\u2581UN": 2950,
    "\u2581Lanka": 2951,
    "head": 2952,
    "\u2581Ve": 2953,
    "\u2581machine": 2954,
    "\u2581Health": 2955,
    "\u2581bomb": 2956,
    "\u2581heavy": 2957,
    "\u2581standard": 2958,
    "rn": 2959,
    "\")": 2960,
    "\u2581measure": 2961,
    "\u2581Romans": 2962,
    "\u2581launched": 2963,
    "\u2581Mohammad": 2964,
    "\u2581girls": 2965,
    "\u2581hour": 2966,
    "\u2581gun": 2967,
    "\u2581struggle": 2968,
    "\u25815.": 2969,
    "\u2581sal": 2970,
    "\u2581Only": 2971,
    "97": 2972,
    "aging": 2973,
    "\u258190": 2974,
    "\u2581sons": 2975,
    "\u2581placed": 2976,
    "\u2581Chandra": 2977,
    "Ha": 2978,
    "\u2581Daniel": 2979,
    "\u2581treat": 2980,
    "5%": 2981,
    "\u2581paid": 2982,
    "\u2581Book": 2983,
    "45": 2984,
    "Ba": 2985,
    "uff": 2986,
    "esh": 2987,
    "\u2581char": 2988,
    "AL": 2989,
    "\u2581Soviet": 2990,
    "\u2581Out": 2991,
    "\u258136": 2992,
    "\u258145": 2993,
    "\u2581Com": 2994,
    "ew": 2995,
    "\u2581habit": 2996,
    "cri": 2997,
    "\u2581runs": 2998,
    "\u2581conversation": 2999,
    "\u2581Force": 3000,
    "81": 3001,
    "\u2581sorry": 3002,
    "\u2581feeling": 3003,
    "ites": 3004,
    "\u2581historical": 3005,
    "\u2581protection": 3006,
    "\u2581Awards": 3007,
    "IS": 3008,
    "pha": 3009,
    "poli": 3010,
    "pl": 3011,
    "eh": 3012,
    "\u2581Select": 3013,
    "\u2581track": 3014,
    "ole": 3015,
    "pic": 3016,
    "ient": 3017,
    "air": 3018,
    "\u2581Source": 3019,
    "\u2581alive": 3020,
    "oo": 3021,
    "\u2581accomplish": 3022,
    "\u2581sit": 3023,
    "law": 3024,
    "\u2581lay": 3025,
    "pec": 3026,
    "\u2581resources": 3027,
    "\u2581hall": 3028,
    "class": 3029,
    "\u2581contain": 3030,
    "\u2581encourage": 3031,
    "\u2581Ben": 3032,
    "\u2581Samuel": 3033,
    "\u2581grand": 3034,
    "\u2581Bur": 3035,
    "press": 3036,
    "\u2581directly": 3037,
    "\u25812003": 3038,
    "\u25811991": 3039,
    "\u258148": 3040,
    "\u2581previous": 3041,
    "\u2581Persian": 3042,
    "matic": 3043,
    "\u2581till": 3044,
    "\u2581race": 3045,
    "qua": 3046,
    "\u2581Take": 3047,
    "\u2581eastern": 3048,
    "nar": 3049,
    "\u2581certainly": 3050,
    "nal": 3051,
    "29": 3052,
    "\u2581officials": 3053,
    "\u2581weeks": 3054,
    "\u2581drama": 3055,
    "\u2581Bazar": 3056,
    "\u2581mention": 3057,
    "\u2581factor": 3058,
    "pan": 3059,
    "kan": 3060,
    "\u2581Research": 3061,
    "\u2581mill": 3062,
    "\u2581completely": 3063,
    "sco": 3064,
    "\u2581interested": 3065,
    "\u2581baptized": 3066,
    "\u2581divine": 3067,
    "\u2581surface": 3068,
    "\u2581reaction": 3069,
    "\u2581enable": 3070,
    "ez": 3071,
    "95": 3072,
    "ked": 3073,
    "\u2581initiative": 3074,
    "lon": 3075,
    "\u2581survey": 3076,
    "bari": 3077,
    "\u2581contract": 3078,
    "\u2581cast": 3079,
    "\u2581citizen": 3080,
    "bel": 3081,
    "\u2581representative": 3082,
    "\u2581critic": 3083,
    "\u2581ni": 3084,
    "don": 3085,
    "\u2581practical": 3086,
    "\u2581interview": 3087,
    "gr": 3088,
    "\u2581Sabha": 3089,
    "\u2581proceed": 3090,
    "\u2581Robert": 3091,
    "\u2581Singh": 3092,
    "\u2581target": 3093,
    "rian": 3094,
    "\u2581Dan": 3095,
    "\u2581cat": 3096,
    "\u258138": 3097,
    "avi": 3098,
    "book": 3099,
    "\u2581Chowdhury": 3100,
    "\u2581acc": 3101,
    "\u2581copy": 3102,
    "\u2581neighbor": 3103,
    "\u2581speaking": 3104,
    "\u2581awarded": 3105,
    "\u2581cu": 3106,
    "\u2581shot": 3107,
    "most": 3108,
    "tail": 3109,
    "\u2581sisters": 3110,
    "\u2581economy": 3111,
    "\u2581notice": 3112,
    "\u2581Arabia": 3113,
    "\u2581sheep": 3114,
    "35": 3115,
    "\u2581comm": 3116,
    "\u2581dwelling": 3117,
    "\u2581regime": 3118,
    "\u2581domestic": 3119,
    "\u2581weak": 3120,
    "xi": 3121,
    "\u2581appearance": 3122,
    "\u2581assembly": 3123,
    "\u2581takes": 3124,
    "pping": 3125,
    "\u2581persons": 3126,
    "\u2581fail": 3127,
    "\u25812002": 3128,
    "ession": 3129,
    "back": 3130,
    "lay": 3131,
    "\u2581length": 3132,
    "cial": 3133,
    "\u2581sad": 3134,
    "\u2581clearly": 3135,
    "\u2581forced": 3136,
    "\u2581qua": 3137,
    "\u2581despite": 3138,
    "\u2581assignment": 3139,
    "IT": 3140,
    "\u2581fit": 3141,
    "win": 3142,
    "\u2581attended": 3143,
    "-4": 3144,
    "\u2581root": 3145,
    "pla": 3146,
    "\u2581Pak": 3147,
    "chan": 3148,
    "\u2581wants": 3149,
    "\u2581actress": 3150,
    "79": 3151,
    "ened": 3152,
    "\u2581aim": 3153,
    "\u2581drive": 3154,
    "\u2581warm": 3155,
    "\u2581translation": 3156,
    "ndi": 3157,
    "\u2581Maha": 3158,
    "\u2581Say": 3159,
    "\u2581evening": 3160,
    "\u2581remains": 3161,
    "ini": 3162,
    "\u2581Memorial": 3163,
    "\u2581southern": 3164,
    "\u2581interests": 3165,
    "tribute": 3166,
    "\u2581Despite": 3167,
    "\u2581truly": 3168,
    "\u2581overseer": 3169,
    "\u2581arrived": 3170,
    "\u2581contribution": 3171,
    "\u25811980": 3172,
    "\u2581prepared": 3173,
    "\u2581map": 3174,
    "\u2581wealth": 3175,
    "03": 3176,
    "\u2581expressed": 3177,
    "\u2581Games": 3178,
    "\u2581collect": 3179,
    "\u25811970": 3180,
    "\u2581chance": 3181,
    "\u2581plays": 3182,
    "\u2581evil": 3183,
    "\u2581products": 3184,
    "\u2581issued": 3185,
    "\u2581George": 3186,
    "\u2581airport": 3187,
    "\u2581ka": 3188,
    "\u2581studied": 3189,
    "\u2581weapon": 3190,
    "\u2581Love": 3191,
    "\u2581route": 3192,
    "\u2581guide": 3193,
    "\u2581abuse": 3194,
    "\u2581forms": 3195,
    "\u2581electricity": 3196,
    "\u2581exchange": 3197,
    "\u2581farm": 3198,
    "\u2581arrest": 3199,
    "ica": 3200,
    "\u2581bird": 3201,
    "\u2581reveal": 3202,
    "\u2581tea": 3203,
    "\u2581lose": 3204,
    "OR": 3205,
    "zo": 3206,
    "rest": 3207,
    "\u2581standing": 3208,
    "\u2581rid": 3209,
    "\u2581Mir": 3210,
    "\u2581discovered": 3211,
    "\u2581Ber": 3212,
    "\u2581affected": 3213,
    "\u2581instruction": 3214,
    "\u2581fr": 3215,
    "aka": 3216,
    "\u2581traffic": 3217,
    "\u2581actions": 3218,
    "graph": 3219,
    "\u2581pages": 3220,
    "\u2581entered": 3221,
    "\u2581via": 3222,
    "ught": 3223,
    "44": 3224,
    "ulate": 3225,
    "\u2581existence": 3226,
    "\u2581cricketer": 3227,
    "\u2581Spanish": 3228,
    "96": 3229,
    "\u2581wonderful": 3230,
    "din": 3231,
    "\u2581Catholic": 3232,
    "\u2581street": 3233,
    "house": 3234,
    "\u2581gu": 3235,
    "\u2581loved": 3236,
    "\u2581Kumar": 3237,
    "\u2581scene": 3238,
    "\u2581explains": 3239,
    "gin": 3240,
    "\u2581types": 3241,
    "ika": 3242,
    "\u2581destroyed": 3243,
    "\u2581floor": 3244,
    "\u2581audience": 3245,
    "\u2581rice": 3246,
    "\u2581dark": 3247,
    "\u2581pick": 3248,
    "\u2581features": 3249,
    "board": 3250,
    "32": 3251,
    "\u2581except": 3252,
    "\u2581labor": 3253,
    "\u2581harm": 3254,
    "\u2581crops": 3255,
    "lp": 3256,
    "\u2581square": 3257,
    "-12": 3258,
    "\u2581visited": 3259,
    "\u2581Play": 3260,
    "\u2581ahead": 3261,
    "bla": 3262,
    "\u2581Watch": 3263,
    "\u2581horse": 3264,
    "\u2581contains": 3265,
    "\u2581Es": 3266,
    "had": 3267,
    "\u2581criminal": 3268,
    "\u2581Plan": 3269,
    "66": 3270,
    "isation": 3271,
    "\u2581calendar": 3272,
    "til": 3273,
    "\u2581Middle": 3274,
    "Be": 3275,
    "\u2581promote": 3276,
    "-16": 3277,
    "\u2581Demographics": 3278,
    "\u2581bat": 3279,
    "Sa": 3280,
    "\u25811999": 3281,
    "\u2581permanent": 3282,
    "raj": 3283,
    "\u2581Ran": 3284,
    "-11": 3285,
    "\u2581mistake": 3286,
    "\u2581arch": 3287,
    "\u2581administrative": 3288,
    "\u2581growing": 3289,
    "ivity": 3290,
    "\u2581Ter": 3291,
    "02": 3292,
    "\u2581flu": 3293,
    "een": 3294,
    "\u2581(3)": 3295,
    "\u2581William": 3296,
    "\u2581advance": 3297,
    "\u2581wicket": 3298,
    "\u2581agree": 3299,
    "\u2581signed": 3300,
    "\u2581throw": 3301,
    "meter": 3302,
    "\u2581rent": 3303,
    "\u2581vital": 3304,
    "\u2581Sar": 3305,
    "\u2581Group": 3306,
    "\u2581photo": 3307,
    "\u2581Gar": 3308,
    "\u2581emb": 3309,
    "\u2581disaster": 3310,
    "\u2581mental": 3311,
    "\u2581Iraq": 3312,
    "\u2581Red": 3313,
    "\u2581qualities": 3314,
    "\u2581option": 3315,
    "\u2581repeat": 3316,
    "\u2581mostly": 3317,
    "\u2581survive": 3318,
    "\u2581huge": 3319,
    "\u2581Police": 3320,
    "\u2581images": 3321,
    "cer": 3322,
    "ken": 3323,
    "\u2581observe": 3324,
    "\u2581BC": 3325,
    "\u258180": 3326,
    "\u2581forever": 3327,
    "\u2581districts": 3328,
    "gene": 3329,
    "\u2581Mad": 3330,
    "\u2581Island": 3331,
    "75": 3332,
    "place": 3333,
    "\u2581designed": 3334,
    "\u2581flag": 3335,
    "\u2581leaving": 3336,
    "\u2581regularly": 3337,
    "ada": 3338,
    "\u2581semi": 3339,
    "pen": 3340,
    "\u2581Comp": 3341,
    "\u2581experienced": 3342,
    "\u2581Cannot": 3343,
    "\u2581composed": 3344,
    "\u2581boat": 3345,
    "ood": 3346,
    "\u2581performed": 3347,
    "\u2581industrial": 3348,
    "\u2581defeated": 3349,
    "\u25811947": 3350,
    "If": 3351,
    "\u2581cry": 3352,
    "\u2581proved": 3353,
    "\u2581explained": 3354,
    "\u258112:1": 3355,
    "\u2581Shu": 3356,
    "\u2581Fu": 3357,
    "\u2581hurt": 3358,
    "\u2581Prince": 3359,
    "\u2581Abu": 3360,
    "\u2581greatest": 3361,
    "\u2581Abd": 3362,
    "-15": 3363,
    "\u2581Sil": 3364,
    "aya": 3365,
    "\u2581organisation": 3366,
    "get": 3367,
    "\u2581competition": 3368,
    "\u25811998": 3369,
    "\u2581u": 3370,
    "mul": 3371,
    "down": 3372,
    "\u2581park": 3373,
    "\u2581minor": 3374,
    "duction": 3375,
    "\u2581severe": 3376,
    "Matt": 3377,
    "endra": 3378,
    "\u2581threat": 3379,
    "\u2581standards": 3380,
    "\u2581ga": 3381,
    "\u2581concept": 3382,
    "\u2581Hebrews": 3383,
    "\u2581Bir": 3384,
    "\u2581reward": 3385,
    "Ja": 3386,
    "\u2581aid": 3387,
    "tory": 3388,
    "\u2581Jan": 3389,
    "\u2581flo": 3390,
    "\u2581righteous": 3391,
    "gaon": 3392,
    "\u2581examination": 3393,
    "\u2581Eastern": 3394,
    "\u2581forget": 3395,
    "\u2581theory": 3396,
    "-14": 3397,
    "\u2581Second": 3398,
    "37": 3399,
    "stand": 3400,
    "\u2581defend": 3401,
    "\u2581brief": 3402,
    "\u2581dress": 3403,
    "ax": 3404,
    "\u2581lands": 3405,
    "pher": 3406,
    "\u2581Creator": 3407,
    "\u2581install": 3408,
    "\u2581Hebrew": 3409,
    "\u25811972": 3410,
    "Mo": 3411,
    "US": 3412,
    "\u2581holding": 3413,
    "\u2581animal": 3414,
    "\u2581Hill": 3415,
    "\u2581Genesis": 3416,
    "\u2581load": 3417,
    "\u2581flesh": 3418,
    "\u2581connect": 3419,
    "\u2581reference": 3420,
    "\u2581Awami": 3421,
    "\u2581Corporation": 3422,
    "\u2581protests": 3423,
    "\u2581communities": 3424,
    "\u2581Punjab": 3425,
    "rous": 3426,
    "\u2581Korea": 3427,
    "\u2581scar": 3428,
    "\u2581fu": 3429,
    "\u2581loyal": 3430,
    "zar": 3431,
    "mic": 3432,
    "\u25811:2": 3433,
    "\u2581involve": 3434,
    "43": 3435,
    "\u258142": 3436,
    "bin": 3437,
    "ech": 3438,
    "\u2581Secretary": 3439,
    "\u2581bill": 3440,
    "\u2581Give": 3441,
    "ava": 3442,
    "\u2581Railway": 3443,
    "\u2581device": 3444,
    "\u2581publication": 3445,
    "\u2581chi": 3446,
    "\u25815:2": 3447,
    "ED": 3448,
    "\u2581okay": 3449,
    "\u2581fra": 3450,
    "\u2581fell": 3451,
    "\u2581agent": 3452,
    "igh": 3453,
    "cus": 3454,
    "\u2581Sylhet": 3455,
    "och": 3456,
    "\u2581judgment": 3457,
    "\u2581rivers": 3458,
    "\u2581Part": 3459,
    "nia": 3460,
    "\u2581mouth": 3461,
    "read": 3462,
    "-10": 3463,
    "dan": 3464,
    "\u2581Social": 3465,
    "\u2581imagine": 3466,
    "\u2581Still": 3467,
    "\u2581Championship": 3468,
    "IC": 3469,
    "\u2581Instead": 3470,
    "\u2581remind": 3471,
    "\u2581Ji": 3472,
    "\u2581Gan": 3473,
    "vert": 3474,
    "\u2581expected": 3475,
    "\u2581conclude": 3476,
    "col": 3477,
    "\u2581fan": 3478,
    "nan": 3479,
    "\u2581expand": 3480,
    "\u2581Canada": 3481,
    "\u2581danger": 3482,
    "\u2581garden": 3483,
    "\u2581Arabic": 3484,
    "\u2581highlight": 3485,
    "\u2581Singapore": 3486,
    "\u2581Whether": 3487,
    "\u2581brain": 3488,
    "gent": 3489,
    "\u2581factory": 3490,
    "\u2581posted": 3491,
    "\u2581Ed": 3492,
    "\u2581behalf": 3493,
    "\u2581assigned": 3494,
    "\u2581appears": 3495,
    "\u2581govern": 3496,
    "72": 3497,
    "\u2581Pet": 3498,
    "\u2581Rights": 3499,
    "\u2581Mur": 3500,
    "\u2581bridge": 3501,
    "\u2581Miss": 3502,
    "yard": 3503,
    "\u2581potential": 3504,
    "\u2581distinct": 3505,
    "4;": 3506,
    "\u2581confidence": 3507,
    "\u2581feed": 3508,
    "\u2581counter": 3509,
    "\u258151": 3510,
    "\u2581feature": 3511,
    "\u2581Malaysia": 3512,
    "\u2581measures": 3513,
    "\u2581Chand": 3514,
    "late": 3515,
    "\u2581calling": 3516,
    "\u25812:2": 3517,
    "\u2581advice": 3518,
    "\u2581destroy": 3519,
    "\u2581prominent": 3520,
    "oon": 3521,
    "\u2581Ac": 3522,
    "\u258147": 3523,
    "65": 3524,
    "\u2581raise": 3525,
    "Read": 3526,
    "\u2581steps": 3527,
    "\u2581whatever": 3528,
    "\u2581destruction": 3529,
    "\u2581joint": 3530,
    "\u2581Week": 3531,
    "\u2581Men": 3532,
    "\u2581balance": 3533,
    "\u2581poem": 3534,
    "\u2581Each": 3535,
    "42": 3536,
    "\u2581thoughts": 3537,
    "\u25811997": 3538,
    "\u2581obey": 3539,
    "\u2581platform": 3540,
    "\u2581drink": 3541,
    "\u2581unique": 3542,
    "\u2581Bel": 3543,
    "\u2581meant": 3544,
    "\u25812001,": 3545,
    "\u2581represented": 3546,
    "\u2581critical": 3547,
    "RI": 3548,
    "\u2581discipline": 3549,
    "\u2581mobile": 3550,
    "\u2581shape": 3551,
    "\u2581secretary": 3552,
    "\u2581Roy": 3553,
    "ola": 3554,
    "\u2581victory": 3555,
    "\u2581escape": 3556,
    "\u2581presented": 3557,
    "eb": 3558,
    "\u2581Member": 3559,
    "ira": 3560,
    "39": 3561,
    "\u2581Bad": 3562,
    "\u2581providing": 3563,
    "\u2581baby": 3564,
    "\u2581asking": 3565,
    "ific": 3566,
    "\u2581Ob": 3567,
    "bed": 3568,
    "\u2581decisions": 3569,
    "\u2581articles": 3570,
    "\u2581arm": 3571,
    "\u2581cloth": 3572,
    "47": 3573,
    "\u2581operate": 3574,
    "\u2581wild": 3575,
    "\u2581hair": 3576,
    "\u2581extend": 3577,
    "\u25811960": 3578,
    "\u2581ensure": 3579,
    "\u2581moving": 3580,
    "rated": 3581,
    "\u2581institute": 3582,
    "duce": 3583,
    "ND": 3584,
    "\u2581Authority": 3585,
    "\u2581covered": 3586,
    "\u2581spiritually": 3587,
    "\u2581activists": 3588,
    "\u2581spa": 3589,
    "wing": 3590,
    "\u2581organized": 3591,
    "\u2581revenue": 3592,
    "\u2581verse": 3593,
    "\u2581committed": 3594,
    "\u2581TO": 3595,
    "RE": 3596,
    "\u2581Nor": 3597,
    "\u2581scr": 3598,
    "\u2581Liberation": 3599,
    "\u2581widely": 3600,
    "\u2581Grand": 3601,
    "\u2581seed": 3602,
    "ST": 3603,
    "\u2581rob": 3604,
    "\u2581Medical": 3605,
    "48": 3606,
    "pho": 3607,
    "\u2581reign": 3608,
    "\u2581hate": 3609,
    "\u2581corner": 3610,
    "\u2581Sat": 3611,
    "\u2581secondary": 3612,
    "\u2581Y": 3613,
    "\u2581seemed": 3614,
    "\u258152": 3615,
    "\u2581Ze": 3616,
    "\u2581acting": 3617,
    "\u2581Rather": 3618,
    "36": 3619,
    "\u2581Land": 3620,
    "\u2581numerous": 3621,
    "\u2581ideas": 3622,
    "\u2581occurred": 3623,
    "\u2581folk": 3624,
    "\u2581singer": 3625,
    "\u2581prepare": 3626,
    "\u2581Make": 3627,
    "anta": 3628,
    "\u2581assist": 3629,
    "verse": 3630,
    "57": 3631,
    "hur": 3632,
    "\u2581bowl": 3633,
    "\u2581advantage": 3634,
    "\u2581mode": 3635,
    "\u2581highly": 3636,
    "\u2581waiting": 3637,
    "\u2581files": 3638,
    "rant": 3639,
    "\u2581Dh": 3640,
    "fil": 3641,
    "top": 3642,
    "\u2581elder": 3643,
    "\u2581suffer": 3644,
    "\u2581Shar": 3645,
    "\u2581format": 3646,
    "water": 3647,
    "\u2581spot": 3648,
    "\u2581tweet": 3649,
    "\u2581Home": 3650,
    "nov": 3651,
    "\u2581Both": 3652,
    "\u2581Bureau": 3653,
    "\u2581tribe": 3654,
    "\u2581planning": 3655,
    "\u2581Therefore": 3656,
    "cient": 3657,
    "\u2581Study": 3658,
    "cular": 3659,
    "\u2581easily": 3660,
    "\u2581shoot": 3661,
    "ancy": 3662,
    "\u2581broad": 3663,
    "\u2581Port": 3664,
    "\u2581offering": 3665,
    "\u2581tear": 3666,
    "\u2581variety": 3667,
    "\u2581purposes": 3668,
    "\u2581Besides": 3669,
    "\u2581Myanmar": 3670,
    "-13": 3671,
    "lation": 3672,
    "\u2581Right": 3673,
    "\u2581pull": 3674,
    "\u2581prophecy": 3675,
    "\u2581Center": 3676,
    "\u2581sen": 3677,
    "\u2581green": 3678,
    "\u2581revealed": 3679,
    "46": 3680,
    "\u2581(20": 3681,
    "conscious": 3682,
    "ush": 3683,
    "mination": 3684,
    "%)": 3685,
    "\u2581mission": 3686,
    "\u2581Hossain": 3687,
    "\u2581essential": 3688,
    "\u2581offence": 3689,
    "bir": 3690,
    "\u2581functions": 3691,
    "\u2581prefer": 3692,
    "\u2581council": 3693,
    "\u2581calls": 3694,
    "\u2581invited": 3695,
    "ject": 3696,
    "rating": 3697,
    "\u2581prior": 3698,
    "\u2581promised": 3699,
    "38": 3700,
    "\u2581dedicated": 3701,
    "\u2581activist": 3702,
    "64": 3703,
    "\u2581Op": 3704,
    "\u2581honest": 3705,
    "\u2581mate": 3706,
    "\u2581Mag": 3707,
    "EN": 3708,
    "\u2581dog": 3709,
    "\u2581Han": 3710,
    "\u2581cold": 3711,
    "Proverbs": 3712,
    "\u2581zamindar": 3713,
    "\u258139": 3714,
    "\u2581situated": 3715,
    "62": 3716,
    "\u2581Ham": 3717,
    "\u2581200": 3718,
    "try": 3719,
    "\u2581helping": 3720,
    "\u2581Mother": 3721,
    "\u258141": 3722,
    "\u2581additional": 3723,
    "ease": 3724,
    "arch": 3725,
    "IN": 3726,
    "\u2581software": 3727,
    "\u25811950": 3728,
    "\u2581owner": 3729,
    "\u2581Sad": 3730,
    "\u2581Dad": 3731,
    "\u2581colour": 3732,
    "\u2581stopped": 3733,
    "Re": 3734,
    "but": 3735,
    "\u2581web": 3736,
    "\u2581assistance": 3737,
    "\u2581claimed": 3738,
    "\u2581Raja": 3739,
    "ough": 3740,
    "\u2581wave": 3741,
    "\u2581Qa": 3742,
    "\u2581settlement": 3743,
    "\u2581dam": 3744,
    "\u2581lie": 3745,
    "\u2581fighters": 3746,
    "\u2581consequence": 3747,
    "\u2581examine": 3748,
    "\u2581encouraged": 3749,
    "\u2581fill": 3750,
    "\u258143": 3751,
    "\u2581dig": 3752,
    "\u2581grew": 3753,
    "\u2581parent": 3754,
    "\u2581Local": 3755,
    "\u2581carrying": 3756,
    "\u2581warning": 3757,
    "\u2581Following": 3758,
    "\u258155": 3759,
    "coming": 3760,
    "\u2581zone": 3761,
    "ikh": 3762,
    "\u2581Syrian": 3763,
    "stone": 3764,
    "\u2581sharing": 3765,
    "rup": 3766,
    "\u25811995": 3767,
    "\u2581sand": 3768,
    "scribe": 3769,
    "\u2581ended": 3770,
    "\u2581Moreover": 3771,
    "\u2581Bri": 3772,
    "\u2581Jordan": 3773,
    "\u2581conducted": 3774,
    "\u2581accurate": 3775,
    "\u2581Sho": 3776,
    "\u2581continues": 3777,
    "\u2581lies": 3778,
    "41": 3779,
    "\u2581remove": 3780,
    "\u2581Kali": 3781,
    "ob": 3782,
    "\u2581revolution": 3783,
    "This": 3784,
    "duct": 3785,
    "\u2581extra": 3786,
    "\u2581YouTube": 3787,
    "\u2581NGO": 3788,
    "\u2581staff": 3789,
    "run": 3790,
    "name": 3791,
    "field": 3792,
    "\u2581impact": 3793,
    "\u2581Information": 3794,
    "\u2581distance": 3795,
    "\u2581observed": 3796,
    "ida": 3797,
    "\u2581secure": 3798,
    "\u2581render": 3799,
    "\u2581Technology": 3800,
    "dhu": 3801,
    "\u2581stood": 3802,
    "\u2581Mac": 3803,
    "\u2581Maj": 3804,
    "cast": 3805,
    "\u2581uncle": 3806,
    "\u2581Governor": 3807,
    "\u2581Assam": 3808,
    "\u2581imitate": 3809,
    "ending": 3810,
    "\u2581poverty": 3811,
    "\u2581games": 3812,
    "My": 3813,
    "\u2581details": 3814,
    "5;": 3815,
    "\u2581Babylon": 3816,
    "\u2581Chairman": 3817,
    "ony": 3818,
    "\u2581Also": 3819,
    "\u2581scored": 3820,
    "55": 3821,
    "\u2581Power": 3822,
    "\u2581goals": 3823,
    "arian": 3824,
    "\u2581cook": 3825,
    "\u2581victims": 3826,
    "\u2581sold": 3827,
    "\u2581reality": 3828,
    "\u2581Line": 3829,
    "\u2581Devil": 3830,
    "\u2581slow": 3831,
    "\u2581suit": 3832,
    "\u2581minute": 3833,
    "AS": 3834,
    "\u2581blind": 3835,
    "\u2581Command": 3836,
    "52": 3837,
    "\u2581everlasting": 3838,
    "\u2581painting": 3839,
    "\u2581Student": 3840,
    "\u2581keeping": 3841,
    "nga": 3842,
    "\u2581Cultural": 3843,
    "\u2581micro": 3844,
    "rang": 3845,
    "new": 3846,
    "\u2581grave": 3847,
    "56": 3848,
    "\u2581van": 3849,
    "[": 3850,
    "shan": 3851,
    "\u2581vision": 3852,
    "\u2581Mexico": 3853,
    "\u2581sacred": 3854,
    "\u2581Keep": 3855,
    "\u2581indeed": 3856,
    "itu": 3857,
    "tak": 3858,
    "\u2581prayers": 3859,
    "fold": 3860,
    "rai": 3861,
    "\u2581gate": 3862,
    "\u2581background": 3863,
    "\u2581poll": 3864,
    "\u2581jail": 3865,
    "\u2581Statistics": 3866,
    "\u2581latrine": 3867,
    "\u2581Yemen": 3868,
    "how": 3869,
    "\u2581license": 3870,
    "\u2581failure": 3871,
    "\u2581publishers": 3872,
    "path": 3873,
    "\u2581Black": 3874,
    "\u2581hot": 3875,
    "\u2581handle": 3876,
    "Genesis": 3877,
    "-5": 3878,
    "\u2581objective": 3879,
    "\u2581Sin": 3880,
    "\u2581sale": 3881,
    "\u2581album": 3882,
    "\u258149": 3883,
    "RA": 3884,
    "\u2581fly": 3885,
    "than": 3886,
    "\u2581manifest": 3887,
    "\u258146": 3888,
    "\u2581obtained": 3889,
    "\u2581mine": 3890,
    "\u2581capacity": 3891,
    "\u2581Girl": 3892,
    "\u2581medicine": 3893,
    "\u2581trees": 3894,
    "\u2581corruption": 3895,
    "\u2581fer": 3896,
    "\u2581solution": 3897,
    "\u2581plain": 3898,
    "\u2581reserve": 3899,
    "\u2581View": 3900,
    "burg": 3901,
    "\u2581internet": 3902,
    "\u2581headquarters": 3903,
    "\u2581refused": 3904,
    "\u2581rev": 3905,
    "ched": 3906,
    "dro": 3907,
    "\u2581resurrection": 3908,
    "\u258110:1": 3909,
    "\u2581squad": 3910,
    "view": 3911,
    "hya": 3912,
    "La": 3913,
    "\u2581crisis": 3914,
    "\u2581Perhaps": 3915,
    "\u2581ethnic": 3916,
    "63": 3917,
    "\u2581Economic": 3918,
    "\u2581preserve": 3919,
    "CH": 3920,
    "\u2581provision": 3921,
    "\u2581Ver": 3922,
    "\u2581appreciation": 3923,
    "54": 3924,
    "mid": 3925,
    "\u2581Civil": 3926,
    "ump": 3927,
    "\u2581Mill": 3928,
    "\u2581transfer": 3929,
    "\u2581photos": 3930,
    "\u2581nominated": 3931,
    "\u2581Kong": 3932,
    "\u2581rare": 3933,
    "\u2581grant": 3934,
    "etic": 3935,
    "pu": 3936,
    "position": 3937,
    "ool": 3938,
    "\u2581instrument": 3939,
    "\u2581Royal": 3940,
    "\u2581determine": 3941,
    "\u2581Master": 3942,
    "\u2581broadcast": 3943,
    "lly": 3944,
    "\u2581sweet": 3945,
    "\u2581Hong": 3946,
    "\u2581fat": 3947,
    "\u2581welcome": 3948,
    "53": 3949,
    "\u2581trip": 3950,
    "azi": 3951,
    "\u2581pure": 3952,
    "\u2581anger": 3953,
    "\u2581Jack": 3954,
    "\u2581cho": 3955,
    "\u2581organizations": 3956,
    "ologist": 3957,
    "\u2581auto": 3958,
    "\u2581FIFA": 3959,
    "\u2581fourth": 3960,
    "udi": 3961,
    "\u258165": 3962,
    "\u2581streets": 3963,
    "\u2581Constitution": 3964,
    "\u2581double": 3965,
    "\u2581estimated": 3966,
    "asa": 3967,
    "\u2581Ahmad": 3968,
    "\u2581Afghan": 3969,
    "God": 3970,
    "Prov": 3971,
    "ctic": 3972,
    "\u2581recover": 3973,
    "\u2581endure": 3974,
    "\u2581spoken": 3975,
    "\u2581realize": 3976,
    "\u2581accident": 3977,
    "\u25811992": 3978,
    "\u2581Census": 3979,
    "\u2581faced": 3980,
    "\u2581afraid": 3981,
    "\u2581professor": 3982,
    "\u2581Help": 3983,
    "61": 3984,
    "\u2581foundation": 3985,
    "\u258144": 3986,
    "\u2581hum": 3987,
    "\u2581coverage": 3988,
    "atic": 3989,
    "\u2581recognition": 3990,
    "ory": 3991,
    "\u2581answers": 3992,
    "\u2581relief": 3993,
    "\u2581principal": 3994,
    "\u2581vehicle": 3995,
    "\u2581Peace": 3996,
    "\u2581Scriptural": 3997,
    "\u2581identified": 3998,
    "\u2581Three": 3999,
    "\u2581sick": 4000,
    "\u2581implement": 4001,
    "\u2581recognized": 4002,
    "\u2581cultivate": 4003,
    "\u2581Children": 4004,
    "\u2581temp": 4005,
    "\u2581compete": 4006,
    "\u2581Cop": 4007,
    "vy": 4008,
    "\u2581plants": 4009,
    "\u2581extended": 4010,
    "\u2581YOU": 4011,
    "\u2581memory": 4012,
    "eva": 4013,
    "\u2581formal": 4014,
    "\u2581broke": 4015,
    "\u2581Rajshahi": 4016,
    "\u2581imperfect": 4017,
    "\u2581hell": 4018,
    "\u2581adopted": 4019,
    "\u2581appointment": 4020,
    "\u2581Spain": 4021,
    "\u2581blessing": 4022,
    "\u2581Males": 4023,
    "\u2581partner": 4024,
    "\u2581scientific": 4025,
    "SA": 4026,
    "\u2581chairman": 4027,
    "\u2581removed": 4028,
    "\u2581Ten": 4029,
    "\u2581chosen": 4030,
    "\u2581volume": 4031,
    "\u2581saved": 4032,
    "\u2581native": 4033,
    "\u2581topic": 4034,
    "\u2581drinking": 4035,
    "\u2581deposit": 4036,
    "\u2581net": 4037,
    "\u25817:1": 4038,
    "\u2581Holy": 4039,
    "century": 4040,
    "\u2581liberation": 4041,
    "ena": 4042,
    "\u2581frame": 4043,
    "\u2581Hence": 4044,
    "\u2581academic": 4045,
    "\u2581proposed": 4046,
    "\u2581sports": 4047,
    "\u2581invest": 4048,
    "\u2581Protest": 4049,
    "\u2581scientist": 4050,
    "\u2581transform": 4051,
    "\u2581ruling": 4052,
    "\u2581captain": 4053,
    "hari": 4054,
    "\u2581medal": 4055,
    "\u2581Report": 4056,
    "\u2581pattern": 4057,
    "vor": 4058,
    "\u2581empty": 4059,
    "\u2581Airport": 4060,
    "\u2581lock": 4061,
    "\u2581negative": 4062,
    "\u2581busy": 4063,
    "\u2581debate": 4064,
    "\u2581Mer": 4065,
    "\u2581expert": 4066,
    "\u2581select": 4067,
    "\u2581entitled": 4068,
    "tom": 4069,
    "\u2581Mc": 4070,
    "\u2581flower": 4071,
    "reach": 4072,
    "\u2581Indonesia": 4073,
    "asi": 4074,
    "\u2581defeat": 4075,
    "\u2581Ak": 4076,
    "\u2581evident": 4077,
    "\u2581lawyer": 4078,
    "take": 4079,
    "\u2581Nawab": 4080,
    "\u2581Paris": 4081,
    "face": 4082,
    "cher": 4083,
    "\u2581ruin": 4084,
    "load": 4085,
    "\u2581behavior": 4086,
    "\u2581neither": 4087,
    "TH": 4088,
    "\u2581Free": 4089,
    "ME": 4090,
    "\u2581Once": 4091,
    "lap": 4092,
    "\u2581paragraph": 4093,
    "\u2581tomb": 4094,
    "\u2581exactly": 4095,
    "\u2581silver": 4096,
    "hab": 4097,
    "mail": 4098,
    "\u2581Language": 4099,
    "\u2581conscience": 4100,
    "\u2581honour": 4101,
    "\u2581breath": 4102,
    "\u2581Family": 4103,
    "\u2581Centre": 4104,
    "far": 4105,
    "\u2581whi": 4106,
    "\u2581leadership": 4107,
    "\u2581Nu": 4108,
    "\u2581Retrieve": 4109,
    "\u2581milk": 4110,
    "rog": 4111,
    "\u258153": 4112,
    "\u2581Indeed": 4113,
    "mir": 4114,
    "\u2581fun": 4115,
    "cker": 4116,
    "\u2581closed": 4117,
    "\u2581highway": 4118,
    "\u2581integrity": 4119,
    "\u2581extinct": 4120,
    "\u2581filled": 4121,
    "\u2581Rama": 4122,
    "\u2581identity": 4123,
    "\u2581promises": 4124,
    "band": 4125,
    "\u2581recognize": 4126,
    "\u2581journey": 4127,
    "\u2581dangerous": 4128,
    "\u2581weight": 4129,
    "\u2581originally": 4130,
    "\u2581Latin": 4131,
    "with": 4132,
    "\u2581Pal": 4133,
    "dam": 4134,
    "\u2581executive": 4135,
    "\u2581industries": 4136,
    "\u2581starting": 4137,
    "\u2581studying": 4138,
    "nor": 4139,
    "\u2581shut": 4140,
    "\u2581Val": 4141,
    "\u2581dry": 4142,
    "\u2581marked": 4143,
    "\u2581approval": 4144,
    "\u2581courage": 4145,
    "\u2581shop": 4146,
    "\u2581Cla": 4147,
    "\u2581stick": 4148,
    "\u2581nuclear": 4149,
    "\u2581welfare": 4150,
    "\u2581Others": 4151,
    "51": 4152,
    "\u2581digital": 4153,
    "\u2581Last": 4154,
    "\u2581parliament": 4155,
    "\u2581worry": 4156,
    "\u2581delight": 4157,
    "\u2581pop": 4158,
    "\u25811993": 4159,
    "\u2581argue": 4160,
    "\u2581edit": 4161,
    "\u2581aware": 4162,
    "\u2581Museum": 4163,
    "\u2581favour": 4164,
    "\u2581Rome": 4165,
    "\u2581Ray": 4166,
    "\u2581dish": 4167,
    "\u2581violent": 4168,
    "]:": 4169,
    "\u2581Yu": 4170,
    "7;": 4171,
    "Footnote": 4172,
    "\u2581glory": 4173,
    "\u2581accused": 4174,
    "\u2581younger": 4175,
    "awa": 4176,
    "own": 4177,
    "6;": 4178,
    "\u2581founder": 4179,
    "EC": 4180,
    "otic": 4181,
    "\u2581Jeremiah": 4182,
    "\u2581Area": 4183,
    "\u2581affairs": 4184,
    "\u2581safety": 4185,
    "8;": 4186,
    "\u2581punish": 4187,
    "How": 4188,
    "\u2581blessings": 4189,
    "\u2581decades": 4190,
    "\u2581precious": 4191,
    "\u2581speed": 4192,
    "post": 4193,
    "\u2581theatre": 4194,
    "\u2581Fer": 4195,
    "\u2581Street": 4196,
    "\u2581Zealand": 4197,
    "\u2581flight": 4198,
    "\u2581Question": 4199,
    "\u2581Vo": 4200,
    "49": 4201,
    "\u2581illegal": 4202,
    "\u2581companion": 4203,
    "pit": 4204,
    "Ra": 4205,
    "dhi": 4206,
    "\u2581scale": 4207,
    "cap": 4208,
    "\u25811994": 4209,
    "\u2581iron": 4210,
    "\u2581launch": 4211,
    "\u2581extent": 4212,
    "\u2581sentence": 4213,
    "gla": 4214,
    "\u2581Old": 4215,
    "\u2581Swa": 4216,
    "Jehovah": 4217,
    "\u2581Young": 4218,
    "\u2581servant": 4219,
    "\u2581Sher": 4220,
    "\u2581pleasure": 4221,
    "ncies": 4222,
    "gni": 4223,
    "\u2581arms": 4224,
    "\u2581Pla": 4225,
    "\u2581employment": 4226,
    "\u2581summer": 4227,
    "\u2581Vice": 4228,
    "rah": 4229,
    "\u2581condemn": 4230,
    "\u2581Twenty": 4231,
    "\u2581detail": 4232,
    "\u2581rapid": 4233,
    "\u2581fresh": 4234,
    "\u2581prince": 4235,
    "\u2581planet": 4236,
    "\u2581Para": 4237,
    "\u2581royal": 4238,
    "\u2581shift": 4239,
    "\u2581distribution": 4240,
    "shore": 4241,
    "\u2581Tre": 4242,
    "vil": 4243,
    "\u2581Philippine": 4244,
    "pra": 4245,
    "\u2581organisations": 4246,
    "hid": 4247,
    "gate": 4248,
    "\u2581stress": 4249,
    "\u2581finished": 4250,
    "\u2581dear": 4251,
    "\u2581scholar": 4252,
    "known": 4253,
    "\u2581principle": 4254,
    "\u2581react": 4255,
    "\u2581Witness": 4256,
    "\u2581Music": 4257,
    "\u2581cinema": 4258,
    "\u2581depict": 4259,
    "\u2581Sham": 4260,
    "\u2581Supreme": 4261,
    "\u2581investigation": 4262,
    "\u2581requirement": 4263,
    "\u2581Justice": 4264,
    "\u2581Engineering": 4265,
    "\u2581certificate": 4266,
    "ssa": 4267,
    "\u2581fighting": 4268,
    "\u2581opportunities": 4269,
    "\u2581Set": 4270,
    "\u2581earned": 4271,
    "\u2581suffered": 4272,
    "\u2581edition": 4273,
    "bon": 4274,
    "mission": 4275,
    "\u2581Total": 4276,
    "\u2581Pradesh": 4277,
    "\u2581True": 4278,
    "Exodus": 4279,
    "istan": 4280,
    "\u2581governor": 4281,
    "\u2581initial": 4282,
    "wl": 4283,
    "\u2581bond": 4284,
    "\u2581portion": 4285,
    "mma": 4286,
    "\u25811975": 4287,
    "\u2581Ce": 4288,
    "vision": 4289,
    "worth": 4290,
    "\u2581description": 4291,
    "\u2581product": 4292,
    "\u25811982": 4293,
    "\u2581height": 4294,
    "\u2581Revolution": 4295,
    "\u2581Matt": 4296,
    "\u2581applied": 4297,
    "\u2581Eve": 4298,
    "\u2581conference": 4299,
    "\u2581Sim": 4300,
    "\u2581Tar": 4301,
    "500": 4302,
    "\u2581Australian": 4303,
    "\u2581encounter": 4304,
    "\u2581identify": 4305,
    "\u2581storm": 4306,
    "\u2581ear": 4307,
    "\u2581drop": 4308,
    "\u2581san": 4309,
    "\u2581Thailand": 4310,
    "\u2581straight": 4311,
    "\u25811989": 4312,
    "\u2581deeply": 4313,
    "\u2581Province": 4314,
    "\u2581literary": 4315,
    "\u258154": 4316,
    "\u2581wage": 4317,
    "\u2581drawn": 4318,
    "\u2581bra": 4319,
    "\u2581consideration": 4320,
    "\u2581newly": 4321,
    "\u2581quick": 4322,
    "\u2581translated": 4323,
    "\u2581personality": 4324,
    "\u2581journal": 4325,
    "bol": 4326,
    "\u2581Hospital": 4327,
    "atu": 4328,
    "rich": 4329,
    "\u2581stream": 4330,
    "\u2581catch": 4331,
    "\u2581seeing": 4332,
    "\u2581developing": 4333,
    "\u2581earthquake": 4334,
    "uni": 4335,
    "\u2581publications": 4336,
    "Deuteronomy": 4337,
    "\u2581blue": 4338,
    "\u2581Pen": 4339,
    "\u2581existing": 4340,
    "\u2581engaged": 4341,
    "\u2581Library": 4342,
    "\u2581hotel": 4343,
    "\u2581larger": 4344,
    "\u2581harmony": 4345,
    "ware": 4346,
    "\u2581climate": 4347,
    "\u2581enjoyed": 4348,
    "\u2581armed": 4349,
    "\u2581decide": 4350,
    "\u2581sight": 4351,
    "test": 4352,
    "\u2581Administration": 4353,
    "\u2581secular": 4354,
    "\u2581supposed": 4355,
    "\u2581walking": 4356,
    "\u2581Ash": 4357,
    "\u2581recall": 4358,
    "\u2581duties": 4359,
    "SC": 4360,
    "\u2581dealing": 4361,
    "ensive": 4362,
    "mou": 4363,
    "\u2581Foreign": 4364,
    "\u2581senior": 4365,
    "\u2581Awake": 4366,
    "\u2581scholars": 4367,
    "\u2581Festival": 4368,
    "\u2581philosophy": 4369,
    "\u25811984": 4370,
    "\u2581sca": 4371,
    "\u2581Nar": 4372,
    "\u2581Major": 4373,
    "\u2581Foundation": 4374,
    "\u2581Gen": 4375,
    "De": 4376,
    "\u2581emotional": 4377,
    "\u2581laid": 4378,
    "\u2581enemies": 4379,
    "\u2581peaceful": 4380,
    "\u2581Bethel": 4381,
    "\u2581manager": 4382,
    "\u2581replaced": 4383,
    "\u2581Brazil": 4384,
    "\u2581Stop": 4385,
    "\u2581specified": 4386,
    "\u2581realized": 4387,
    "For": 4388,
    "\u2581Britain": 4389,
    "\u2581Bihar": 4390,
    "\u2581sky": 4391,
    "\u2581library": 4392,
    "\u2581compared": 4393,
    "\u2581bread": 4394,
    "\u2581obtain": 4395,
    "\u2581Head": 4396,
    "gam": 4397,
    "3;": 4398,
    "east": 4399,
    "\u2581Bay": 4400,
    "\u2581notable": 4401,
    "\u2581Er": 4402,
    "nath": 4403,
    "\u2581otherwise": 4404,
    "list": 4405,
    "\u2581demonstration": 4406,
    "\u2581contrast": 4407,
    "\u2581presentation": 4408,
    "\u2581enemy": 4409,
    "ographic": 4410,
    "gation": 4411,
    "garh": 4412,
    "\u2581Post": 4413,
    "under": 4414,
    "\u2581regional": 4415,
    "\u2581hearing": 4416,
    "\u2581skin": 4417,
    "ility": 4418,
    "\u2581vegetable": 4419,
    "2;": 4420,
    "\u2581metal": 4421,
    "\u2581bri": 4422,
    "\u2581fundamental": 4423,
    "\u2581remaining": 4424,
    "\u2581Pass": 4425,
    "\u2581indigenous": 4426,
    "\u2581march": 4427,
    "\u25811977": 4428,
    "\u2581push": 4429,
    "\u25811987": 4430,
    "\u2581technical": 4431,
    "\u2581worse": 4432,
    "\u2581Prayer": 4433,
    "\u2581sto": 4434,
    "\u2581Mun": 4435,
    "\u2581household": 4436,
    "\u2581cancel": 4437,
    "\u25811983": 4438,
    "pend": 4439,
    "crea": 4440,
    "rum": 4441,
    ".'\"": 4442,
    "\u2581relatives": 4443,
    "\u2581Krishna": 4444,
    "\u2581Special": 4445,
    "\u2581Project": 4446,
    "maker": 4447,
    "\u2581registered": 4448,
    "gha": 4449,
    "\u2581illustration": 4450,
    "\u2581wear": 4451,
    "\u2581agreed": 4452,
    "\u2581kindness": 4453,
    "\u2581score": 4454,
    "\u2581camera": 4455,
    "\u2581receiving": 4456,
    "\u2581context": 4457,
    "9;": 4458,
    "\u2581Town": 4459,
    "\u2581unless": 4460,
    "\u2581Var": 4461,
    "\u2581impossible": 4462,
    "\u2581resolve": 4463,
    "\u2581dispute": 4464,
    "\u2581tongue": 4465,
    "\u2581bag": 4466,
    "\u2581Trans": 4467,
    "\u2581convert": 4468,
    "\u2581pond": 4469,
    "\u2581earn": 4470,
    "\u2581protesters": 4471,
    "\u2581elect": 4472,
    "\u2581Noah": 4473,
    "tories": 4474,
    "\u25811962": 4475,
    "\u2581contained": 4476,
    "\u2581Israeli": 4477,
    "\u2581duty": 4478,
    "\u2581conclusion": 4479,
    "\u2581blow": 4480,
    "\u2581Prize": 4481,
    "\u2581Gal": 4482,
    "\u2581requires": 4483,
    "\u2581satellite": 4484,
    "\u2581pursue": 4485,
    "\u258113:1": 4486,
    "\u2581believers": 4487,
    "\u2581closer": 4488,
    "\u2581Press": 4489,
    "\u2581fulfill": 4490,
    "\u2581phase": 4491,
    "\u2581Him": 4492,
    "\u2581Without": 4493,
    "\u2581Super": 4494,
    "\u2581Teach": 4495,
    "logy": 4496,
    "\u2581connected": 4497,
    "When": 4498,
    "Ju": 4499,
    "\u2581argument": 4500,
    "\u2581passenger": 4501,
    "\u2581quarter": 4502,
    "\u2581IN": 4503,
    "\u2581update": 4504,
    "\u2581empire": 4505,
    "\u2581blame": 4506,
    "\u2581prime": 4507,
    "khali": 4508,
    "\u2581engineering": 4509,
    "\u2581quo": 4510,
    "\u2581hunt": 4511,
    "\u2581aspects": 4512,
    "To": 4513,
    "ifying": 4514,
    "\u2581worker": 4515,
    "\u2581loan": 4516,
    "\u2581Four": 4517,
    "Romans": 4518,
    "\u2581disappear": 4519,
    "\u2581elements": 4520,
    "\u2581spec": 4521,
    "\u2581bull": 4522,
    "\u2581bio": 4523,
    "\u2581gained": 4524,
    "\u2581hero": 4525,
    "bert": 4526,
    "\u2581volunteer": 4527,
    "\u2581extensive": 4528,
    "\u2581adapt": 4529,
    "\u2581treasure": 4530,
    "\u2581twenty": 4531,
    "\u2581granted": 4532,
    "\u2581describes": 4533,
    "\u25814:2": 4534,
    "aria": 4535,
    "Isaiah": 4536,
    "Let": 4537,
    "\u2581Tan": 4538,
    "\u2581Bahrain": 4539,
    "hak": 4540,
    "iff": 4541,
    "See": 4542,
    "\u2581finish": 4543,
    "\u2581investment": 4544,
    "\u2581respectively": 4545,
    "\u2581winner": 4546,
    "\u2581residents": 4547,
    "\u2581flee": 4548,
    "\u2581print": 4549,
    "\u2581laugh": 4550,
    "ibility": 4551,
    "\u2581Sunday": 4552,
    "\u2581Syed": 4553,
    "\u258110:2": 4554,
    "\u2581telling": 4555,
    "\u2581recommend": 4556,
    "\u2581surrounding": 4557,
    "\u2581Number": 4558,
    "\u2581rose": 4559,
    "\u2581Order": 4560,
    "\u2581Tal": 4561,
    "\u2581possession": 4562,
    "\u2581Bill": 4563,
    "\u25811988": 4564,
    "\u2581stock": 4565,
    "\u2581vast": 4566,
    "\u2581approved": 4567,
    "\u2581Tunisia": 4568,
    "style": 4569,
    "\u2581historian": 4570,
    "\u2581vice": 4571,
    "\u2581Mount": 4572,
    "\u2581glass": 4573,
    "\u25811969": 4574,
    "\u2581unable": 4575,
    "\u2581Palestinian": 4576,
    "\u2581Sang": 4577,
    "\u2581coast": 4578,
    "\u2581Ana": 4579,
    "\u2581associate": 4580,
    "\u2581Sanskrit": 4581,
    "\u2581prospect": 4582,
    "\u2581quiet": 4583,
    "\u2581wound": 4584,
    "\u2581decline": 4585,
    "\u2581scripture": 4586,
    "\u2581proclaim": 4587,
    "\u2581Soon": 4588,
    "\u2581Hindi": 4589,
    "An": 4590,
    "\u2581abroad": 4591,
    "hum": 4592,
    "\u2581fault": 4593,
    "\u2581hang": 4594,
    "\u2581guest": 4595,
    "\u2581Michael": 4596,
    "\u2581Gold": 4597,
    "\u2581Bro": 4598,
    "\u2581traveling": 4599,
    "\u2581interpret": 4600,
    "\u2581delete": 4601,
    "\u2581Put": 4602,
    "\u25811986": 4603,
    "\u2581Media": 4604,
    "\u2581Trust": 4605,
    "\u2581successfully": 4606,
    "9%": 4607,
    "\u2581attacked": 4608,
    "\u2581Golden": 4609,
    "\u2581Through": 4610,
    "self": 4611,
    "\u2581internal": 4612,
    "cut": 4613,
    "\u2581ICC": 4614,
    "\u2581Real": 4615,
    "\u2581password": 4616,
    "\u2581Remember": 4617,
    "round": 4618,
    "\u2581unity": 4619,
    "\u2581punishment": 4620,
    "\u2581Google": 4621,
    "\u2581procedure": 4622,
    "\u2581managed": 4623,
    "\u2581employees": 4624,
    "\u2581Charles": 4625,
    "\u2581discussed": 4626,
    "\u2581genuine": 4627,
    "\u2581creature": 4628,
    "\u2581conquer": 4629,
    "gger": 4630,
    "\u2581shepherd": 4631,
    "5,000": 4632,
    "uz": 4633,
    "\u2581Pala": 4634,
    "\u2581profit": 4635,
    "\u2581reject": 4636,
    "There": 4637,
    "\u2581museum": 4638,
    "\u2581ransom": 4639,
    "lal": 4640,
    "\u2581broken": 4641,
    "\u2581Kur": 4642,
    "\u2581pair": 4643,
    "\u2581announcement": 4644,
    "mbi": 4645,
    "Galatians": 4646,
    "\u2581Meeting": 4647,
    "life": 4648,
    "\u2581Wait": 4649,
    "ghat": 4650,
    "\u2581sitting": 4651,
    "ball": 4652,
    "\u2581300": 4653,
    "\u2581beauty": 4654,
    "lah": 4655,
    "Ecclesiastes": 4656,
    "\u2581Blogger": 4657,
    "\u2581seeking": 4658,
    "\u2581Gaza": 4659,
    "nger": 4660,
    "\u2581consult": 4661,
    "\u2581sustain": 4662,
    "\u2581relate": 4663,
    "\u2581Vietnam": 4664,
    "\u2581classes": 4665,
    "\u2581Mari": 4666,
    "\u2581formation": 4667,
    "shire": 4668,
    "\u2581prescribed": 4669,
    "\u2581upper": 4670,
    "\u25811973": 4671,
    "\u2581(3": 4672,
    "\u2581constructed": 4673,
    "\u2581celebration": 4674,
    "\u2581temperature": 4675,
    "\u2581Frank": 4676,
    "\u2581beside": 4677,
    "\u2581universe": 4678,
    "\u2581resist": 4679,
    "\u2581creating": 4680,
    "\u2581couldn": 4681,
    "\u2581producer": 4682,
    "phy": 4683,
    "\u2581closely": 4684,
    "\u2581Nur": 4685,
    "\u2581trend": 4686,
    "dian": 4687,
    "\u2581guidance": 4688,
    "\u2581primarily": 4689,
    "NC": 4690,
    "\u2581invitation": 4691,
    "\u2581pot": 4692,
    "\u2581nice": 4693,
    "\u2581ring": 4694,
    "8%": 4695,
    "\u2581caught": 4696,
    "\u2581righteousness": 4697,
    "\u2581Similarly": 4698,
    "\u2581experiment": 4699,
    "dies": 4700,
    "\u2581influenced": 4701,
    "voc": 4702,
    "pass": 4703,
    "\u2581roof": 4704,
    "\u2581grown": 4705,
    "\u2581column": 4706,
    "\u2581rebel": 4707,
    "\u2581engage": 4708,
    "\u2581prop": 4709,
    "\u2581labour": 4710,
    "\u2581fixed": 4711,
    "onic": 4712,
    "\u258164": 4713,
    "\u2581approximately": 4714,
    "\u2581Really": 4715,
    "\u2581absolute": 4716,
    "\u2581previously": 4717,
    "\u2581treated": 4718,
    "\u2581purchase": 4719,
    "\u2581ruled": 4720,
    "\u2581commit": 4721,
    "\u2581Common": 4722,
    "iness": 4723,
    "chandra": 4724,
    "rick": 4725,
    "\u2581tower": 4726,
    "\u2581Security": 4727,
    "\u2581alleged": 4728,
    "\u2581Movement": 4729,
    "\u2581wing": 4730,
    "\u2581Finally": 4731,
    "\u2581latter": 4732,
    "\u2581scheme": 4733,
    "\u2581winter": 4734,
    "organ": 4735,
    "\u2581End": 4736,
    "\u2581Eli": 4737,
    "\u2581possess": 4738,
    "\u2581nearby": 4739,
    "\u2581Korean": 4740,
    "\u2581valuable": 4741,
    "\u2581solve": 4742,
    "\u25811974": 4743,
    "\u2581portray": 4744,
    "other": 4745,
    "\u2581Support": 4746,
    "\u2581compassion": 4747,
    "\u2581Tell": 4748,
    "\u2581confident": 4749,
    "\u2581signal": 4750,
    "\u2581Queen": 4751,
    "\u2581contest": 4752,
    "mari": 4753,
    "\u2581friendship": 4754,
    "\u2581clinic": 4755,
    "\u2581Disc": 4756,
    "\u2581Officer": 4757,
    "\u2581Tower": 4758,
    "\u2581humble": 4759,
    "\u2581gathering": 4760,
    "\u25813:2": 4761,
    "\u2581clothes": 4762,
    "\u2581chose": 4763,
    "iest": 4764,
    "ister": 4765,
    "\u2581Noted": 4766,
    "\u2581Cre": 4767,
    "eu": 4768,
    "\u2581medium": 4769,
    "\u2581Kam": 4770,
    "pal": 4771,
    "\u2581devotion": 4772,
    "\u2581Jacob": 4773,
    "\u2581godly": 4774,
    "SP": 4775,
    "\u2581Temple": 4776,
    "\u2581script": 4777,
    "\u2581baptism": 4778,
    "\u2581interesting": 4779,
    "\u2581speaker": 4780,
    "plan": 4781,
    "\u2581Pacific": 4782,
    "\u2581Sara": 4783,
    "\u2581payment": 4784,
    "\u2581Election": 4785,
    "\u2581discern": 4786,
    "\u2581carefully": 4787,
    "\u2581instruct": 4788,
    "\u2581missionary": 4789,
    "\u2581proposal": 4790,
    "\u2581commonly": 4791,
    "\u2581namely": 4792,
    "\u2581Office": 4793,
    "rama": 4794,
    "responsibilities": 4795,
    "\u2581valid": 4796,
    "\u2581Actress": 4797,
    "\u2581twice": 4798,
    "\u2581regulations": 4799,
    "\u2581shock": 4800,
    "\u25811967": 4801,
    "\u2581mal": 4802,
    "-21": 4803,
    "\u2581circuit": 4804,
    "arm": 4805,
    "\u2581missing": 4806,
    "stead": 4807,
    "\u2581500": 4808,
    "\u2581chair": 4809,
    "\u2581gradually": 4810,
    "ei": 4811,
    "\u2581suggested": 4812,
    "\u2581Angel": 4813,
    "\u2581widow": 4814,
    "\u2581resulted": 4815,
    "\u2581bringing": 4816,
    "Ar": 4817,
    "\u2581distress": 4818,
    "\u2581Nevertheless": 4819,
    "\u2581unknown": 4820,
    "\u2581rub": 4821,
    "\u2581Live": 4822,
    "come": 4823,
    "\u2581finger": 4824,
    "\u2581Phil": 4825,
    "\u25811930": 4826,
    "\u2581MA": 4827,
    "\u2581Density": 4828,
    "\u2581Captain": 4829,
    "Box": 4830,
    "\u25811985": 4831,
    "\u2581understood": 4832,
    "\u2581wedding": 4833,
    "hearted": 4834,
    "Al": 4835,
    "itive": 4836,
    "\u2581detect": 4837,
    "\u2581planned": 4838,
    "\u2581earthly": 4839,
    "\u2581Bab": 4840,
    "ffer": 4841,
    "\u2581monument": 4842,
    "\u2581captured": 4843,
    "\u2581correspond": 4844,
    "\u2581participate": 4845,
    "\u2581reasonable": 4846,
    "\u2581Saul": 4847,
    "aq": 4848,
    "Colossians": 4849,
    "\u2581chemical": 4850,
    "nom": 4851,
    "RO": 4852,
    "\u2581Actor": 4853,
    "\u2581divorce": 4854,
    "\u2581bright": 4855,
    "\u2581Ephesians": 4856,
    "\u2581Female": 4857,
    "\u2581advise": 4858,
    "\u2581restrict": 4859,
    "\u258156": 4860,
    "\u2581torture": 4861,
    "\u2581contribute": 4862,
    "\u2581herself": 4863,
    "\u2581characteristic": 4864,
    "hop": 4865,
    "gri": 4866,
    "\u2581flat": 4867,
    "\u2581gathered": 4868,
    "\u2581entertainment": 4869,
    "\u2581marry": 4870,
    "\u2581tend": 4871,
    "\u2581motivate": 4872,
    "\u2581arranged": 4873,
    "\u2581initially": 4874,
    "range": 4875,
    "play": 4876,
    "\u2581foretold": 4877,
    "ference": 4878,
    "\u2581acknowledge": 4879,
    "\u2581Alam": 4880,
    "\u2581Male": 4881,
    "\u258163": 4882,
    "\u258111:1": 4883,
    "\u2581Agriculture": 4884,
    "\u2581frequently": 4885,
    "\u2581alter": 4886,
    "hani": 4887,
    "lov": 4888,
    "\u2581winning": 4889,
    "\u2581Italy": 4890,
    "\u2581Um": 4891,
    "\u2581magn": 4892,
    "\u2581wheat": 4893,
    "\u2581roll": 4894,
    "\u2581yes": 4895,
    "\u2581calm": 4896,
    "\u2581passing": 4897,
    "\u2581putting": 4898,
    "\u2581OF": 4899,
    "IL": 4900,
    "\u2581tomorrow": 4901,
    "\u2581nomination": 4902,
    "\u2581harvest": 4903,
    "\u2581ibn": 4904,
    "\u2581surprise": 4905,
    "\u2581trained": 4906,
    "\u2581none": 4907,
    "\u2581Federation": 4908,
    "\u2581careful": 4909,
    "\u2581participated": 4910,
    "\u2581exceed": 4911,
    "\u2581operating": 4912,
    "tali": 4913,
    "\u2581sincere": 4914,
    "\u2581covenant": 4915,
    "sanitary": 4916,
    "\u2581Kenya": 4917,
    "\u2581heritage": 4918,
    "All": 4919,
    "Hebrews": 4920,
    "Chi": 4921,
    "\u2581Rural": 4922,
    "\u2581hide": 4923,
    "\u2581System": 4924,
    "\u2581settled": 4925,
    "\u2581crop": 4926,
    "\u2581Lal": 4927,
    "\u2581invite": 4928,
    "\u2581circle": 4929,
    "\u2581technique": 4930,
    "\u2581fix": 4931,
    "\u2581united": 4932,
    "\u2581Back": 4933,
    "\u2581Uttar": 4934,
    "hana": 4935,
    "\u2581Search": 4936,
    "\u25811914": 4937,
    "\u2581luck": 4938,
    "ume": 4939,
    "\u2581attending": 4940,
    "liness": 4941,
    "\u2581tweeted": 4942,
    "\u2581submit": 4943,
    "\u2581alternative": 4944,
    "\u2581Personal": 4945,
    "\u2581tap": 4946,
    "\u2581smile": 4947,
    "\u2581Green": 4948,
    "build": 4949,
    "\u2581mono": 4950,
    "\u2581tract": 4951,
    "\u2581universities": 4952,
    "\u25811979": 4953,
    "\u2581require": 4954,
    "\u258175": 4955,
    "\u2581Maybe": 4956,
    "\u2581lift": 4957,
    "\u2581moon": 4958,
    "\u2581Mumbai": 4959,
    "\u2581Italian": 4960,
    "\u2581defined": 4961,
    "\u2581oldest": 4962,
    "\u2581illustrate": 4963,
    "\u2581democracy": 4964,
    "\u2581eating": 4965,
    "\u2581Communication": 4966,
    "\u2581Kho": 4967,
    "oid": 4968,
    "\u2581Move": 4969,
    "\u2581proud": 4970,
    "\u258157": 4971,
    "\u2581civilian": 4972,
    "\u2581Mom": 4973,
    "treat": 4974,
    "\u2581Brahma": 4975,
    "\u2581driver": 4976,
    "1;": 4977,
    "Rom": 4978,
    "\u2581epi": 4979,
    "\u2581listed": 4980,
    "wood": 4981,
    "\u2581repent": 4982,
    "ford": 4983,
    "\u2581soft": 4984,
    "\u2581Next": 4985,
    "\u2581Christianity": 4986,
    "\u2581sharp": 4987,
    "\u2581transferred": 4988,
    "\u2581Class": 4989,
    "ette": 4990,
    "\u2581fulfillment": 4991,
    "\u2581pra": 4992,
    "\u2581intention": 4993,
    "\u2581jute": 4994,
    "\u2581Yo": 4995,
    "power": 4996,
    "EL": 4997,
    "\u2581(4)": 4998,
    "\u2581UK": 4999,
    "\u2581personally": 5000,
    "\u2581Listen": 5001,
    "\u2581Christmas": 5002,
    "\u2581adopt": 5003,
    "\u2581reduced": 5004,
    "\u2581File": 5005,
    "\u2581cent": 5006,
    "\u2581criticism": 5007,
    "\u2581decade": 5008,
    "\u2581qualified": 5009,
    "\u2581Q": 5010,
    "\u258166": 5011,
    "\u2581salvation": 5012,
    "\u2581rough": 5013,
    "\u2581urged": 5014,
    "\u2581useful": 5015,
    "\u2581environmental": 5016,
    "\u2581Call": 5017,
    "\u25811965": 5018,
    "\u2581intellectual": 5019,
    "\u2581rival": 5020,
    "\u2581motion": 5021,
    "\u2581possibly": 5022,
    "\u2581massive": 5023,
    "LA": 5024,
    "\u2581ideal": 5025,
    "\u2581Age": 5026,
    "\u2581opposite": 5027,
    "rov": 5028,
    "\u2581Note": 5029,
    "\u2581illness": 5030,
    "\u2581pointed": 5031,
    "\u2581Dia": 5032,
    "\u2581Village": 5033,
    "\u2581encouragement": 5034,
    "\u2581fee": 5035,
    "\u25811948": 5036,
    "\u2581vessel": 5037,
    "\u2581Anti": 5038,
    "\u2581preparation": 5039,
    "\u2581superior": 5040,
    "\u2581Hor": 5041,
    "\u2581Khulna": 5042,
    "\u2581obvious": 5043,
    "\u2581Gre": 5044,
    "Revelation": 5045,
    "\u2581cash": 5046,
    "\u258172": 5047,
    "\u2581troops": 5048,
    "\u2581affection": 5049,
    "\u2581Run": 5050,
    "\u2581residence": 5051,
    "\u2581Count": 5052,
    "\u2581Portuguese": 5053,
    "\u2581plane": 5054,
    "\u2581Turkey": 5055,
    "NA": 5056,
    "\u2581opt": 5057,
    "\u2581Bhu": 5058,
    "\u2581Web": 5059,
    "\u2581rape": 5060,
    "\u2581musical": 5061,
    "hou": 5062,
    "\u2581(17": 5063,
    "\u2581victim": 5064,
    "UR": 5065,
    "print": 5066,
    "\u2581ceremony": 5067,
    "\u2581familiar": 5068,
    "\u2581commerce": 5069,
    "\u2581Short": 5070,
    "habi": 5071,
    "\u2581magic": 5072,
    "\u2581remote": 5073,
    "\u2581Death": 5074,
    "\u2581Screen": 5075,
    "\u2581CPI": 5076,
    "\u2581ice": 5077,
    "\u2581Affairs": 5078,
    "\u2581Should": 5079,
    "\u2581weather": 5080,
    "\u2581thick": 5081,
    "\u2581relating": 5082,
    "\u2581pack": 5083,
    "AF": 5084,
    "\u2581manufacture": 5085,
    "\u2581attain": 5086,
    "\u2581fuel": 5087,
    "\u2581properly": 5088,
    "\u2581fought": 5089,
    "\u2581electric": 5090,
    "\u2581Jami": 5091,
    "ene": 5092,
    "\u2581Ye": 5093,
    "\u2581suddenly": 5094,
    "\u2581Washington": 5095,
    "\u2581Failed": 5096,
    "\u2581forgive": 5097,
    "\u2581California": 5098,
    "\u2581desert": 5099,
    "\u2581corrupt": 5100,
    "\u25811920": 5101,
    "\u2581farmers": 5102,
    "Li": 5103,
    "\u2581Kashmir": 5104,
    "\u2581ultimate": 5105,
    "\u2581monitor": 5106,
    "\u2581Begum": 5107,
    "\u2581audio": 5108,
    "\u25811952": 5109,
    "uda": 5110,
    "\u25811976": 5111,
    "\u2581Muk": 5112,
    "\u2581facing": 5113,
    "\u2581monk": 5114,
    "vation": 5115,
    "\u2581introduction": 5116,
    "\u2581metres": 5117,
    "\u2581sword": 5118,
    "\u25811978": 5119,
    "\u2581Bara": 5120,
    "\u2581merely": 5121,
    "\u2581Cur": 5122,
    "\u2581Ly": 5123,
    "\u2581Congregation": 5124,
    "\u2581Error": 5125,
    "\u2581replace": 5126,
    "\u2581happening": 5127,
    "\u2581mercy": 5128,
    "serve": 5129,
    "\u2581Madrasa": 5130,
    "\u2581trace": 5131,
    "\u2581merchant": 5132,
    "serving": 5133,
    "\u2581assistant": 5134,
    "\u2581Meanwhile": 5135,
    "\u2581Sophie": 5136,
    "\u2581commander": 5137,
    "\u2581glad": 5138,
    "\u2581brand": 5139,
    "\u2581eager": 5140,
    "Go": 5141,
    "\u2581Organization": 5142,
    "\u2581temporary": 5143,
    "\u25811940": 5144,
    "\u2581ignore": 5145,
    "\u2581lit": 5146,
    "\u2581mud": 5147,
    "\u2581peasant": 5148,
    "\u2581ski": 5149,
    "\u2581dynasty": 5150,
    "ulating": 5151,
    "\u258114:1": 5152,
    "\u2581largely": 5153,
    "\u2581cancer": 5154,
    "\u2581legend": 5155,
    "\u2581Municipality": 5156,
    "\u2581Commissioner": 5157,
    "\u2581insurance": 5158,
    "khi": 5159,
    "\u2581aircraft": 5160,
    "\u2581printing": 5161,
    "\u2581rescue": 5162,
    "\u2581Station": 5163,
    "\u2581belonging": 5164,
    "\u2581Alex": 5165,
    "\u2581Save": 5166,
    "\u2581Control": 5167,
    "\u2581prize": 5168,
    "\u2581opposed": 5169,
    "\u2581injured": 5170,
    "\u2581Mak": 5171,
    "\u2581taste": 5172,
    "\u2581reduce": 5173,
    "\u2581imprisonment": 5174,
    "\u2581Video": 5175,
    "\u2581entry": 5176,
    "\u2581Nazi": 5177,
    "\u2581Football": 5178,
    "\u2581White": 5179,
    "mount": 5180,
    "berg": 5181,
    "\u2581lake": 5182,
    "\u2581Moh": 5183,
    "Con": 5184,
    "\u2581Deb": 5185,
    "\u2581Change": 5186,
    "\u2581watching": 5187,
    "\u2581alcohol": 5188,
    "\u2581suicide": 5189,
    "just": 5190,
    "\u2581admit": 5191,
    "\u2581narrow": 5192,
    "\u2581officially": 5193,
    "\u2581gentle": 5194,
    "even": 5195,
    "\u2581innings": 5196,
    "\u2581throne": 5197,
    "\u2581wives": 5198,
    "\u2581educated": 5199,
    "\u2581Mission": 5200,
    "\u2581Born": 5201,
    "\u2581Martin": 5202,
    "\u2581Several": 5203,
    "\u2581confirmed": 5204,
    "\u25813:16": 5205,
    "\u2581maybe": 5206,
    "\u2581spring": 5207,
    "\u2581debt": 5208,
    "\u2581Rai": 5209,
    "\u2581tourist": 5210,
    "\u2581titled": 5211,
    "\u2581palace": 5212,
    "chu": 5213,
    "\u2581prisoners": 5214,
    "\u2581blessed": 5215,
    "fall": 5216,
    "LE": 5217,
    "\u2581Abdullah": 5218,
    "\u2581exception": 5219,
    "break": 5220,
    "200": 5221,
    "\u2581absence": 5222,
    "\u2581Article": 5223,
    "\u2581Sai": 5224,
    "\u2581distinguish": 5225,
    "\u2581participation": 5226,
    "\u2581Create": 5227,
    "MA": 5228,
    "\u2581sovereignty": 5229,
    "\u2581overcome": 5230,
    "\u2581colonial": 5231,
    "\u2581tender": 5232,
    "\u2581drawing": 5233,
    "qa": 5234,
    "\u2581silent": 5235,
    "\u2581covering": 5236,
    "\u2581guess": 5237,
    "\u2581fucking": 5238,
    "\u2581Judge": 5239,
    "\u258117:1": 5240,
    "\u2581cool": 5241,
    "jay": 5242,
    "\u2581contributed": 5243,
    "\u2581causing": 5244,
    "\u2581pride": 5245,
    "\u2581Gandhi": 5246,
    "\u2581admitted": 5247,
    "\u2581employer": 5248,
    "\u2581dismiss": 5249,
    "\u2581proof": 5250,
    "\u2581innocent": 5251,
    "\u2581rejected": 5252,
    "pati": 5253,
    "\u2581achieve": 5254,
    "\u2581collected": 5255,
    "\u2581BY": 5256,
    "unct": 5257,
    "\u2581jump": 5258,
    "ground": 5259,
    "\u2581mix": 5260,
    "\u2581Rule": 5261,
    "\u2581seriously": 5262,
    "\u2581Long": 5263,
    "\u2581Cambodia": 5264,
    "\u2581banned": 5265,
    "\u2581Political": 5266,
    "AM": 5267,
    "\u2581printed": 5268,
    "\u2581Dutch": 5269,
    "\u2581meat": 5270,
    "\u2581withdraw": 5271,
    "\u2581latest": 5272,
    "\u2581agriculture": 5273,
    "\u2581Daily": 5274,
    "\u2581smaller": 5275,
    "dev": 5276,
    "0;": 5277,
    "\u2581brochure": 5278,
    "\u2581brick": 5279,
    "plo": 5280,
    "\u2581Add": 5281,
    "\u2581fli": 5282,
    "active": 5283,
    "\u2581Richard": 5284,
    "\u2581Hello": 5285,
    "\u2581burning": 5286,
    "\u2581Know": 5287,
    "\u2581cloud": 5288,
    "\u2581angry": 5289,
    "\u2581entirely": 5290,
    "\u2581cabinet": 5291,
    "\u2581champion": 5292,
    "\u2581ritual": 5293,
    "\u2581Access": 5294,
    "\u2581sought": 5295,
    "\u2581evolution": 5296,
    "\u2581Boy": 5297,
    "\u2581publish": 5298,
    "\u2581Win": 5299,
    "\u25811957": 5300,
    "\u2581engine": 5301,
    "\u2581inspect": 5302,
    "\u2581Think": 5303,
    "\u2581greatly": 5304,
    "\u2581apparently": 5305,
    "Sha": 5306,
    "\u2581entrance": 5307,
    "\u2581paradise": 5308,
    "\u2581Guard": 5309,
    "\u2581Thana": 5310,
    "\u2581listening": 5311,
    "\u2581neighbour": 5312,
    "\u2581Wall": 5313,
    "\u2581mixed": 5314,
    "Ezekiel": 5315,
    "\u2581policies": 5316,
    "\u2581Region": 5317,
    "\u2581prompt": 5318,
    "\u2581Lin": 5319,
    "\u2581equipment": 5320,
    "\u2581visible": 5321,
    "ifies": 5322,
    "\u258162": 5323,
    "rack": 5324,
    "lateral": 5325,
    "\u2581Business": 5326,
    "\u2581maintained": 5327,
    "pala": 5328,
    "\u2581biggest": 5329,
    "\u2581Navy": 5330,
    "\u2581contemporary": 5331,
    "\u2581partition": 5332,
    "\u2581architecture": 5333,
    "\u2581schedule": 5334,
    "\u2581solid": 5335,
    "\u2581archive": 5336,
    "\u2581Sch": 5337,
    "\u2581organised": 5338,
    "\u2581gender": 5339,
    "\u2581engineer": 5340,
    "\u25811951": 5341,
    "\u2581Executive": 5342,
    "\u2581Messiah": 5343,
    "\u2581talent": 5344,
    "\u2581coach": 5345,
    "\u2581Bridge": 5346,
    "\u2581salt": 5347,
    "\u2581Urdu": 5348,
    "\u2581agency": 5349,
    "course": 5350,
    "\u2581crack": 5351,
    "ddle": 5352,
    "\u2581suspect": 5353,
    "\u2581Sometimes": 5354,
    "\u2581Way": 5355,
    "\u2581Radio": 5356,
    "\u2581button": 5357,
    "\u2581plate": 5358,
    "\u2581terrorist": 5359,
    "town": 5360,
    "iq": 5361,
    "\u2581tribulation": 5362,
    "control": 5363,
    "\u2581delay": 5364,
    "\u2581branches": 5365,
    "\u2581budget": 5366,
    "\u2581County": 5367,
    "\u2581copies": 5368,
    "\u2581scheduled": 5369,
    "-8": 5370,
    "sexual": 5371,
    "\u2581describe": 5372,
    "\u2581sending": 5373,
    "\u2581relatively": 5374,
    "\u2581egg": 5375,
    "\u2581selection": 5376,
    "\u2581readers": 5377,
    "\u2581fuck": 5378,
    "\u2581Window": 5379,
    "India": 5380,
    "roll": 5381,
    "\u2581Tract": 5382,
    "\u2581Zo": 5383,
    "\u2581lying": 5384,
    "\u2581achieved": 5385,
    "\u2581Turkish": 5386,
    "\u2581acquired": 5387,
    "NT": 5388,
    "\u2581fashion": 5389,
    "\u2581focused": 5390,
    "language": 5391,
    "\u2581label": 5392,
    "\u25811981": 5393,
    "zan": 5394,
    "\u2581tall": 5395,
    "bazar": 5396,
    "\u2581cease": 5397,
    "\u25811956": 5398,
    "\u2581Premier": 5399,
    "\u2581Tamil": 5400,
    "\u2581Cap": 5401,
    "\u2581Azerbaijan": 5402,
    "\u2581prohibit": 5403,
    "\u25811946": 5404,
    "\u2581disciple": 5405,
    "\u2581Ask": 5406,
    "\u2581shit": 5407,
    "direct": 5408,
    "\u2581Cast": 5409,
    "\u2581lecture": 5410,
    "\u2581answered": 5411,
    "\u2581spin": 5412,
    "\u2581featured": 5413,
    "state": 5414,
    "\u2581presidential": 5415,
    "DP": 5416,
    "person": 5417,
    "\u25812:4": 5418,
    "\u2581dollars": 5419,
    "\u2581intended": 5420,
    "\u2581analysis": 5421,
    "Vidhan": 5422,
    "\u258161": 5423,
    "\u2581succeed": 5424,
    "ux": 5425,
    "\u2581flock": 5426,
    "\u2581Turk": 5427,
    "\u2581collapse": 5428,
    "ano": 5429,
    "citation": 5430,
    "\u2581potato": 5431,
    "yana": 5432,
    "\u2581extremely": 5433,
    "\u2581Which": 5434,
    "\u2581pretty": 5435,
    "\u2581cow": 5436,
    "\u2581Import": 5437,
    "\u2581Hasan": 5438,
    "\u2581Nobel": 5439,
    "\u2581Blog": 5440,
    "\u2581Current": 5441,
    "\u2581Narayan": 5442,
    "keeper": 5443,
    "\u2581estate": 5444,
    "\u2581delivered": 5445,
    "\u2581encouraging": 5446,
    "\u2581thrill": 5447,
    "\u2581bone": 5448,
    "\u2581classical": 5449,
    "\u2581tele": 5450,
    "\u2581fulfilled": 5451,
    "\u2581spell": 5452,
    "\u2581persecution": 5453,
    "\u2581universal": 5454,
    "\u2581Summer": 5455,
    "Jo": 5456,
    "\u2581darkness": 5457,
    "\u2581electronic": 5458,
    "word": 5459,
    "\u258111:2": 5460,
    "\u2581authentic": 5461,
    "\u2581signature": 5462,
    "Rev": 5463,
    "\u2581publisher": 5464,
    "\u2581Message": 5465,
    "\u2581declare": 5466,
    "\u2581Battle": 5467,
    "\u2581permit": 5468,
    "\u2581Armenian": 5469,
    "\u2581sample": 5470,
    "\u2581modest": 5471,
    "\u2581peak": 5472,
    "\u2581awareness": 5473,
    "\u2581participant": 5474,
    "\u2581bottom": 5475,
    "\u2581khan": 5476,
    "\u2581capable": 5477,
    "\u2581miracle": 5478,
    "\u25811958": 5479,
    "\u2581Van": 5480,
    "\u2581campus": 5481,
    "\u2581Stadium": 5482,
    "\u2581exploit": 5483,
    "\u2581Ireland": 5484,
    "\u2581saving": 5485,
    "\u2581Friday": 5486,
    "\u2581grass": 5487,
    "\u2581default": 5488,
    "\u2581medieval": 5489,
    "\u2581Henry": 5490,
    "chang": 5491,
    "\u2581Find": 5492,
    "media": 5493,
    "\u2581Ty": 5494,
    "\u2581Review": 5495,
    "\u2581arrive": 5496,
    "\u2581Dam": 5497,
    "output": 5498,
    "\u2581150": 5499,
    "\u2581sail": 5500,
    "\u2581wine": 5501,
    "\u2581celebrate": 5502,
    "\u2581RE": 5503,
    "\u2581warned": 5504,
    "\u2581Gor": 5505,
    "\u2581Communist": 5506,
    "\u2581advocate": 5507,
    "\u2581utter": 5508,
    "\u2581awake": 5509,
    "\u2581passage": 5510,
    "\u2581multiple": 5511,
    "\u2581Mirza": 5512,
    "\u2581Fire": 5513,
    "\u2581notification": 5514,
    "\u2581cup": 5515,
    "\u2581Qui": 5516,
    "called": 5517,
    "friend": 5518,
    "Com": 5519,
    "\u258115:1": 5520,
    "phone": 5521,
    "lio": 5522,
    "\u2581enforce": 5523,
    "graphic": 5524,
    "\u2581patron": 5525,
    "\u2581extreme": 5526,
    "\u2581Nothing": 5527,
    "TA": 5528,
    "\u2581Chicago": 5529,
    "\u2581Ottoman": 5530,
    "\u2581category": 5531,
    "\u2581email": 5532,
    "\u2581surrounded": 5533,
    "\u2581disturb": 5534,
    "\u25818:1": 5535,
    "\u2581grain": 5536,
    "\u2581subsequently": 5537,
    "\u2581Qatar": 5538,
    "\u2581buried": 5539,
    "\u2581Joy": 5540,
    "\u2581outstanding": 5541,
    "\u2581shelter": 5542,
    "\u2581convinced": 5543,
    "\u2581achievement": 5544,
    "\u2581arise": 5545,
    "\u2581(10": 5546,
    "\u2581complain": 5547,
    "\u2581relation": 5548,
    "\u2581atmosphere": 5549,
    "\u2581Lev": 5550,
    "\u2581Hari": 5551,
    "\u2581inhabitants": 5552,
    "\u2581finance": 5553,
    "\u2581caste": 5554,
    "mati": 5555,
    "\u2581Dev": 5556,
    "\u2581Leg": 5557,
    "\u2581Origin": 5558,
    "\u2581Comilla": 5559,
    "\u2581loyalty": 5560,
    "\u2581Studies": 5561,
    "\u2581Management": 5562,
    "\u2581Sid": 5563,
    "will": 5564,
    "\u2581burden": 5565,
    "\u2581Body": 5566,
    "Man": 5567,
    "\u2581assassin": 5568,
    "\u2581occupation": 5569,
    "\u2581Meh": 5570,
    "\u2581generate": 5571,
    "\u258116:1": 5572,
    "\u2581hole": 5573,
    "\u2581registration": 5574,
    "\u2581garment": 5575,
    "\u2581fiction": 5576,
    "bhu": 5577,
    "\u2581confirm": 5578,
    "\u2581petition": 5579,
    "\u2581Fund": 5580,
    "\u2581Express": 5581,
    "titude": 5582,
    "\u25811961": 5583,
    "\u2581poly": 5584,
    "\u2581bought": 5585,
    "\u2581element": 5586,
    "\u2581emergency": 5587,
    "\u2581steal": 5588,
    "\u2581119": 5589,
    "\u2581complaint": 5590,
    "\u2581emerged": 5591,
    "\u2581regarded": 5592,
    "\u2581psalmist": 5593,
    "\u2581Limited": 5594,
    "cover": 5595,
    "\u2581abandoned": 5596,
    "Why": 5597,
    "\u2581expansion": 5598,
    "\u2581vow": 5599,
    "\u2581celebrated": 5600,
    "\u2581easier": 5601,
    "\u2581Kuwait": 5602,
    "clude": 5603,
    "\u2581Lake": 5604,
    "\u2581Joshua": 5605,
    "\u2581contrary": 5606,
    "\u2581terminal": 5607,
    "ET": 5608,
    "integrat": 5609,
    "\u2581missionaries": 5610,
    "\u2581containing": 5611,
    "\u2581mild": 5612,
    "\u2581Mela": 5613,
    "\u2581Thomas": 5614,
    "\u2581singing": 5615,
    "\u2581Ever": 5616,
    "\u2581Argentina": 5617,
    "\u2581Operation": 5618,
    "\u2581depth": 5619,
    "\u2581deemed": 5620,
    "\u2581UEFA": 5621,
    "\u2581explanation": 5622,
    "\u2581actual": 5623,
    "ridge": 5624,
    "\u2581drag": 5625,
    "\u2581Team": 5626,
    "\u2581deserve": 5627,
    "\u25811945": 5628,
    "\u2581USA": 5629,
    "\u2581Hy": 5630,
    "\u2581predict": 5631,
    "\u2581Jatiya": 5632,
    "\u2581Judah": 5633,
    "\u2581succeeded": 5634,
    "\u2581supporters": 5635,
    "\u2581Secondary": 5636,
    "\u2581strict": 5637,
    "\u2581noticed": 5638,
    "\u2581Sign": 5639,
    "\u2581pin": 5640,
    "\u2581infrastructure": 5641,
    "\u2581Bhutan": 5642,
    "\u2581string": 5643,
    "Le": 5644,
    "ounce": 5645,
    "\u2581Having": 5646,
    "\u2581Down": 5647,
    "\u2581defense": 5648,
    "\u2581Isa": 5649,
    "HO": 5650,
    "\u2581stretch": 5651,
    "\u2581Faith": 5652,
    "cade": 5653,
    "\u2581Subject": 5654,
    "\u2581exclusive": 5655,
    "\u2581discover": 5656,
    "\u2581graduated": 5657,
    "\u2581Military": 5658,
    "\u2581Northern": 5659,
    "\u2581elderly": 5660,
    "\u2581strange": 5661,
    "\u2581Bose": 5662,
    "\u2581holiday": 5663,
    "\u2581hidden": 5664,
    "count": 5665,
    "\u2581rejoice": 5666,
    "\u25811968": 5667,
    "quest": 5668,
    "\u2581poetry": 5669,
    "\u2581emperor": 5670,
    "\u2581Account": 5671,
    "\u2581diplomatic": 5672,
    "\u2581employed": 5673,
    "\u2581childhood": 5674,
    "\u2581sufficient": 5675,
    "\u2581yield": 5676,
    "\u2581Paradise": 5677,
    "\u2581Geography": 5678,
    "\u2581Tk": 5679,
    "LO": 5680,
    "\u2581occupied": 5681,
    "\u2581Bru": 5682,
    "\u2581Legislative": 5683,
    "\u2581chain": 5684,
    "\u2581violation": 5685,
    "\u2581Sadar": 5686,
    "\u2581insist": 5687,
    "\u2581corporation": 5688,
    "\u2581replied": 5689,
    "road": 5690,
    "\u2581Training": 5691,
    "\u2581virus": 5692,
    "\u2581retired": 5693,
    "door": 5694,
    "\u2581episode": 5695,
    "\u2581BBC": 5696,
    "\u2581weakness": 5697,
    "\u2581witnessing": 5698,
    "\u2581guilty": 5699,
    "\u2581Colombia": 5700,
    "\u2581ordinary": 5701,
    "\u2581silence": 5702,
    "\u2581Auto": 5703,
    "\u2581Food": 5704,
    "And": 5705,
    "\u2581weekly": 5706,
    "\u2581distributed": 5707,
    "\u2581advanced": 5708,
    "\u2581controlled": 5709,
    "\u2581CD": 5710,
    "\u2581BA": 5711,
    "\u2581Hold": 5712,
    "\u2581Official": 5713,
    "\u2581fifth": 5714,
    "\u2581Tibet": 5715,
    "\u2581tank": 5716,
    "wide": 5717,
    "\u2581clay": 5718,
    "\u2581Maria": 5719,
    "\u2581Gene": 5720,
    "\u2581guarantee": 5721,
    "\u2581Extinct": 5722,
    "where": 5723,
    "\u2581Dec": 5724,
    "\u2581rot": 5725,
    "\u2581Karachi": 5726,
    "\u2581Kamal": 5727,
    "\u2581climb": 5728,
    "\u25811954": 5729,
    "\u25811964": 5730,
    "\u2581satisfy": 5731,
    "\u2581hunger": 5732,
    "turn": 5733,
    "present": 5734,
    "\u2581organize": 5735,
    "\u2581Check": 5736,
    "\u2581alongside": 5737,
    "TV": 5738,
    "\u2581democratic": 5739,
    "\u2581considerable": 5740,
    "\u2581gall": 5741,
    "\u2581threatened": 5742,
    "\u2581arrival": 5743,
    "\u2581earliest": 5744,
    "\u2581grateful": 5745,
    "\u2581properties": 5746,
    "\u2581suggestions": 5747,
    "after": 5748,
    "\u2581Harry": 5749,
    "\u2581donation": 5750,
    "\u25816:3": 5751,
    "\u2581Francis": 5752,
    "\u2581eternal": 5753,
    "\u2581drain": 5754,
    "\u2581exile": 5755,
    "\u2581valley": 5756,
    "\u2581suitable": 5757,
    "PP": 5758,
    "\u2581agencies": 5759,
    "\u2581Rangpur": 5760,
    "\u2581pour": 5761,
    "\u2581excellent": 5762,
    "\u2581Friend": 5763,
    "giving": 5764,
    "\u2581virtual": 5765,
    "\u2581reputation": 5766,
    "\u2581Sangsad": 5767,
    "\u25819:1": 5768,
    "\u2581cooperation": 5769,
    "\u2581Saturday": 5770,
    "\u2581Child": 5771,
    "\u2581Den": 5772,
    "\u2581accordance": 5773,
    "\u2581zealous": 5774,
    "\u2581sport": 5775,
    "\u2581Theocratic": 5776,
    "\u2581denied": 5777,
    "\u2581Religious": 5778,
    "\u2581refresh": 5779,
    "\u2581span": 5780,
    "\u2581Visit": 5781,
    "\u2581refuse": 5782,
    "\u2581gather": 5783,
    "\u2581Text": 5784,
    "operative": 5785,
    "vious": 5786,
    "\u2581grandfather": 5787,
    "\u2581reply": 5788,
    "\u2581continent": 5789,
    "\u2581Louis": 5790,
    "\u2581remarkable": 5791,
    "\u2581insect": 5792,
    "\u2581Grant": 5793,
    "\u2581promoted": 5794,
    "acre": 5795,
    "\u2581resistance": 5796,
    "\u2581surprised": 5797,
    "\u2581Very": 5798,
    "\u2581statue": 5799,
    "LL": 5800,
    "\u2581Front": 5801,
    "\u2581maximum": 5802,
    "\u2581graduate": 5803,
    "\u2581Holmes": 5804,
    "\u2581Learn": 5805,
    "\u2581Hand": 5806,
    "dict": 5807,
    "\u2581Camp": 5808,
    "\u2581Key": 5809,
    "\u2581wearing": 5810,
    "\u258159.5%:": 5811,
    "\u2581liberal": 5812,
    "\u2581craft": 5813,
    "\u2581coastal": 5814,
    "\u2581bamboo": 5815,
    "\u2581recipient": 5816,
    "\u2581component": 5817,
    "\u2581Max": 5818,
    "\u2581sentenced": 5819,
    "\u2581hydro": 5820,
    "\u2581motor": 5821,
    "\u2581fled": 5822,
    "\u2581Nazrul": 5823,
    "\u2581constant": 5824,
    "\u2581Natural": 5825,
    "\u2581Flo": 5826,
    "\u2581loose": 5827,
    "\u2581Vol": 5828,
    "\u2581accompanied": 5829,
    "\u2581seal": 5830,
    "\u2581Literature": 5831,
    "\u2581anymore": 5832,
    "\u2581changing": 5833,
    "\u25811963": 5834,
    "\u2581Code": 5835,
    "\u2581impart": 5836,
    "\u2581Georgia": 5837,
    "\u2581manuscript": 5838,
    "\u2581rail": 5839,
    "Ephesians": 5840,
    "mph": 5841,
    "\u2581icon": 5842,
    "\u2581immediate": 5843,
    "\u2581trick": 5844,
    "\u2581Edward": 5845,
    "\u2581Chronicles": 5846,
    "\u2581Additional": 5847,
    "\u2581Initial": 5848,
    "\u2581draft": 5849,
    "\u2581humility": 5850,
    "\u25811919": 5851,
    "\u2581Never": 5852,
    "claim": 5853,
    "\u2581Elijah": 5854,
    "\u2581Modern": 5855,
    "\u2581Mohammed": 5856,
    "\u2581Moscow": 5857,
    "\u2581manage": 5858,
    "\u2581bold": 5859,
    "\u2581ocean": 5860,
    "\u2581Six": 5861,
    "\u2581Primary": 5862,
    "\u2581lady": 5863,
    "government": 5864,
    "\u2581neck": 5865,
    "\u2581gang": 5866,
    "\u2581madrasa": 5867,
    "\u2581crown": 5868,
    "\u2581relative": 5869,
    "\u2581lion": 5870,
    "\u2581slowly": 5871,
    "\u2581neutral": 5872,
    "\u2581dedication": 5873,
    "\u2581repair": 5874,
    "\u2581quit": 5875,
    "\u2581restored": 5876,
    "RC": 5877,
    "\u2581Pun": 5878,
    "\u2581terrible": 5879,
    "\u2581widespread": 5880,
    "\u25812.0": 5881,
    "\u25811966": 5882,
    "\u2581Welcome": 5883,
    "\u2581Taiwan": 5884,
    "\u2581recognise": 5885,
    "\u2581deputy": 5886,
    "\u2581aspect": 5887,
    "\u2581leaf": 5888,
    "\u2581publishing": 5889,
    "mmer": 5890,
    "\u2581directory": 5891,
    "\u2581Hussain": 5892,
    "\u2581Venezuela": 5893,
    "\u2581Square": 5894,
    "found": 5895,
    "\u2581designated": 5896,
    "\u2581socio": 5897,
    "logical": 5898,
    "\u2581execution": 5899,
    "4,000": 5900,
    "\u2581dust": 5901,
    "tress": 5902,
    "\u2581jurisdiction": 5903,
    "\u2581Ocean": 5904,
    "\u2581fri": 5905,
    "\u2581snow": 5906,
    "\u2581recruit": 5907,
    "\u2581Schedule": 5908,
    "\u2581Ganges": 5909,
    "Eph": 5910,
    "ique": 5911,
    "\u2581Thessalonians": 5912,
    "\u2581minimum": 5913,
    "\u2581Greece": 5914,
    "\u2581combined": 5915,
    "\u2581provincial": 5916,
    "craft": 5917,
    "\u2581bride": 5918,
    "\u2581Flickr": 5919,
    "OL": 5920,
    "\u2581coup": 5921,
    "\u2581consumer": 5922,
    "\u2581elevation": 5923,
    "\u2581appoint": 5924,
    "\u2581Due": 5925,
    "\u2581extension": 5926,
    "\u2581afternoon": 5927,
    "\u2581shout": 5928,
    "itude": 5929,
    "\u2581attached": 5930,
    "\u2581reminder": 5931,
    "\u2581filter": 5932,
    "III": 5933,
    "\u2581Talk": 5934,
    "\u2581qualify": 5935,
    "\u2581Ul": 5936,
    "\u2581Devi": 5937,
    "\u2581settle": 5938,
    "\u2581Zia": 5939,
    "\u2581overall": 5940,
    "\u2581panel": 5941,
    "\u2581perspective": 5942,
    "\u2581poison": 5943,
    "\u2581dozen": 5944,
    "\u2581plot": 5945,
    "\u2581creative": 5946,
    "\u2581audit": 5947,
    "\u2581labourer": 5948,
    "\u2581Circ": 5949,
    "\u2581sake": 5950,
    "But": 5951,
    "\u2581discreet": 5952,
    "\u2581split": 5953,
    "\u2581Philippians": 5954,
    "\u2581Anna": 5955,
    "Who": 5956,
    "\u2581cop": 5957,
    "\u2581intelligence": 5958,
    "\u2581Answer": 5959,
    "\u2581greet": 5960,
    "\u2581Isaac": 5961,
    "\u2581parliamentary": 5962,
    "\u2581recommendation": 5963,
    "\u25811949": 5964,
    "\u2581diploma": 5965,
    "\u2581Indies": 5966,
    "\u2581rising": 5967,
    "\u2581Valley": 5968,
    "\u2581pig": 5969,
    "\u2581combination": 5970,
    "\u2581Off": 5971,
    "\u2581nationalist": 5972,
    "\u2581Metro": 5973,
    "\u2581definite": 5974,
    "\u2581cruel": 5975,
    "\u2581visitors": 5976,
    "\u2581differ": 5977,
    "UN": 5978,
    "\u2581doctrine": 5979,
    "\u25815:3": 5980,
    "\u2581infant": 5981,
    "\u2581yellow": 5982,
    "\u2581Network": 5983,
    "\u2581external": 5984,
    "\u2581Sorry": 5985,
    "\u25816:2": 5986,
    "\u2581stadium": 5987,
    "\u2581afford": 5988,
    "\u2581tube": 5989,
    "\u2581Deputy": 5990,
    "\u2581netizens": 5991,
    "\u2581giant": 5992,
    "\u2581Light": 5993,
    "Embassy": 5994,
    "\u2581discharge": 5995,
    "source": 5996,
    "\u2581Fish": 5997,
    "\u2581Ven": 5998,
    "\u2581oppose": 5999,
    "\u2581implementation": 6000,
    "\u2581Everyone": 6001,
    "\u2581motive": 6002,
    "\u2581loud": 6003,
    "\u2581mob": 6004,
    "\u258119:1": 6005,
    "ville": 6006,
    "Ex": 6007,
    "\u2581acceptable": 6008,
    "\u2581thorough": 6009,
    "\u2581Luc": 6010,
    "\u2581urge": 6011,
    "\u2581bazars": 6012,
    "\u2581Care": 6013,
    "\u2581struck": 6014,
    "eastern": 6015,
    "CT": 6016,
    "\u2581Freedom": 6017,
    "mov": 6018,
    "\u2581surrender": 6019,
    "\u2581riot": 6020,
    "\u2581Barisal": 6021,
    "\u2581instant": 6022,
    "\u2581Govern": 6023,
    "Compare": 6024,
    "\u2581stupid": 6025,
    "\u2581introduce": 6026,
    "\u2581Theatre": 6027,
    "\u2581shame": 6028,
    "\u2581emerge": 6029,
    "\u2581persist": 6030,
    "\u2581formula": 6031,
    "\u2581hashtag": 6032,
    "\u2581expense": 6033,
    "\u2581telephone": 6034,
    "\u2581120": 6035,
    "\u2581vary": 6036,
    "\u2581everywhere": 6037,
    "\u2581Hol": 6038,
    "\u2581Abul": 6039,
    "\u2581exposed": 6040,
    "\u2581Gospel": 6041,
    "also": 6042,
    "\u2581drew": 6043,
    "\u2581Gupta": 6044,
    "\u258112:2": 6045,
    "lessness": 6046,
    "\u2581Furthermore": 6047,
    "\u2581Independence": 6048,
    "productive": 6049,
    "\u25811955": 6050,
    "\u2581Katherine": 6051,
    "\u2581restaurant": 6052,
    "\u2581adjust": 6053,
    "\u2581dramatic": 6054,
    "\u2581judicial": 6055,
    "\u2581renamed": 6056,
    "\u2581Folder": 6057,
    "\u2581Editor": 6058,
    "making": 6059,
    "\u2581truck": 6060,
    "\u2581smoke": 6061,
    "\u2581anniversary": 6062,
    "\u2581territories": 6063,
    "\u25811959": 6064,
    "\u2581Five": 6065,
    "Gen": 6066,
    "\u2581equi": 6067,
    "\u2581wake": 6068,
    "\u2581400": 6069,
    "\u2581cope": 6070,
    "\u2581yesterday": 6071,
    "\u2581nurse": 6072,
    "\u2581bitter": 6073,
    "box": 6074,
    "\u2581league": 6075,
    ":11,": 6076,
    "\u2581losing": 6077,
    "\u2581Sudan": 6078,
    "\u2581wheel": 6079,
    "\u2581rebellion": 6080,
    "\u2581Career": 6081,
    "\u2581Mujib": 6082,
    "\u2581crash": 6083,
    "\u2581Emperor": 6084,
    "\u2581Type": 6085,
    "\u2581assess": 6086,
    "\u2581yourselves": 6087,
    "\u2581brutal": 6088,
    "\u2581strive": 6089,
    "\u2581intense": 6090,
    "\u2581expectation": 6091,
    "\u2581chart": 6092,
    "\u2581Band": 6093,
    "\u2581worst": 6094,
    "\u2581assumed": 6095,
    "\u2581sugar": 6096,
    "\u2581bow": 6097,
    "\u2581Palestine": 6098,
    "\u2581dying": 6099,
    "\u2581Karim": 6100,
    "\u2581Environment": 6101,
    "\u2581Lebanon": 6102,
    "\u2581liquid": 6103,
    "\u2581Nigeria": 6104,
    "\u2581smart": 6105,
    "\u2581commend": 6106,
    "\u25811953": 6107,
    "\u2581obligation": 6108,
    "\u2581observation": 6109,
    "\u2581sculpture": 6110,
    "\u2581comb": 6111,
    "\u2581improvement": 6112,
    "\u2581devoted": 6113,
    "\u2581Taj": 6114,
    "\u2581communicate": 6115,
    "NG": 6116,
    "\u2581tribal": 6117,
    "New": 6118,
    "\u2581executed": 6119,
    "\u2581Democratic": 6120,
    "\u2581Netherlands": 6121,
    "\u2581Madrid": 6122,
    "\u2581VI": 6123,
    "\u2581Philip": 6124,
    "\u2581stuff": 6125,
    "\u2581Lahore": 6126,
    ":13)": 6127,
    "\u2581injustice": 6128,
    "\u2581Dur": 6129,
    "\u2581Close": 6130,
    "\u2581Tro": 6131,
    "\u2581Teacher": 6132,
    "\u2581involving": 6133,
    "\u2581preparing": 6134,
    "\u2581Block": 6135,
    "\u2581Kala": 6136,
    "\u2581impressed": 6137,
    "\u2581collective": 6138,
    "\u2581helpful": 6139,
    "\u2581Tagore": 6140,
    "\u2581mature": 6141,
    "\u2581typically": 6142,
    "\u2581confront": 6143,
    "\u2581comedy": 6144,
    "\u2581weigh": 6145,
    "\u2581Apart": 6146,
    "\u2581cultivation": 6147,
    "\u2581relevant": 6148,
    "\u2581derived": 6149,
    "\u2581birthday": 6150,
    "\u2581insight": 6151,
    "\u2581goddess": 6152,
    "hati": 6153,
    "\u2581Bahadur": 6154,
    "\u2581Uganda": 6155,
    "\u2581empower": 6156,
    "\u2581Conference": 6157,
    "\u2581submitted": 6158,
    "\u25814:8": 6159,
    "\u2581Protect": 6160,
    "\u2581Ibrahim": 6161,
    "\u2581disorder": 6162,
    "\u2581ornament": 6163,
    "\u2581Mymensingh": 6164,
    "\u2581continuous": 6165,
    "operation": 6166,
    "\u2581parallel": 6167,
    "\u2581driving": 6168,
    "\u2581bullet": 6169,
    "\u2581endeavor": 6170,
    "\u2581obedient": 6171,
    "keep": 6172,
    "\u2581Unable": 6173,
    "\u2581producing": 6174,
    "\u2581flash": 6175,
    "\u2581copper": 6176,
    "\u2581shoe": 6177,
    "\u2581resurrected": 6178,
    "\u2581Convention": 6179,
    "\u2581noble": 6180,
    "\u2581package": 6181,
    "\u2581layer": 6182,
    "\u2581unexpected": 6183,
    "\u2581Parishad": 6184,
    "\u2581successor": 6185,
    "\u2581Champion": 6186,
    "\u2581GOD": 6187,
    "\u2581raising": 6188,
    "\u2581emphasize": 6189,
    "\u2581assured": 6190,
    "\u2581Chile": 6191,
    "\u2581capture": 6192,
    "\u2581tired": 6193,
    "\u2581attendance": 6194,
    "\u2581dignity": 6195,
    "\u2581constantly": 6196,
    "\u2581Edmond": 6197,
    "PR": 6198,
    "\u2581Tara": 6199,
    "\u2581Agricultural": 6200,
    "\u2581neglect": 6201,
    "\u2581begun": 6202,
    "\u2581dropped": 6203,
    "\u2581slip": 6204,
    "posi": 6205,
    "\u2581Kazi": 6206,
    "\u2581Alexander": 6207,
    "\u2581harsh": 6208,
    "\u2581grade": 6209,
    "\u2581exact": 6210,
    "\u2581anxiety": 6211,
    "\u2581romantic": 6212,
    "\u2581prevail": 6213,
    "\u2581enhance": 6214,
    "\u2581Prior": 6215,
    "\u2581Buddha": 6216,
    "\u2581Average": 6217,
    "\u2581Television": 6218,
    "\u2581visual": 6219,
    "\u2581Shiva": 6220,
    "\u25811942": 6221,
    "\u2581Gilead": 6222,
    "\u2581imperial": 6223,
    "\u25812:3": 6224,
    "\u2581Bharat": 6225,
    "\u2581hypo": 6226,
    "\u2581Flood": 6227,
    "\u2581Staff": 6228,
    "Islami": 6229,
    "\u2581Medal": 6230,
    "\u25811943": 6231,
    "\u2581HIV": 6232,
    "\u2581Until": 6233,
    "\u2581Akbar": 6234,
    "\u2581obstacle": 6235,
    "\u2581Comm": 6236,
    "\u2581determination": 6237,
    "\u2581difficulties": 6238,
    "\u2581await": 6239,
    "free": 6240,
    "\u2581musician": 6241,
    "\u2581%1": 6242,
    "\u2581Obama": 6243,
    "\u2581Tele": 6244,
    "\u2581deeds": 6245,
    "\u2581Highway": 6246,
    "\u2581Little": 6247,
    "\u2581Page": 6248,
    "\u2581Sarah": 6249,
    "\u2581margin": 6250,
    "\u2581Haque": 6251,
    "\u2581pest": 6252,
    "Mark": 6253,
    "\u2581definition": 6254,
    "\u2581substance": 6255,
    "\u2581hatred": 6256,
    "\u2581soldier": 6257,
    "\u2581Cross": 6258,
    "hear": 6259,
    "\u2581Clearly": 6260,
    "\u2581promotion": 6261,
    "\u258115:2": 6262,
    "\u2581threaten": 6263,
    "\u2581tight": 6264,
    "\u25816:9": 6265,
    "\u2581Whatever": 6266,
    "\u2581brac": 6267,
    "\u2581satisfaction": 6268,
    "\u2581patience": 6269,
    "Job": 6270,
    "\u2581quoted": 6271,
    "\u2581Turn": 6272,
    "\u2581destination": 6273,
    "\u2581Journal": 6274,
    "\u2581ticket": 6275,
    "\u2581famine": 6276,
    "UL": 6277,
    "who": 6278,
    "\u25817:2": 6279,
    "\u2581impression": 6280,
    "\u2581wanna": 6281,
    "\u2581Try": 6282,
    "\u2581fool": 6283,
    "\u2581pollution": 6284,
    "\u2581maintenance": 6285,
    "respect": 6286,
    "human": 6287,
    "\u2581bless": 6288,
    "\u2581palm": 6289,
    "\u2581Ghosh": 6290,
    "\u2581aggr": 6291,
    "\u2581householder": 6292,
    "\u2581eliminate": 6293,
    "\u2581joke": 6294,
    "\u2581Thai": 6295,
    "\u2581Chapter": 6296,
    "\u2581kick": 6297,
    "\u2581Cuba": 6298,
    "\u2581switch": 6299,
    "\u2581gross": 6300,
    "chha": 6301,
    "\u2581Wikipedia": 6302,
    "\u2581emphasis": 6303,
    "\u2581pilot": 6304,
    "\u2581psycho": 6305,
    "\u2581subscribe": 6306,
    "\u2581offline": 6307,
    "\u2581mechanic": 6308,
    "\u2581neighborhood": 6309,
    "\u2581sang": 6310,
    "\u2581tie": 6311,
    "\u2581declaration": 6312,
    "\u2581sponsor": 6313,
    "\u2581sultan": 6314,
    "\u2581descend": 6315,
    "\u2581unlike": 6316,
    "\u2581restore": 6317,
    "\u2581Version": 6318,
    "\u2581profession": 6319,
    "\u2581Imam": 6320,
    "\u2581alert": 6321,
    "\u2581Ibn": 6322,
    "\u2581client": 6323,
    "\u25814:3": 6324,
    "\u2581Rang": 6325,
    "flow": 6326,
    "ordinate": 6327,
    "\u2581Buddhism": 6328,
    "\u2581conviction": 6329,
    "\u2581Mahmud": 6330,
    "\u2581essay": 6331,
    "\u2581thirty": 6332,
    "\u2581personnel": 6333,
    "\u2581Leader": 6334,
    "western": 6335,
    "\u2581stranger": 6336,
    "\u2581twelve": 6337,
    "\u2581nobody": 6338,
    "\u2581copyright": 6339,
    "\u2581zeal": 6340,
    "\u2581compound": 6341,
    "\u2581rip": 6342,
    "\u2581documentary": 6343,
    "\u2581rally": 6344,
    "\u2581strip": 6345,
    "\u2581pursuit": 6346,
    "\u2581initiated": 6347,
    "\u2581Enter": 6348,
    "\u2581Garden": 6349,
    "\u2581Full": 6350,
    "\u2581Victoria": 6351,
    "\u2581popularity": 6352,
    "rural": 6353,
    "\u2581Dinajpur": 6354,
    "\u2581possibility": 6355,
    "\u2581Translation": 6356,
    "\u2581obedience": 6357,
    "\u2581societies": 6358,
    "credit": 6359,
    "aunt": 6360,
    "\u2581GO": 6361,
    "\u2581significance": 6362,
    "\u2581passion": 6363,
    "\u2581Rashid": 6364,
    "\u2581joyful": 6365,
    "\u2581Shri": 6366,
    "ppl": 6367,
    "\u2581Maldives": 6368,
    "\u2581knock": 6369,
    ":10,": 6370,
    "\u2581subsequent": 6371,
    "\u2581Building": 6372,
    "\u2581administer": 6373,
    "\u2581stake": 6374,
    "\u2581Sports": 6375,
    "\u2581Edit": 6376,
    "\u2581Morocco": 6377,
    "\u2581domain": 6378,
    "\u2581Khu": 6379,
    "\u2581register": 6380,
    "\u2581discovery": 6381,
    "\u2581starred": 6382,
    "nished": 6383,
    "\u2581rush": 6384,
    "\u2581teenager": 6385,
    "\u2581Mountain": 6386,
    "\u2581Imagine": 6387,
    "posing": 6388,
    "American": 6389,
    "\u2581Bangabandhu": 6390,
    "\u2581phrase": 6391,
    "\u25811944": 6392,
    "\u2581mourn": 6393,
    "\u2581currency": 6394,
    "\u2581Seven": 6395,
    "\u2581chamber": 6396,
    "bound": 6397,
    "\u2581estimate": 6398,
    "\u2581favorite": 6399,
    "\u2581horizon": 6400,
    "\u2581imprisoned": 6401,
    "\u2581Third": 6402,
    "\u2581ratio": 6403,
    "\u2581consistent": 6404,
    "\u2581advertise": 6405,
    "\u2581influential": 6406,
    "\u2581uniform": 6407,
    "\u2581Record": 6408,
    "\u2581profile": 6409,
    "\u2581fate": 6410,
    "\u2581forgiveness": 6411,
    "That": 6412,
    "\u2581Lieutenant": 6413,
    "Bangladesh": 6414,
    "\u2581beloved": 6415,
    "\u2581explore": 6416,
    "\u2581cult": 6417,
    "\u2581stamp": 6418,
    "\u2581selfish": 6419,
    "\u2581controversial": 6420,
    "\u2581Spiritual": 6421,
    "\u2581thin": 6422,
    "\u2581oppress": 6423,
    "\u2581regret": 6424,
    "\u2581everyday": 6425,
    "\u2581outcome": 6426,
    "\u25811939": 6427,
    "\u2581elephant": 6428,
    "\u2581resolution": 6429,
    "\u2581delegate": 6430,
    "\u2581Multi": 6431,
    "\u2581Culture": 6432,
    "\u2581armies": 6433,
    "\u2581crush": 6434,
    "\u2581Padma": 6435,
    "\u2581literally": 6436,
    "fact": 6437,
    "\u2581sect": 6438,
    "\u2581spite": 6439,
    "\u2581neuro": 6440,
    "\u2581cotton": 6441,
    "\u2581conquest": 6442,
    "\u2581municipal": 6443,
    "stitute": 6444,
    "gupta": 6445,
    "\u2581acquire": 6446,
    "\u25811937": 6447,
    "\u2581pronoun": 6448,
    "\u2581alien": 6449,
    "\u2581Truth": 6450,
    "\u2581convey": 6451,
    "\u2581symbolic": 6452,
    "\u2581Ethiopia": 6453,
    "\u2581cartoon": 6454,
    "\u2581bengal": 6455,
    "\u2581routine": 6456,
    "\u2581pocket": 6457,
    "\u2581concentrate": 6458,
    "\u2581FOR": 6459,
    "\u2581Again": 6460,
    "\u2581Allah": 6461,
    "\u2581Chu": 6462,
    "\u2581specifically": 6463,
    "kumar": 6464,
    "\u2581Indonesian": 6465,
    "\u2581remittance": 6466,
    "\u2581Smith": 6467,
    "\u2581insult": 6468,
    "\u2581absorb": 6469,
    "\u2581Macedonia": 6470,
    "\u2581detained": 6471,
    "\u2581combat": 6472,
    "\u2581decrease": 6473,
    "\u2581Abbas": 6474,
    "\u2581Trade": 6475,
    "\u2581Mujibur": 6476,
    "\u2581anxious": 6477,
    "urban": 6478,
    "\u2581Globe": 6479,
    "\u2581snake": 6480,
    "\u2581Zu": 6481,
    "\u2581anywhere": 6482,
    "\u2581Contact": 6483,
    "\u2581decree": 6484,
    "\u2581riches": 6485,
    "\u2581fabric": 6486,
    "\u2581unusual": 6487,
    "\u2581ongoing": 6488,
    "\u2581entrepreneur": 6489,
    "\u2581perceive": 6490,
    "\u2581Address": 6491,
    "\u2581criticized": 6492,
    "\u2581cycle": 6493,
    "\u2581somewhere": 6494,
    "\u2581progressive": 6495,
    "\u2581beneficial": 6496,
    "\u2581worried": 6497,
    "\u2581imposed": 6498,
    "\u2581Certificate": 6499,
    "\u2581Mol": 6500,
    "\u2581lord": 6501,
    "\u2581beast": 6502,
    "\u2581swim": 6503,
    "\u2581fallen": 6504,
    "\u2581Stay": 6505,
    "\u2581storage": 6506,
    "\u2581Journalist": 6507,
    "\u2581amazing": 6508,
    "DC": 6509,
    "50,000": 6510,
    "\u2581scream": 6511,
    "\u2581expensive": 6512,
    "\u2581mainstream": 6513,
    "\u2581revolutionary": 6514,
    "\u2581everybody": 6515,
    "\u2581Albert": 6516,
    "\u2581Further": 6517,
    "\u2581Tokyo": 6518,
    "\u2581slightly": 6519,
    "\u2581shah": 6520,
    "\u2581idol": 6521,
    "General": 6522,
    "\u25811:3": 6523,
    "\u2581edge": 6524,
    "\u2581erect": 6525,
    "\u2581Sindh": 6526,
    "\u2581Everything": 6527,
    "\u2581raid": 6528,
    "\u2581Bho": 6529,
    "800": 6530,
    "\u25811,000": 6531,
    "\u2581commitment": 6532,
    "\u2581ancestor": 6533,
    "\u2581HOW": 6534,
    "\u2581greed": 6535,
    "\u2581arrange": 6536,
    "\u2581fame": 6537,
    "\u2581embassy": 6538,
    "\u2581runner": 6539,
    "eshwar": 6540,
    "\u2581Beijing": 6541,
    "\u2581assault": 6542,
    "\u2581colleague": 6543,
    "\u2581generous": 6544,
    "throp": 6545,
    "\u2581irre": 6546,
    "\u2581tiny": 6547,
    "\u2581Industrial": 6548,
    "\u2581terrorism": 6549,
    "\u2581compare": 6550,
    "from": 6551,
    "\u2581Hope": 6552,
    "\u258120:2": 6553,
    "\u2581sentiment": 6554,
    "\u2581Aziz": 6555,
    "\u2581Story": 6556,
    "\u2581breed": 6557,
    "\u2581WHAT": 6558,
    "\u2581uncertain": 6559,
    "\u2581martyr": 6560,
    "plication": 6561,
    "\u2581Archive": 6562,
    "graduate": 6563,
    "\u2581construct": 6564,
    "\u2581altar": 6565,
    "\u2581extract": 6566,
    "\u25814:4": 6567,
    "\u25811941": 6568,
    "\u2581sudden": 6569,
    "Chancellor": 6570,
    "about": 6571,
    "\u2581Mandir": 6572,
    "\u25811921": 6573,
    "\u2581confess": 6574,
    "minded": 6575,
    "\u2581Display": 6576,
    "\u2581shortage": 6577,
    "\u2581apartment": 6578,
    "\u2581crazy": 6579,
    "\u2581cousin": 6580,
    "\u2581Southern": 6581,
    "\u2581saint": 6582,
    "wick": 6583,
    "\u2581nearest": 6584,
    "\u2581supplies": 6585,
    "\u2581wire": 6586,
    "\u2581bigger": 6587,
    "\u2581alarm": 6588,
    "\u2581Howrah": 6589,
    "\u2581invasion": 6590,
    "\u2581courageous": 6591,
    "\u2581Follow": 6592,
    "father": 6593,
    "radi": 6594,
    "\u2581proportion": 6595,
    "\u2581Habib": 6596,
    "\u2581mutual": 6597,
    "\u25811935": 6598,
    "\u2581ought": 6599,
    "\u2581philosopher": 6600,
    "\u2581flourish": 6601,
    "\u2581endurance": 6602,
    "\u2581Chha": 6603,
    "\u2581transportation": 6604,
    "\u2581Durga": 6605,
    "\u2581honey": 6606,
    "\u2581Credit": 6607,
    "\u2581Finance": 6608,
    "\u2581Lead": 6609,
    "100": 6610,
    "\u2581adequate": 6611,
    "\u2581coffee": 6612,
    "\u2581embrace": 6613,
    "\u2581Zimbabwe": 6614,
    "\u2581athlete": 6615,
    "\u2581workshop": 6616,
    "\u2581insert": 6617,
    "\u2581knee": 6618,
    "\u2581Return": 6619,
    "\u2581PAGE": 6620,
    "\u2581alliance": 6621,
    "endranath": 6622,
    "\u2581shadow": 6623,
    "\u2581spark": 6624,
    "\u2581banana": 6625,
    "\u25819:2": 6626,
    "Brahm": 6627,
    "\u2581violate": 6628,
    "\u2581download": 6629,
    "\u2581Stand": 6630,
    "related": 6631,
    "\u2581equivalent": 6632,
    "\u2581prejudice": 6633,
    "\u2581vest": 6634,
    "\u2581abandon": 6635,
    "\u2581genetic": 6636,
    "\u2581assert": 6637,
    "\u25818:2": 6638,
    "\u2581Institution": 6639,
    "\u2581pornography": 6640,
    "\u2581Taliban": 6641,
    "\u2581afflict": 6642,
    "\u2581Rabindranath": 6643,
    "\u2581Upon": 6644,
    "\u2581Thousand": 6645,
    "\u2581brown": 6646,
    "\u2581smell": 6647,
    "\u2581queen": 6648,
    "speaking": 6649,
    "\u2581categories": 6650,
    "\u2581temptation": 6651,
    "\u2581cheap": 6652,
    "\u2581jealous": 6653,
    "\u2581Computer": 6654,
    "ario": 6655,
    "member": 6656,
    "\u2581Author": 6657,
    "\u2581borrow": 6658,
    "\u2581References": 6659,
    "\u2581studio": 6660,
    "\u2581brave": 6661,
    "icide": 6662,
    "\u2581Standard": 6663,
    "national": 6664,
    "\u2581Heart": 6665,
    "\u2581Steve": 6666,
    "\u2581blogging": 6667,
    "\u2581Gopal": 6668,
    "\u2581FROM": 6669,
    "\u2581configuration": 6670,
    "\u2581enormous": 6671,
    "\u2581monarch": 6672,
    "\u2581Cairo": 6673,
    "\u2581resort": 6674,
    "\u2581lamp": 6675,
    "\u2581Assistant": 6676,
    "\u2581disagree": 6677,
    "\u2581Christendom": 6678,
    "\u2581somewhat": 6679,
    "\u2581infection": 6680,
    "\u25811931": 6681,
    "\u2581offend": 6682,
    "\u2581Between": 6683,
    "\u2581completion": 6684,
    "\u2581funeral": 6685,
    "\u2581weekend": 6686,
    "\u2581plague": 6687,
    "\u2581typical": 6688,
    "\u2581keen": 6689,
    "\u2581facility": 6690,
    "\u2581physician": 6691,
    "\u258110:3": 6692,
    "\u2581Saf": 6693,
    "\u2581partnership": 6694,
    "\u2581Gho": 6695,
    "\u2581Oxford": 6696,
    "\u2581memorial": 6697,
    "\u2581subcontinent": 6698,
    "\u2581heavily": 6699,
    "\u2581subdivision": 6700,
    "\u2581grasp": 6701,
    "\u2581tension": 6702,
    "\u2581consent": 6703,
    "\u2581Ancient": 6704,
    "\u2581Fisheries": 6705,
    "\u2581depression": 6706,
    "\u2581define": 6707,
    "\u2581Parents": 6708,
    "\u2581Sharif": 6709,
    "\u2581assume": 6710,
    "ananda": 6711,
    "\u2581resource": 6712,
    "\u25811938": 6713,
    "\u2581Provincial": 6714,
    "\u2581batsman": 6715,
    "\u2581Ltd": 6716,
    "\u2581Spirit": 6717,
    "\u2581latitudes": 6718,
    "\u2581Honor": 6719,
    "\u2581Kabul": 6720,
    "\u2581boycott": 6721,
    "\u2581collaboration": 6722,
    "Leviticus": 6723,
    "\u2581concert": 6724,
    "\u2581cheer": 6725,
    "\u2581Route": 6726,
    "\u2581administrator": 6727,
    "\u2581Chau": 6728,
    "\u2581painful": 6729,
    "agricultural": 6730,
    "\u2581irrigation": 6731,
    "\u2581profound": 6732,
    "\u2581worshippers": 6733,
    "\u2581betray": 6734,
    "\u2581urgent": 6735,
    "\u2581discrimination": 6736,
    "\u2581grief": 6737,
    "\u2581Paddy": 6738,
    "\u2581pillar": 6739,
    "\u25816:4": 6740,
    "\u2581immoral": 6741,
    "\u2581exhibit": 6742,
    "\u2581Prophet": 6743,
    "\u2581trigger": 6744,
    "\u2581residential": 6745,
    "while": 6746,
    "\u2581thereafter": 6747,
    "uzzaman": 6748,
    "\u25811918": 6749,
    "\u2581Huq": 6750,
    "\u2581Transport": 6751,
    "\u2581Wood": 6752,
    "\u2581bronze": 6753,
    "\u2581teeth": 6754,
    "\u2581Linux": 6755,
    "\u2581assure": 6756,
    "\u2581Unlike": 6757,
    "\u2581sinful": 6758,
    "\u2581Place": 6759,
    "\u2581Saint": 6760,
    "\u2581Arch": 6761,
    "which": 6762,
    "\u2581Citizen": 6763,
    "\u25811932": 6764,
    "\u2581operator": 6765,
    "\u2581Burma": 6766,
    "\u2581employee": 6767,
    "\u258122:1": 6768,
    "\u2581substantial": 6769,
    "\u2581slogan": 6770,
    "\u2581Defence": 6771,
    "\u2581Austria": 6772,
    "\u2581Southeast": 6773,
    "\u2581Commonwealth": 6774,
    "twitter": 6775,
    "\u2581referring": 6776,
    "\u2581casual": 6777,
    "\u2581Brazilian": 6778,
    "\u2581clergy": 6779,
    "connect": 6780,
    "\u2581Libya": 6781,
    "\u2581pleasant": 6782,
    "vul": 6783,
    "\u2581thread": 6784,
    "\u2581divide": 6785,
    "\u2581Against": 6786,
    "\u2581theater": 6787,
    "\u2581Print": 6788,
    "\u2581pound": 6789,
    "Keep": 6790,
    "\u2581mathematics": 6791,
    "\u2581virtue": 6792,
    "\u2581distant": 6793,
    "\u2581restrictions": 6794,
    "\u2581Canadian": 6795,
    "\u258124:14": 6796,
    "\u2581silk": 6797,
    "\u2581Present": 6798,
    "\u25814:6": 6799,
    "\u25811936": 6800,
    "\u2581smooth": 6801,
    "\u2581investigate": 6802,
    "\u2581Point": 6803,
    "\u2581fever": 6804,
    "\u2581attachment": 6805,
    "\u2581comparison": 6806,
    "\u2581immigrant": 6807,
    "\u2581Document": 6808,
    "\u2581venture": 6809,
    "\u2581grab": 6810,
    "\u2581Euro": 6811,
    "\u2581miraculous": 6812,
    "\u2581retirement": 6813,
    "\u2581excuse": 6814,
    "tribution": 6815,
    "\u2581Channel": 6816,
    "\u2581drunk": 6817,
    "\u2581glorious": 6818,
    "\u2581massacre": 6819,
    "\u2581Hamid": 6820,
    "\u2581Ordinance": 6821,
    "\u2581offspring": 6822,
    "\u2581promoting": 6823,
    "\u2581Andrew": 6824,
    "James": 6825,
    "\u2581taka": 6826,
    "\u2581Armenia": 6827,
    "\u2581intelligent": 6828,
    "\u2581Jessore": 6829,
    "given": 6830,
    "\u2581immorality": 6831,
    "\u2581earnest": 6832,
    "\u2581physics": 6833,
    "\u2581Scripture": 6834,
    "\u2581Palace": 6835,
    "TER": 6836,
    "error": 6837,
    "\u2581prophecies": 6838,
    "\u2581varieties": 6839,
    "\u2581Policy": 6840,
    "\u2581isolated": 6841,
    "\u2581resident": 6842,
    "\u2581prim": 6843,
    "\u2581Hollywood": 6844,
    "\u2581Knowledge": 6845,
    "\u2581Scotland": 6846,
    "\u2581Welfare": 6847,
    "great": 6848,
    "\u2581Domini": 6849,
    "\u2581Walk": 6850,
    "\u2581occasionally": 6851,
    "\u2581controversy": 6852,
    "\u2581alphabet": 6853,
    "\u2581Bangali": 6854,
    "\u2581priority": 6855,
    "\u2581Field": 6856,
    "\u2581housing": 6857,
    "\u2581Hotel": 6858,
    "\u2581panchayat": 6859,
    "\u2581exhibition": 6860,
    "\u2581exert": 6861,
    "\u2581concentration": 6862,
    "\u2581nawab": 6863,
    "\u2581injury": 6864,
    "\u2581Serbia": 6865,
    "\u2581factories": 6866,
    "\u2581Madras": 6867,
    "elecommunication": 6868,
    "\u2581municipality": 6869,
    "\u2581Jones": 6870,
    "\u2581continuing": 6871,
    "\u2581dialect": 6872,
    "\u2581Jonah": 6873,
    "\u2581descendants": 6874,
    "\u2581harmful": 6875,
    "\u2581mineral": 6876,
    "\u2581removal": 6877,
    "\u2581dwell": 6878,
    "\u2581forgotten": 6879,
    "\u2581dictator": 6880,
    "\u2581hardship": 6881,
    "\u2581Ecuador": 6882,
    "\u25818:3": 6883,
    "\u2581Mongol": 6884,
    "\u25811928": 6885,
    "\u2581Tube": 6886,
    "\u2581compromise": 6887,
    "\u2581qualification": 6888,
    "\u2581Explain": 6889,
    "\u2581eleven": 6890,
    "\u2581Night": 6891,
    "\u2581Monday": 6892,
    "\u2581fifty": 6893,
    "\u2581longitudes": 6894,
    "\u2581invalid": 6895,
    "\u2581ascend": 6896,
    "\u2581basin": 6897,
    "script": 6898,
    "\u2581underground": 6899,
    "\u2581Bombay": 6900,
    "krishna": 6901,
    "\u2581Coast": 6902,
    "\u2581Creative": 6903,
    "\u2581Than": 6904,
    "\u258113:2": 6905,
    "\u2581Gazette": 6906,
    "\u2581compensation": 6907,
    "\u2581tragedy": 6908,
    "\u2581composition": 6909,
    "\u2581composer": 6910,
    "\u2581blank": 6911,
    "\u2581elsewhere": 6912,
    "\u2581cited": 6913,
    "\u2581Nobody": 6914,
    "\u2581sickness": 6915,
    "\u2581abundant": 6916,
    "\u2581Federal": 6917,
    "\u25811929": 6918,
    "\u2581Mohan": 6919,
    "\u2581architect": 6920,
    "\u2581Yang": 6921,
    "\u2581propaganda": 6922,
    "\u2581permitted": 6923,
    "\u2581pagan": 6924,
    "\u2581odd": 6925,
    "\u2581journalism": 6926,
    "\u2581classified": 6927,
    "\u2581Kazakhstan": 6928,
    "\u2581Exchange": 6929,
    "\u2581bottle": 6930,
    "\u2581addict": 6931,
    "\u2581font": 6932,
    "\u2581voting": 6933,
    "\u25811922": 6934,
    "\u2581DNA": 6935,
    "\u2581excel": 6936,
    "\u2581gaze": 6937,
    "\u2581participating": 6938,
    "\u2581regulate": 6939,
    "\u2581Digital": 6940,
    "\u2581amendment": 6941,
    "\u2581Blue": 6942,
    "\u2581Mukherjee": 6943,
    "\u2581chicken": 6944,
    "\u2581Brown": 6945,
    "\u2581Tripura": 6946,
    "\u2581Bangkok": 6947,
    "\u2581statistics": 6948,
    "\u2581surprising": 6949,
    "\u2581adjustment": 6950,
    "\u2581Barcelona": 6951,
    "\u2581Ukraine": 6952,
    "\u2581enterprise": 6953,
    "\u2581opponent": 6954,
    "\u2581pipe": 6955,
    "\u2581consumption": 6956,
    "\u2581occurrence": 6957,
    "\u2581translator": 6958,
    "\u2581Julian": 6959,
    "\u2581steel": 6960,
    "\u2581CHAPTER": 6961,
    "\u2581automatically": 6962,
    "\u2581bangladesh": 6963,
    "\u2581inspiration": 6964,
    "\u2581elite": 6965,
    "\u2581penalty": 6966,
    "\u2581Small": 6967,
    "\u2581coordinate": 6968,
    "\u2581transition": 6969,
    "\u2581Sweden": 6970,
    "\u2581entrusted": 6971,
    "\u2581Commerce": 6972,
    "\u2581Copyright": 6973,
    "\u2581meditate": 6974,
    "\u2581huh": 6975,
    "\u2581cattle": 6976,
    "\u2581zoo": 6977,
    "\u258114:2": 6978,
    "\u2581nineteenth": 6979,
    "\u2581click": 6980,
    "Muslim": 6981,
    "\u2581Azad": 6982,
    "\u2581acres": 6983,
    "\u2581gap": 6984,
    "\u2581Mexican": 6985,
    "\u2581pyramid": 6986,
    "\u2581premier": 6987,
    "\u2581Server": 6988,
    "\u2581Pharisees": 6989,
    "\u2581width": 6990,
    "\u2581beneath": 6991,
    "\u2581involvement": 6992,
    "\u2581Arthur": 6993,
    "\u25813:13": 6994,
    "\u2581safeguard": 6995,
    "\u2581Location": 6996,
    "\u2581relax": 6997,
    "bagh": 6998,
    "\u2581accompany": 6999,
    "\u2581intervention": 7000,
    "\u2581gratitude": 7001,
    "\u2581Crime": 7002,
    "\u2581transmission": 7003,
    "\u2581kiss": 7004,
    "\u2581trading": 7005,
    "\u2581immortal": 7006,
    "\u2581renowned": 7007,
    "\u2581inhabited": 7008,
    "\u2581sorrow": 7009,
    "\u2581Tribunal": 7010,
    "\u2581inheritance": 7011,
    "\u2581Agency": 7012,
    "economic": 7013,
    "\u2581suppress": 7014,
    "\u2581circum": 7015,
    "\u2581Gulf": 7016,
    "\u2581Winter": 7017,
    "\u2581merge": 7018,
    "\u2581Damascus": 7019,
    "\u2581adjacent": 7020,
    "\u2581Brooklyn": 7021,
    "\u2581Gazi": 7022,
    "\u2581oppression": 7023,
    "\u2581carriage": 7024,
    "\u2581linguist": 7025,
    "\u2581orphan": 7026,
    "\u2581foolish": 7027,
    "\u2581breast": 7028,
    "\u2581dinner": 7029,
    "\u2581devote": 7030,
    "\u2581twin": 7031,
    "natural": 7032,
    "\u2581Ground": 7033,
    "ATION": 7034,
    "\u2581Chaplin": 7035,
    "\u2581revolt": 7036,
    "\u2581Algeria": 7037,
    "\u2581Quran": 7038,
    "\u2581Mubarak": 7039,
    "\u2581Stephen": 7040,
    "\u2581interior": 7041,
    "\u2581missile": 7042,
    "\u2581tiger": 7043,
    "\u2581hiding": 7044,
    "\u2581starring": 7045,
    "\u2581conservative": 7046,
    "\u2581embarrass": 7047,
    "\u2581geographical": 7048,
    "\u2581owe": 7049,
    "\u2581frequent": 7050,
    "\u2581Archaeological": 7051,
    "\u2581suspended": 7052,
    "\u2581abilities": 7053,
    "\u2581censorship": 7054,
    "\u2581distract": 7055,
    "\u2581accord": 7056,
    "\u2581lunch": 7057,
    "\u2581Fellow": 7058,
    "\u2581radical": 7059,
    "\u2581specify": 7060,
    "\u2581cyclone": 7061,
    "\u2581comic": 7062,
    "\u2581Stock": 7063,
    "\u2581Jalal": 7064,
    "\u2581insurer": 7065,
    "\u2581drum": 7066,
    "\u2581shopping": 7067,
    "\u2581excessive": 7068,
    "\u2581Program": 7069,
    "\u2581tunnel": 7070,
    "\u2581expedition": 7071,
    "figure": 7072,
    "\u2581WEEK": 7073,
    "\u2581challenging": 7074,
    "\u2581exhaust": 7075,
    "\u2581mechanism": 7076,
    "\u2581SMS": 7077,
    "\u2581consume": 7078,
    "\u2581BIBLE": 7079,
    "\u2581Satyajit": 7080,
    "\u2581magistrate": 7081,
    "\u2581tobacco": 7082,
    "\u2581Gregor": 7083,
    "\u2581License": 7084,
    "\u2581federal": 7085,
    "\u2581Uddin": 7086,
    "\u2581biological": 7087,
    "\u2581funny": 7088,
    "\u2581Medicine": 7089,
    "\u2581globe": 7090,
    "\u258110,000": 7091,
    "\u2581Zone": 7092,
    "\u2581Berlin": 7093,
    "\u2581concluding": 7094,
    "\u2581desperate": 7095,
    "\u2581pilgrim": 7096,
    "\u2581sediment": 7097,
    "\u2581Leave": 7098,
    "\u2581fraud": 7099,
    "\u2581explosion": 7100,
    "\u2581migrant": 7101,
    "\u2581shrine": 7102,
    "\u2581sensitive": 7103,
    "\u2581Recently": 7104,
    "\u2581mortal": 7105,
    "\u2581Anderson": 7106,
    "\u2581evolved": 7107,
    "\u2581kilometre": 7108,
    "\u2581Urban": 7109,
    "\u2581trademark": 7110,
    "\u2581restrain": 7111,
    "\u2581conceal": 7112,
    "text": 7113,
    "\u2581Independent": 7114,
    "\u2581diamond": 7115,
    "\u2581Titus": 7116,
    "\u2581Things": 7117,
    "\u2581decorated": 7118,
    "\u2581communal": 7119,
    "\u2581spouse": 7120,
    "\u2581Guinea": 7121,
    "\u2581symptoms": 7122,
    "\u2581encrypt": 7123,
    "\u2581particle": 7124,
    "\u2581sanction": 7125,
    "ographer": 7126,
    "\u2581invisible": 7127,
    "\u2581uploaded": 7128,
    "\u2581hungry": 7129,
    "\u2581scholarship": 7130,
    "\u2581Cambridge": 7131,
    "\u2581Khwaja": 7132,
    "\u2581coconut": 7133,
    "\u2581precise": 7134,
    "\u2581steam": 7135,
    "\u2581Rup": 7136,
    "\u2581Meghna": 7137,
    "\u2581fortune": 7138,
    "\u2581fond": 7139,
    "\u2581diverse": 7140,
    "\u258124:3": 7141,
    "\u258111:3": 7142,
    "\u2581Degree": 7143,
    "\u2581Senior": 7144,
    "\u2581supervision": 7145,
    "\u2581yeah": 7146,
    "\u258112:3": 7147,
    "\u2581Gujarat": 7148,
    "\u2581radiation": 7149,
    "\u2581Brunei": 7150,
    "\u2581Something": 7151,
    "\u2581limitations": 7152,
    "\u2581carbon": 7153,
    "\u2581tropical": 7154,
    "\u2581architectural": 7155,
    "\u2581dancing": 7156,
    "\u2581Cinema": 7157,
    "\u2581oath": 7158,
    "\u2581Inspector": 7159,
    "\u2581Portugal": 7160,
    "\u2581Likewise": 7161,
    "\u2581solidarity": 7162,
    "\u2581Model": 7163,
    "\u2581rational": 7164,
    "election": 7165,
    "\u2581Marriage": 7166,
    "\u2581attractive": 7167,
    "\u2581mask": 7168,
    "\u2581Thursday": 7169,
    "\u2581auxiliary": 7170,
    "\u2581Jahangir": 7171,
    "\u2581Maulana": 7172,
    "\u2581Dubai": 7173,
    "\u2581vocal": 7174,
    "\u2581theories": 7175,
    "\u258113:3": 7176,
    "\u2581ambassador": 7177,
    "\u2581heartfelt": 7178,
    "\u2581dominant": 7179,
    "\u2581Tehran": 7180,
    "logging": 7181,
    "toxic": 7182,
    "\u2581Husain": 7183,
    "\u2581Worship": 7184,
    "\u2581segment": 7185,
    "\u2581acclaim": 7186,
    "\u2581Unknown": 7187,
    "\u2581Self": 7188,
    "\u2581Final": 7189,
    "\u2581kitchen": 7190,
    "\u2581scroll": 7191,
    "\u2581intimate": 7192,
    "ordination": 7193,
    "\u2581JEHOVAH": 7194,
    "\u2581artificial": 7195,
    "\u2581Sanitation": 7196,
    "\u2581Magazine": 7197,
    "\u2581rupee": 7198,
    "\u2581Hassan": 7199,
    "\u2581Municipal": 7200,
    "stream": 7201,
    "\u2581slaughter": 7202,
    "\u2581Vatican": 7203,
    "\u2581Kerala": 7204,
    "\u2581moderate": 7205,
    "\u2581Bollywood": 7206,
    "\u2581Murshidabad": 7207,
    "\u2581sequence": 7208,
    "\u2581Private": 7209,
    "\u2581transaction": 7210,
    "\u2581barrier": 7211,
    "\u2581terror": 7212,
    "\u258122:3": 7213,
    "\u2581Religion": 7214,
    "piece": 7215,
    "\u2581Faculty": 7216,
    "\u2581Lebanese": 7217,
    "\u2581plenty": 7218,
    "\u2581Kyrgyz": 7219,
    "\u2581Hyderabad": 7220,
    "\u2581pregnant": 7221,
    "\u2581Survey": 7222,
    "\u2581Jamaat": 7223,
    "\u2581ownership": 7224,
    "\u2581Mosaic": 7225,
    "\u2581preceding": 7226,
    "\u2581Teabing": 7227,
    "\u2581warfare": 7228,
    "\u2581Draw": 7229,
    "extrem": 7230,
    "\u2581deliberate": 7231,
    "\u2581militant": 7232,
    "\u2581horror": 7233,
    "\u2581memories": 7234,
    "\u2581Mohamed": 7235,
    "\u2581assemble": 7236,
    "\u2581Elizabeth": 7237,
    "\u2581Eventually": 7238,
    "\u2581fifteen": 7239,
    "parser": 7240,
    "\u2581Sarkar": 7241,
    "\u2581horn": 7242,
    "\u2581resume": 7243,
    "\u2581inaugurated": 7244,
    "\u2581closing": 7245,
    "\u2581whisper": 7246,
    "\u2581Uzbek": 7247,
    "\u2581Presidency": 7248,
    "\u2581reconstruct": 7249,
    "\u2581immense": 7250,
    "\u2581interrupt": 7251,
    "\u2581Programme": 7252,
    "\u2581prevalent": 7253,
    "\u2581northeast": 7254,
    "\u2581strategy": 7255,
    "\u25814:7": 7256,
    "Where": 7257,
    "\u2581faculty": 7258,
    "\u2581Regiment": 7259,
    "\u2581Actually": 7260,
    "\u2581employ": 7261,
    "\u258118:2": 7262,
    "\u2581confined": 7263,
    "\u2581hoping": 7264,
    "oriented": 7265,
    "\u2581SONGS": 7266,
    "\u2581abundance": 7267,
    "worm": 7268,
    "\u2581strain": 7269,
    "\u2581apparent": 7270,
    "\u2581Technical": 7271,
    "\u2581analyze": 7272,
    "\u2581verdict": 7273,
    "\u2581Speaker": 7274,
    "\u2581extraordinary": 7275,
    "\u2581equipped": 7276,
    "\u2581reliable": 7277,
    "\u2581Vidya": 7278,
    "\u2581southeast": 7279,
    "\u2581dialogue": 7280,
    "\u2581Tangail": 7281,
    "\u2581erupt": 7282,
    "\u2581negotiation": 7283,
    "\u2581Atlantic": 7284,
    "\u2581pulse": 7285,
    "\u2581exhort": 7286,
    "\u2581passport": 7287,
    "\u2581Moroccan": 7288,
    "\u2581density": 7289,
    "scale": 7290,
    "\u258115:3": 7291,
    "\u2581plugin": 7292,
    "\u2581recreation": 7293,
    "\u2581glance": 7294,
    "\u2581Secret": 7295,
    "\u2581Regarding": 7296,
    "\u2581Invalid": 7297,
    "\u25813:5": 7298,
    "\u2581Aaron": 7299,
    "\u2581electrification": 7300,
    "\u2581narrative": 7301,
    "\u2581indefinite": 7302,
    "\u2581excited": 7303,
    "\u2581migrate": 7304,
    "\u2581wipe": 7305,
    "\u2581Cottage": 7306,
    "\u2581grace": 7307,
    "\u2581contradict": 7308,
    "\u2581summary": 7309,
    "\u2581Maharashtra": 7310,
    "\u2581supreme": 7311,
    "\u2581Jonathan": 7312,
    "\u2581academy": 7313,
    "\u2581Historical": 7314,
    "built": 7315,
    "Arab": 7316,
    "\u258116:2": 7317,
    "\u2581expenditure": 7318,
    "\u2581Albania": 7319,
    "\u2581admission": 7320,
    "\u2581marvelous": 7321,
    "\u2581Bolivia": 7322,
    "\u2581Ahsan": 7323,
    "\u2581zero": 7324,
    "\u2581substitute": 7325,
    "\u2581Sydney": 7326,
    "ologies": 7327,
    "quality": 7328,
    "\u2581Electric": 7329,
    "\u2581manufacturing": 7330,
    "\u2581vulnerable": 7331,
    "\u2581mihrab": 7332,
    "\u2581enlighten": 7333,
    "Every": 7334,
    "Allow": 7335,
    "\u2581ISBN": 7336,
    "\u2581messenger": 7337,
    "\u2581Orissa": 7338,
    "\u2581Labour": 7339,
    "ndranath": 7340,
    "\u2581Wednesday": 7341,
    "\u2581quantum": 7342,
    "\u2581Iqbal": 7343,
    "\u2581Architect": 7344,
    "\u2581supplied": 7345,
    "\u2581protein": 7346,
    "\u2581Caesar": 7347,
    "\u2581licence": 7348,
    "\u2581carrier": 7349,
    "\u2581Denmark": 7350,
    "\u2581Anglo": 7351,
    "\u2581occupy": 7352,
    "\u2581Faridpur": 7353,
    "\u2581Caribbean": 7354,
    "\u2581prosperity": 7355,
    "\u2581Example": 7356,
    "\u2581Earlier": 7357,
    "\u2581survival": 7358,
    "\u2581Russell": 7359,
    "\u2581Consequently": 7360,
    "\u2581Switzerland": 7361,
    "\u2581diligent": 7362,
    "\u2581tactic": 7363,
    "\u2581deploy": 7364,
    "\u258117:3": 7365,
    "\u2581archaeological": 7366,
    "\u2581undeserved": 7367,
    "\u2581applicable": 7368,
    "\u2581confused": 7369,
    "\u2581cherish": 7370,
    "\u2581Throughout": 7371,
    "\u2581variation": 7372,
    "\u2581advertising": 7373,
    "\u2581surgery": 7374,
    "\u2581applies": 7375,
    "\u2581infected": 7376,
    "\u2581Nasir": 7377,
    "\u2581threw": 7378,
    "\u2581Munich": 7379,
    "\u2581overlook": 7380,
    "\u2581restoration": 7381,
    "\u2581100,000": 7382,
    "\u2581relics": 7383,
    "\u2581Columbia": 7384,
    "\u2581overseas": 7385,
    "\u2581readily": 7386,
    "\u2581Ownership": 7387,
    "\u2581chronic": 7388,
    "\u2581disrupt": 7389,
    "\u2581adhere": 7390,
    "\u2581mirror": 7391,
    "\u2581plastic": 7392,
    "\u2581Colonel": 7393,
    "\u2581Madhya": 7394,
    "\u2581accommodate": 7395,
    "\u2581supplement": 7396,
    "\u2581scope": 7397,
    "\u2581indication": 7398,
    "\u2581translate": 7399,
    "\u2581remnant": 7400,
    "\u2581tribunal": 7401,
    "\u2581ridicule": 7402,
    "\u2581Heritage": 7403,
    "\u2581courtesy": 7404,
    "culture": 7405,
    "\u2581elevated": 7406,
    "\u2581northwest": 7407,
    "\u2581relieve": 7408,
    "\u2581UNESCO": 7409,
    "\u2581Certain": 7410,
    "\u2581descent": 7411,
    "\u2581boundaries": 7412,
    "\u2581custody": 7413,
    "\u2581ingredient": 7414,
    "\u2581predominant": 7415,
    "\u2581receipt": 7416,
    "\u2581Tuesday": 7417,
    "\u2581feminist": 7418,
    "\u2581absent": 7419,
    "\u2581Trophy": 7420,
    "\u2581tendency": 7421,
    "\u2581Consul": 7422,
    "\u2581Physics": 7423,
    "\u2581Tajikistan": 7424,
    "\u2581graduation": 7425,
    "\u2581Bulgaria": 7426,
    "\u2581landowner": 7427,
    "\u2581Hasina": 7428,
    "\u2581elaborate": 7429,
    "\u2581privacy": 7430,
    "\u2581endanger": 7431,
    "\u2581cheat": 7432,
    "\u2581Principal": 7433,
    "\u2581nervous": 7434,
    "\u2581quantity": 7435,
    "\u2581Blood": 7436,
    "\u25811:5": 7437,
    ":21)": 7438,
    "kindness": 7439,
    "\u2581swear": 7440,
    "\u2581accusation": 7441,
    "\u2581Remove": 7442,
    "\u2581tragic": 7443,
    "\u2581browser": 7444,
    "\u2581fierce": 7445,
    "\u2581rainfall": 7446,
    "Pakistan": 7447,
    "clusion": 7448,
    "\u2581strategic": 7449,
    "\u2581humanitarian": 7450,
    "\u2581wilderness": 7451,
    "\u2581Space": 7452,
    "\u2581convicted": 7453,
    "\u2581sugarcane": 7454,
    "\u2581cuisine": 7455,
    "\u2581Olive": 7456,
    "\u2581figurative": 7457,
    "\u2581necessarily": 7458,
    "\u2581poultry": 7459,
    "\u2581protocol": 7460,
    "\u2581smoking": 7461,
    "\u2581incorporated": 7462,
    "including": 7463,
    "\u2581suppose": 7464,
    "\u25811:8": 7465,
    "\u2581terracotta": 7466,
    "\u2581scandal": 7467,
    "\u2581meditation": 7468,
    "through": 7469,
    "\u2581phenomenon": 7470,
    "\u2581poultries": 7471,
    "\u2581modified": 7472,
    "\u2581Direct": 7473,
    "\u2581Chennai": 7474,
    "\u2581Pharaoh": 7475,
    "\u2581Sovereign": 7476,
    "\u2581shield": 7477,
    "\u2581clause": 7478,
    "\u258128:19,": 7479,
    "\u2581Metropolitan": 7480,
    "\u2581survivor": 7481,
    "\u2581Custom": 7482,
    "\u2581crucial": 7483,
    "\u2581Manager": 7484,
    "corporat": 7485,
    "\u2581Brahmaputra": 7486,
    "\u2581dynamic": 7487,
    "\u2581enthusiasm": 7488,
    "\u2581Hannah": 7489,
    "\u2581Faisal": 7490,
    "\u2581dairies": 7491,
    "\u2581nerve": 7492,
    "\u2581kilometers": 7493,
    "\u2581Watson": 7494,
    "\u2581genre": 7495,
    "\u2581regulation": 7496,
    "\u2581basket": 7497,
    "\u25817:9": 7498,
    "\u2581Chatterjee": 7499,
    "\u2581assurance": 7500,
    "\u2581ghost": 7501,
    "\u2581Testament": 7502,
    "\u2581asleep": 7503,
    "plicate": 7504,
    "\u2581Emirates": 7505,
    "\u2581voluntary": 7506,
    "\u2581entity": 7507,
    "answer": 7508,
    "\u2581Community": 7509,
    "\u2581Noakhali": 7510,
    "6,000": 7511,
    "\u2581preservation": 7512,
    "\u2581repeal": 7513,
    "\u258117:2": 7514,
    "\u2581Microsoft": 7515,
    "\u2581inclined": 7516,
    "\u2581Trinity": 7517,
    "\u2581corporate": 7518,
    "\u2581announce": 7519,
    "\u2581behaviour": 7520,
    "\u2581pregnancy": 7521,
    "\u2581theocratic": 7522,
    "\u2581revelation": 7523,
    "\u2581Writing": 7524,
    "\u2581Organisation": 7525,
    "\u2581virgin": 7526,
    "ennial": 7527,
    "\u2581Biblical": 7528,
    "\u2581featuring": 7529,
    "\u2581pursuing": 7530,
    "\u2581Micro": 7531,
    "\u2581Armageddon": 7532,
    "\u2581legislation": 7533,
    "\u2581WORD": 7534,
    "\u2581coalition": 7535,
    "\u2581disabled": 7536,
    "\u2581maternal": 7537,
    "\u2581deceive": 7538,
    "\u2581jewel": 7539,
    "\u2581Announcements": 7540,
    "\u2581adventure": 7541,
    "\u2581jackfruit": 7542,
    "\u2581delegation": 7543,
    "\u2581Cantonment": 7544,
    "\u2581coincide": 7545,
    "\u2581dhaka": 7546,
    "\u2581uprising": 7547,
    "\u2581Dharma": 7548,
    "\u2581Bachelor": 7549,
    "\u2581Always": 7550,
    "\u2581Almighty": 7551,
    "\u2581shirt": 7552,
    "lithic": 7553,
    "\u2581Landowner": 7554,
    "\u2581calculate": 7555,
    "\u2581stomach": 7556,
    "\u2581cooperate": 7557,
    "\u2581floodplain": 7558,
    "\u2581metropolitan": 7559,
    "\u2581scoring": 7560,
    "\u2581monastery": 7561,
    "\u2581testimony": 7562,
    "\u2581furnish": 7563,
    "\u25819:3": 7564,
    "\u2581grandmother": 7565,
    "\u2581Hussein": 7566,
    "\u2581(2012)": 7567,
    "\u2581unfortunate": 7568,
    "\u2581(2011)": 7569,
    "\u2581serial": 7570,
    "\u2581pretend": 7571,
    "\u2581Telugu": 7572,
    "\u2581Ambassador": 7573,
    "\u2581curriculum": 7574,
    "\u2581Advance": 7575,
    "\u2581Delete": 7576,
    "\u2581lyrics": 7577,
    "\u2581Ayub": 7578,
    "\u2581witch": 7579,
    "\u2581database": 7580,
    "\u2581anonymous": 7581,
    "\u2581monsoon": 7582,
    "\u2581persuade": 7583,
    "\u2581drove": 7584,
    "\u2581blogosphere": 7585,
    "\u2581conspiracy": 7586,
    "\u2581patriarch": 7587,
    "\u2581choosing": 7588,
    "\u2581Ashraf": 7589,
    "\u2581conservation": 7590,
    "\u2581breakfast": 7591,
    "\u2581Surely": 7592,
    "\u2581typ": 7593,
    "\u2581Jinnah": 7594,
    "\u2581commemorate": 7595,
    "\u2581facilitate": 7596,
    "\u2581perception": 7597,
    "\u2581Junior": 7598,
    "\u2581striking": 7599,
    "\u2581Arakan": 7600,
    "\u2581Shyam": 7601,
    "\u2581Energy": 7602,
    "\u2581Grameenphone": 7603,
    "\u2581scattered": 7604,
    "\u2581Capital": 7605,
    "\u2581defence": 7606,
    "\u2581convince": 7607,
    "\u2581Default": 7608,
    "\u2581Rohingya": 7609,
    "\u25810.3": 7610,
    "\u2581autonomous": 7611,
    "\u2581imagination": 7612,
    "\u2581withdrew": 7613,
    "\u2581(2006)": 7614,
    "\u2581boast": 7615,
    "\u2581rabbi": 7616,
    "National": 7617,
    "\u2581tremendous": 7618,
    "\u2581comprising": 7619,
    "\u2581corridor": 7620,
    "\u2581describing": 7621,
    "\u2581exciting": 7622,
    "\u2581mathematical": 7623,
    "\u2581Course": 7624,
    "\u2581sphere": 7625,
    "\u2581Lesson": 7626,
    "\u2581excess": 7627,
    "\u2581declaring": 7628,
    "\u2581Mecca": 7629,
    "\u2581varied": 7630,
    "\u258121:3": 7631,
    "\u2581Summit": 7632,
    "\u2581Alliance": 7633,
    "\u2581Canaan": 7634,
    "structural": 7635,
    "\u2581Sahitya": 7636,
    "\u2581Thakur": 7637,
    "\u2581Background": 7638,
    "observ": 7639,
    "\u2581lease": 7640,
    "\u2581Electronic": 7641,
    "\u2581surviving": 7642,
    "\u2581Defense": 7643,
    "\u2581discouraged": 7644,
    "\u2581annex": 7645,
    "\u258113:4": 7646,
    "\u2581Guatemala": 7647,
    "\u2581legislative": 7648,
    "\u2581Puerto": 7649,
    "\u2581Excuse": 7650,
    "\u2581outlook": 7651,
    "\u2581regain": 7652,
    "\u2581Joint": 7653,
    "\u2581Michel": 7654,
    "\u2581traits": 7655,
    "\u258122:2": 7656,
    "ssembl": 7657,
    "\u2581knife": 7658,
    "\u2581Micah": 7659,
    "\u2581bishop": 7660,
    "\u2581eldest": 7661,
    "\u2581landscape": 7662,
    "OVER": 7663,
    "complete": 7664,
    "\u2581apologize": 7665,
    "\u2581competitive": 7666,
    "\u2581reinforce": 7667,
    "\u2581unemployment": 7668,
    "\u2581wrath": 7669,
    "\u2581Website": 7670,
    "\u2581Reason": 7671,
    "trained": 7672,
    "\u2581suburb": 7673,
    "\u25813:8": 7674,
    "\u2581Caucasus": 7675,
    "\u2581Magistrate": 7676,
    "\u2581furniture": 7677,
    "\u2581Airlines": 7678,
    "\u2581Scientific": 7679,
    "\u2581believing": 7680,
    "\u2581venue": 7681,
    "\u2581outrage": 7682,
    "\u2581quarrel": 7683,
    "\u2581completing": 7684,
    "\u2581twist": 7685,
    "Judg": 7686,
    "\u2581Bhattacharya": 7687,
    "\u2581Athens": 7688,
    "\u25815:8": 7689,
    "\u2581Challenge": 7690,
    "\u2581Financial": 7691,
    "\u2581Swedish": 7692,
    "\u2581(2010)": 7693,
    "\u2581enacted": 7694,
    "\u2581proverb": 7695,
    "\u2581irregular": 7696,
    "\u2581Rajasthan": 7697,
    "\u2581mystery": 7698,
    "\u2581anchor": 7699,
    "\u2581(2013)": 7700,
    "\u2581invention": 7701,
    "\u2581guilt": 7702,
    "\u2581Banerjee": 7703,
    "\u2581disappointment": 7704,
    "\u2581rectangular": 7705,
    "\u2581swift": 7706,
    "\u2581reception": 7707,
    "://": 7708,
    "\u2581allocate": 7709,
    "\u2581opera": 7710,
    "\u25817:3": 7711,
    "\u2581muscle": 7712,
    "\u2581behave": 7713,
    "\u2581Karnataka": 7714,
    "\u2581refrain": 7715,
    "\u2581struggling": 7716,
    "\u2581(2007)": 7717,
    "\u2581hurry": 7718,
    "\u2581Nizam": 7719,
    "\u2581exempt": 7720,
    "\u2581communist": 7721,
    "\u2581abstract": 7722,
    "\u2581slope": 7723,
    "\u2581Belgium": 7724,
    "\u2581Vittoria": 7725,
    "\u2581conferred": 7726,
    "\u2581diversity": 7727,
    "\u2581BNP": 7728,
    "\u2581psychological": 7729,
    "\u2581vault": 7730,
    "\u2581sovereign": 7731,
    "\u2581Discussion": 7732,
    "\u2581approve": 7733,
    "trust": 7734,
    "\u2581Pennsylvania": 7735,
    "\u2581separation": 7736,
    "\u2581engaging": 7737,
    "\u2581Taylor": 7738,
    "\u2581offense": 7739,
    "\u2581Writer": 7740,
    "\u2581Bangalore": 7741,
    "\u2581Orthodox": 7742,
    "\u2581Palanquin": 7743,
    "\u2581serpent": 7744,
    "\u2581Calendar": 7745,
    "\u2581Demotix": 7746,
    "\u2581Unfortunately": 7747,
    "\u2581prominence": 7748,
    "\u2581(2005)": 7749,
    "\u2581decoration": 7750,
    "\u2581Winston": 7751,
    "\u2581Together": 7752,
    "\u2581retrieve": 7753,
    "\u2581http": 7754,
    "\u2581consecutive": 7755,
    "\u2581departure": 7756,
    "\u2581observance": 7757,
    "\u2581(2008)": 7758,
    "\u2581guitar": 7759,
    "\u2581abortion": 7760,
    "\u2581Lamb": 7761,
    "\u2581Large": 7762,
    "\u2581Baghdad": 7763,
    "\u2581Trinamool": 7764,
    "\u2581acquisition": 7765,
    "\u2581throat": 7766,
    "\u2581improving": 7767,
    "\u2581electoral": 7768,
    "\u2581siege": 7769,
    "\u2581Qualifier": 7770,
    "\u2581dictionary": 7771,
    "\u2581enrolled": 7772,
    "\u2581warrior": 7773,
    "\u25812:9": 7774,
    "\u2581Pentecost": 7775,
    "\u2581Chemistry": 7776,
    "\u2581TREASURES": 7777,
    "profit": 7778,
    "\u2581admire": 7779,
    "\u2581interfere": 7780,
    "\u2581literal": 7781,
    "\u2581Sealdah": 7782,
    "\u2581Imperial": 7783,
    "\u2581leather": 7784,
    "\u2581Gentile": 7785,
    "\u2581Break": 7786,
    "\u2581compiled": 7787,
    "\u2581Movie": 7788,
    "\u2581Specif": 7789,
    "\u2581Engineer": 7790,
    "\u2581lamb": 7791,
    "\u2581Cyprus": 7792,
    "\u2581disposal": 7793,
    "\u2581Pabna": 7794,
    "\u2581exercising": 7795,
    "\u2581temporarily": 7796,
    "\u2581paddy": 7797,
    "\u2581CEO": 7798,
    "\u2581provoke": 7799,
    "\u2581concrete": 7800,
    "\u2581technologies": 7801,
    "\u2581triumph": 7802,
    "\u2581spoil": 7803,
    "\u2581Choudhury": 7804,
    "\u2581Industry": 7805,
    "\u2581experiencing": 7806,
    "\u2581Scholar": 7807,
    "\u2581livestock": 7808,
    "\u2581dairy": 7809,
    "Jesus": 7810,
    "With": 7811,
    "\u2581Subsequently": 7812,
    "\u2581consequent": 7813,
    "\u2581Rahim": 7814,
    "\u2581Notwithstanding": 7815,
    "\u2581frustration": 7816,
    "\u2581(2004)": 7817,
    "\u25813:3": 7818,
    "\u2581modify": 7819,
    "\u2581execute": 7820,
    "\u2581wrestling": 7821,
    "\u2581advisor": 7822,
    "\u2581excavation": 7823,
    "\u2581bacteria": 7824,
    "\u2581guidelines": 7825,
    "ocracy": 7826,
    "\u2581nephew": 7827,
    "\u2581Recall": 7828,
    "\u2581Criminal": 7829,
    "\u2581helicopter": 7830,
    "\u2581identification": 7831,
    "\u2581Clear": 7832,
    "\u2581Cabinet": 7833,
    "\u2581Indigenous": 7834,
    "\u2581economist": 7835,
    "\u2581libraries": 7836,
    "Jeremiah": 7837,
    "\u2581Declaration": 7838,
    "\u2581calamity": 7839,
    "\u2581Woman": 7840,
    "\u2581devastating": 7841,
    "\u2581nickname": 7842,
    "\u2581Jammu": 7843,
    "\u2581GNOME": 7844,
    "\u2581ignorance": 7845,
    "\u2581hazard": 7846,
    "\u2581crystal": 7847,
    "Deut": 7848,
    "\u2581Traditional": 7849,
    "\u2581comprehensive": 7850,
    "\u2581expelled": 7851,
    "\u2581Require": 7852,
    "\u2581Messianic": 7853,
    "\u2581Zechariah": 7854,
    "\u2581merciful": 7855,
    "\u2581equation": 7856,
    "\u2581pledge": 7857,
    "Eccl": 7858,
    "\u2581Chaitanya": 7859,
    "\u2581complicated": 7860,
    "pucca": 7861,
    "\u2581inclination": 7862,
    "\u2581livelihood": 7863,
    "\u2581junior": 7864,
    "\u2581(2009)": 7865,
    "\u25819/1": 7866,
    "\u2581intervene": 7867,
    "\u2581hung": 7868,
    "\u2581Newspapers": 7869,
    "\u2581indicating": 7870,
    "\u2581shrimp": 7871,
    "\u2581Harvard": 7872,
    "\u2581eligible": 7873,
    "\u2581swallow": 7874,
    "\u2581(2015)": 7875,
    "\u2581caution": 7876,
    "\u2581dimension": 7877,
    "\u2581Literary": 7878,
    "\u2581Texas": 7879,
    "\u2581Corinth": 7880,
    "\u2581overthrow": 7881,
    "\u2581Czech": 7882,
    "correct": 7883,
    "\u2581Yusuf": 7884,
    "\u2581arsenic": 7885,
    "\u2581physicist": 7886,
    "\u2581obstruct": 7887,
    "\u2581powder": 7888,
    "\u2581erosion": 7889,
    "\u2581depressed": 7890,
    "\u2581idiot": 7891,
    "\u2581Campaign": 7892,
    "\u2581fragment": 7893,
    "\u2581injuries": 7894,
    "\u2581Tanzania": 7895,
    "\u2581Mediterranean": 7896,
    "\u2581Manchester": 7897,
    "\u2581tissue": 7898,
    "\u2581martial": 7899,
    "\u2581Crown": 7900,
    "\u2581barely": 7901,
    "Pucca": 7902,
    "\u2581Benjamin": 7903,
    "\u2581introductory": 7904,
    "\u2581necessity": 7905,
    "\u2581drought": 7906,
    "\u2581Treaty": 7907,
    "\u2581Animal": 7908,
    "\u2581decay": 7909,
    "\u2581olive": 7910,
    "\u2581Audit": 7911,
    "\u25815:4": 7912,
    "\u2581overwhelming": 7913,
    "\u2581Filmfare": 7914,
    "Yemen": 7915,
    "\u2581desktop": 7916,
    "\u2581Kepler": 7917,
    "\u2581babies": 7918,
    "screen": 7919,
    "\u2581acquainted": 7920,
    "\u2581celebrating": 7921,
    "\u2581manufactories": 7922,
    "\u2581pleasing": 7923,
    "\u2581scenario": 7924,
    "\u2581commencement": 7925,
    "\u2581Jamaica": 7926,
    "\u2581Kapoor": 7927,
    "\u2581gauge": 7928,
    "mplified": 7929,
    "\u2581hesitate": 7930,
    "\u2581STUDY": 7931,
    "\u2581Prothom": 7932,
    "\u2581Padak": 7933,
    "TION": 7934,
    "\u2581legitimate": 7935,
    "\u2581landlord": 7936,
    "Sirajul": 7937,
    "\u2581restart": 7938,
    "\u2581Universal": 7939,
    "\u2581(2014)": 7940,
    "\u2581Jamuna": 7941,
    "\u2581humankind": 7942,
    "continent": 7943,
    "\u258112:4": 7944,
    "\u2581cigarette": 7945,
    "\u2581persecuted": 7946,
    "\u2581Jimmy": 7947,
    "\u2581whale": 7948,
    "official": 7949,
    "\u2581resemble": 7950,
    "\u2581excitement": 7951,
    "\u2581genocide": 7952,
    "\u2581Burmese": 7953,
    "\u2581Above": 7954,
    "\u2581Slav": 7955,
    "Zephaniah": 7956,
    "\u2581presidency": 7957,
    "\u2581contributor": 7958,
    "\u2581stairs": 7959,
    "eceive": 7960,
    "\u25813:9": 7961,
    "\u2581Different": 7962,
    "\u2581Encourage": 7963,
    "\u2581encompass": 7964,
    "\u2581unprecedented": 7965,
    "\u2581Individual": 7966,
    "\u2581stumble": 7967,
    "\u2581brilliant": 7968,
    "\u2581oxygen": 7969,
    "\u2581thunder": 7970,
    "sacrificing": 7971,
    "\u2581forbidden": 7972,
    "Wiki": 7973,
    "\u2581affair": 7974,
    "\u2581Century": 7975,
    "\u2581frequency": 7976,
    "\u2581Concern": 7977,
    "\u2581yoke": 7978,
    "\u2581Sundarbans": 7979,
    "\u2581arriving": 7980,
    "begotten": 7981,
    "\u2581plunder": 7982,
    "\u2581Swiss": 7983,
    "\u2581circulation": 7984,
    "\u2581identical": 7985,
    ":1-3)": 7986,
    "\u2581thirst": 7987,
    "\u2581monster": 7988,
    "\u2581Manipur": 7989,
    "\u2581Delimitation": 7990,
    "\u2581Nehru": 7991,
    "inspiring": 7992,
    "\u2581censor": 7993,
    "\u2581deceased": 7994,
    "\u2581Bhutto": 7995,
    "\u2581Registrar": 7996,
    "\u2581Hitler": 7997,
    "\u2581cyber": 7998,
    "\u2581distort": 7999,
    "cultural": 8000
  },
  "tgt_word2id": {
    "<pad>": 0,
    "<s>": 1,
    "</s>": 2,
    "<unk>": 3,
    "\u0964": 4,
    ",": 5,
    "\u09c7\u09b0": 6,
    "\u09b0": 7,
    "\u2581\u098f\u09ac\u0982": 8,
    "-": 9,
    "\u09c7": 10,
    "\u2581\u0993": 11,
    ".": 12,
    "\u2581\u0995\u09b0\u09c7": 13,
    "\u2581": 14,
    ":": 15,
    "\u2581(": 16,
    "\u2581\u0995\u09b0\u09be": 17,
    ")": 18,
    "\u2581\u098f\u0987": 19,
    "\u2581\u09a8\u09be": 20,
    "\u2581\u09af\u09c7": 21,
    "\u0995\u09c7": 22,
    "\u2581\u099c\u09a8\u09cd\u09af": 23,
    "\u2581\u09b9\u09af\u09bc": 24,
    "\u2581\"": 25,
    "?": 26,
    "\u2581\u09a5\u09c7\u0995\u09c7": 27,
    "\u0987": 28,
    "\u2581\u09a4\u09bf\u09a8\u09bf": 29,
    "\u2581\u09a4\u09be\u09b0": 30,
    "\u2581\u0995\u09b0\u09a4\u09c7": 31,
    "\u2581\u098f\u0995\u099f\u09bf": 32,
    "\u2581\u0986\u09ae\u09bf": 33,
    "\u2581\u0986\u09b0": 34,
    "\u0993": 35,
    "\"": 36,
    "\u2581\u0995\u09b0\u09c7\u09a8": 37,
    "\u2581\u09a4\u09be\u09a6\u09c7\u09b0": 38,
    "\u2581\u0986\u09ae\u09be\u09a6\u09c7\u09b0": 39,
    "\u09a8": 40,
    "\u2581-": 41,
    "\u2581\u0995\u09b0\u09be\u09b0": 42,
    "\u2581\u09ac\u09be": 43,
    "\u2581\u098f\u09b0": 44,
    "\u2581\u098f\u0995": 45,
    "\u099f\u09bf": 46,
    "\u2581\u0986\u09ae\u09b0\u09be": 47,
    "\u2581\u099b\u09bf\u09b2": 48,
    "\u2581\u09a4\u09be": 49,
    "\u2581\u098f": 50,
    "\u09a4\u09c7": 51,
    "\u2581\u09b9\u09ac\u09c7": 52,
    "\u2581\u09b8\u09be\u09b2\u09c7": 53,
    "\u09af\u09bc": 54,
    "\u2581\u09ae\u09a7\u09cd\u09af\u09c7": 55,
    "\u2581\u0995\u09bf": 56,
    "\u2581\u09a4\u09be\u09b0\u09be": 57,
    "\u2581\u0995\u09bf\u09a8\u09cd\u09a4\u09c1": 58,
    "\u0995": 59,
    "\u09b8": 60,
    "\u2581\u0995\u09cb\u09a8": 61,
    "\u2581\u0986\u09ae\u09be\u09b0": 62,
    "\u09b0\u09be": 63,
    ";": 64,
    "\u2581\u098f\u0995\u099c\u09a8": 65,
    "\u2581\u09af\u09be": 66,
    "\u09a6\u09c7\u09b0": 67,
    "\u2581\u09b9\u09af\u09bc\u09c7\u099b\u09c7": 68,
    "\u2581\u09b8\u09c7\u0987": 69,
    "\u2581\u09b9\u09af\u09bc\u09c7": 70,
    "\u2581\u09b8\u09c7": 71,
    "\u2581\u09b8\u09be\u09a5\u09c7": 72,
    "\u2581\u09a4\u09be\u0981\u09b0": 73,
    "!": 74,
    "\u2581\u0995\u09bf\u099b\u09c1": 75,
    "'": 76,
    "\u2581\u09b8\u0999\u09cd\u0997\u09c7": 77,
    "\u2581\u09a8\u09bf\u09af\u09bc\u09c7": 78,
    "\u2581\u098f\u0995\u099f\u09be": 79,
    "\u2581\u09b8\u09ae\u09af\u09bc": 80,
    "\u2581\u09aa\u09be\u09b0\u09c7": 81,
    "\u2581\u09b9\u09bf\u09b8\u09c7\u09ac\u09c7": 82,
    "\u09bf": 83,
    "\u09be": 84,
    "\u2581\u098f\u099f\u09be": 85,
    "\u2581\u0995\u09be\u099c": 86,
    "\u09c0": 87,
    "\u2581\u09af\u09be\u09af\u09bc": 88,
    "\u099f\u09be": 89,
    "\u2581'": 90,
    "\u2581\u09e7": 91,
    "\u2581\u09ac\u09b2\u09c7": 92,
    "\u2581\u0995\u09a5\u09be": 93,
    "\u2581\u09aa\u09cd\u09b0\u09a4\u09bf": 94,
    "\u2581\u0986\u099b\u09c7": 95,
    "\u2581\u09af\u0996\u09a8": 96,
    "\u2581\u0986\u09aa\u09a8\u09bf": 97,
    "\u2581\u09b0\u09af\u09bc\u09c7\u099b\u09c7": 98,
    "\u2581\u0985\u09a8\u09c7\u0995": 99,
    "\u2581\u09b8\u09be\u09b2\u09c7\u09b0": 100,
    "\u2581\u09aa\u09b0": 101,
    "\u2581\u09ae\u09a8\u09c7": 102,
    "\u2581\u09b9\u09af\u09bc\u09c7\u099b\u09bf\u09b2": 103,
    "\u09b2": 104,
    "\u09ae": 105,
    "\u2581\u09e8": 106,
    "\u2581\u09af\u09a6\u09bf": 107,
    "\u2581\u0995\u09b0\u09c7\u099b\u09bf\u09b2\u09c7\u09a8": 108,
    "\u09a4\u09be": 109,
    "\u2581\u09aa\u09cd\u09b0\u09a5\u09ae": 110,
    "\u2581\u0964": 111,
    "\u2581\u09b9\u09a4\u09c7": 112,
    "\u2581\u09b9\u09b2": 113,
    "\u2581\u0995\u09be\u099b\u09c7": 114,
    "\u2581\u09a8\u09af\u09bc": 115,
    "\u09a8\u09be": 116,
    "\u09e7": 117,
    "\u2581\u09a4\u09c1\u09ae\u09bf": 118,
    "\u2581\u098f\u099f\u09bf": 119,
    "\u2581\u09b6\u09c1\u09b0\u09c1": 120,
    "\u2581\u09a6\u09bf\u09af\u09bc\u09c7": 121,
    "\u0964\"": 122,
    "\u0997\u09c1\u09b2\u09cb": 123,
    "\u2581\u09ac\u09cd\u09af\u09ac\u09b9\u09be\u09b0": 124,
    "\u2581\u09a6\u09cd\u09ac\u09be\u09b0\u09be": 125,
    "\u2581\u09a5\u09be\u0995\u09c7": 126,
    "\u2581\u09ac\u099b\u09b0": 127,
    "...": 128,
    "\u2581\u099b\u09bf\u09b2\u09c7\u09a8": 129,
    "\u2581\u0995\u09b0\u09c7\u099b\u09c7": 130,
    "\u09a4": 131,
    "\u09ad\u09be\u09ac\u09c7": 132,
    "\u2581\u0988\u09b6\u09cd\u09ac\u09b0\u09c7\u09b0": 133,
    "\u2581\u09b9\u099a\u09cd\u099b\u09c7": 134,
    "\u2581\u0995\u09c0": 135,
    "\u2581\u0986\u09aa\u09a8\u09be\u09b0": 136,
    "\u2581\u09af\u09bf\u09b9\u09cb\u09ac\u09be\u09b0": 137,
    "\u2581\u09a4\u0996\u09a8": 138,
    "\u2581\u0995\u09b0\u09c1\u09a8": 139,
    "\u09ac": 140,
    "\u2581\u098f\u09ae\u09a8": 141,
    "\u2581\u09e9": 142,
    "\u2581\u09ae\u09be\u09a7\u09cd\u09af\u09ae\u09c7": 143,
    "\u2581\u09a4\u09be\u0995\u09c7": 144,
    "\u2581\u0985": 145,
    "\u2581\u0995\u09cb\u09a8\u09cb": 146,
    "\u2581\u09a4\u09be\u0987": 147,
    "\u2581\u0995\u09b0\u09bf": 148,
    "\u099c": 149,
    "\u2581\u09b8\u09be\u09b9\u09be\u09af\u09cd\u09af": 150,
    "\u2581\u09ac\u09c7\u09b6\u09bf": 151,
    "\u2581\u0995\u09b0\u09c7\u099b\u09c7\u09a8": 152,
    "\u2581\u09a8\u09a4\u09c1\u09a8": 153,
    "\u2581\u09aa\u09b0\u09cd\u09af\u09a8\u09cd\u09a4": 154,
    "\u2581[": 155,
    "\u09cb": 156,
    "\u2581\u0995\u09be\u09b0\u09a3": 157,
    "\u2581\u0985\u09a5\u09ac\u09be": 158,
    "\u2581\u09a6\u09c7\u0993\u09af\u09bc\u09be": 159,
    "\u2581\u09ac\u09bf\u09ad\u09bf\u09a8\u09cd\u09a8": 160,
    "]": 161,
    "\u2581\u09a4\u09cb\u09ae\u09be\u09b0": 162,
    "\u2581\u0989\u09aa\u09b0": 163,
    "\u2581\u099c\u09a8": 164,
    "\u09a8\u09bf": 165,
    "\u2581\u09b8\u09ae\u09cd\u09ac\u09a8\u09cd\u09a7\u09c7": 166,
    "\u2581\u0986\u09b0\u0993": 167,
    "\u2581\u09ac\u09bf\u09b7\u09af\u09bc\u09c7": 168,
    "\u2581\u09af\u09be\u09b0\u09be": 169,
[...]
